{
  "version": "1.0",
  "truncation": null,
  "padding": null,
  "added_tokens": [
    {
      "id": 0,
      "content": "<pad>",
      "single_word": false,
      "lstrip": false,
      "rstrip": false,
      "normalized": false,
      "special": true
    },
    {
      "id": 1,
      "content": "<unk>",
      "single_word": false,
      "lstrip": false,
      "rstrip": false,
      "normalized": false,
      "special": true
    },
    {
      "id": 2,
      "content": "<bos>",
      "single_word": false,
      "lstrip": false,
      "rstrip": false,
      "normalized": false,
      "special": true
    },
    {
      "id": 3,
      "content": "<eos>",
      "single_word": false,
      "lstrip": false,
      "rstrip": false,
      "normalized": false,
      "special": true
    },
    {
      "id": 4,
      "content": "<user>",
      "single_word": false,
      "lstrip": false,
      "rstrip": false,
      "normalized": false,
      "special": true
    },
    {
      "id": 5,
      "content": "<assistant>",
      "single_word": false,
      "lstrip": false,
      "rstrip": false,
      "normalized": false,
      "special": true
    },
    {
      "id": 6,
      "content": "<system>",
      "single_word": false,
      "lstrip": false,
      "rstrip": false,
      "normalized": false,
      "special": true
    }
  ],
  "normalizer": null,
  "pre_tokenizer": {
    "type": "ByteLevel",
    "add_prefix_space": false,
    "trim_offsets": true,
    "use_regex": true
  },
  "post_processor": null,
  "decoder": {
    "type": "ByteLevel",
    "add_prefix_space": true,
    "trim_offsets": true,
    "use_regex": true
  },
  "model": {
    "type": "BPE",
    "dropout": null,
    "unk_token": "<unk>",
    "continuing_subword_prefix": null,
    "end_of_word_suffix": null,
    "fuse_unk": false,
    "byte_fallback": false,
    "ignore_merges": false,
    "vocab": {
      "<pad>": 0,
      "<unk>": 1,
      "<bos>": 2,
      "<eos>": 3,
      "<user>": 4,
      "<assistant>": 5,
      "<system>": 6,
      "!": 7,
      "\"": 8,
      "#": 9,
      "$": 10,
      "%": 11,
      "&": 12,
      "'": 13,
      "(": 14,
      ")": 15,
      "*": 16,
      "+": 17,
      ",": 18,
      "-": 19,
      ".": 20,
      "/": 21,
      "0": 22,
      "1": 23,
      "2": 24,
      "3": 25,
      "4": 26,
      "5": 27,
      "6": 28,
      "7": 29,
      "8": 30,
      "9": 31,
      ":": 32,
      ";": 33,
      "<": 34,
      "=": 35,
      ">": 36,
      "?": 37,
      "@": 38,
      "A": 39,
      "B": 40,
      "C": 41,
      "D": 42,
      "E": 43,
      "F": 44,
      "G": 45,
      "H": 46,
      "I": 47,
      "J": 48,
      "K": 49,
      "L": 50,
      "M": 51,
      "N": 52,
      "O": 53,
      "P": 54,
      "Q": 55,
      "R": 56,
      "S": 57,
      "T": 58,
      "U": 59,
      "V": 60,
      "W": 61,
      "X": 62,
      "Y": 63,
      "Z": 64,
      "[": 65,
      "\\": 66,
      "]": 67,
      "^": 68,
      "_": 69,
      "`": 70,
      "a": 71,
      "b": 72,
      "c": 73,
      "d": 74,
      "e": 75,
      "f": 76,
      "g": 77,
      "h": 78,
      "i": 79,
      "j": 80,
      "k": 81,
      "l": 82,
      "m": 83,
      "n": 84,
      "o": 85,
      "p": 86,
      "q": 87,
      "r": 88,
      "s": 89,
      "t": 90,
      "u": 91,
      "v": 92,
      "w": 93,
      "x": 94,
      "y": 95,
      "z": 96,
      "{": 97,
      "|": 98,
      "}": 99,
      "~": 100,
      "¡": 101,
      "¢": 102,
      "£": 103,
      "¤": 104,
      "¥": 105,
      "¦": 106,
      "§": 107,
      "¨": 108,
      "©": 109,
      "ª": 110,
      "«": 111,
      "¬": 112,
      "®": 113,
      "¯": 114,
      "°": 115,
      "±": 116,
      "²": 117,
      "³": 118,
      "´": 119,
      "µ": 120,
      "¶": 121,
      "·": 122,
      "¸": 123,
      "¹": 124,
      "º": 125,
      "»": 126,
      "¼": 127,
      "½": 128,
      "¾": 129,
      "¿": 130,
      "Â": 131,
      "Ã": 132,
      "Ä": 133,
      "Å": 134,
      "È": 135,
      "É": 136,
      "Ê": 137,
      "Ë": 138,
      "Î": 139,
      "Ï": 140,
      "Ð": 141,
      "Ñ": 142,
      "Ö": 143,
      "×": 144,
      "Ø": 145,
      "à": 146,
      "á": 147,
      "â": 148,
      "ã": 149,
      "ä": 150,
      "å": 151,
      "æ": 152,
      "ç": 153,
      "è": 154,
      "é": 155,
      "ï": 156,
      "ð": 157,
      "ô": 158,
      "Ć": 159,
      "Ċ": 160,
      "Ę": 161,
      "Ġ": 162,
      "Ģ": 163,
      "ģ": 164,
      "Ĥ": 165,
      "ĥ": 166,
      "Ħ": 167,
      "ħ": 168,
      "Ĩ": 169,
      "ĩ": 170,
      "Ī": 171,
      "ī": 172,
      "Ĭ": 173,
      "ĭ": 174,
      "Į": 175,
      "į": 176,
      "İ": 177,
      "ı": 178,
      "Ĳ": 179,
      "ĳ": 180,
      "Ĵ": 181,
      "ĵ": 182,
      "Ķ": 183,
      "ķ": 184,
      "ĸ": 185,
      "Ĺ": 186,
      "ĺ": 187,
      "Ļ": 188,
      "ļ": 189,
      "Ľ": 190,
      "ľ": 191,
      "Ŀ": 192,
      "ŀ": 193,
      "Ł": 194,
      "ł": 195,
      "Ń": 196,
      "Ġt": 197,
      "Ġa": 198,
      "in": 199,
      "he": 200,
      "re": 201,
      "on": 202,
      "er": 203,
      "Ġthe": 204,
      "Ġs": 205,
      "at": 206,
      "Ġc": 207,
      "or": 208,
      "an": 209,
      "is": 210,
      "en": 211,
      "ou": 212,
      "Ġan": 213,
      "es": 214,
      "it": 215,
      "Ġw": 216,
      "Ġp": 217,
      "ing": 218,
      "Ġf": 219,
      "Ġo": 220,
      "Ġm": 221,
      "Ġand": 222,
      "Ġb": 223,
      "al": 224,
      "Ġto": 225,
      "Ġin": 226,
      "le": 227,
      "Ġd": 228,
      "ar": 229,
      "Ġof": 230,
      "ion": 231,
      "ic": 232,
      "ed": 233,
      "as": 234,
      "us": 235,
      "ro": 236,
      "Ġth": 237,
      "Ġh": 238,
      "Ġy": 239,
      "Ġe": 240,
      "ct": 241,
      "om": 242,
      "Ġyou": 243,
      "Ġl": 244,
      "ent": 245,
      "Ġre": 246,
      "ve": 247,
      "Ġn": 248,
      "et": 249,
      "Ġis": 250,
      "il": 251,
      "im": 252,
      "Ġg": 253,
      "ĠI": 254,
      "ow": 255,
      "ĠT": 256,
      "el": 257,
      "ist": 258,
      ">:": 259,
      "st": 260,
      "Ġfor": 261,
      "ch": 262,
      "ant": 263,
      "am": 264,
      "id": 265,
      "Ġthat": 266,
      "ce": 267,
      "Ġbe": 268,
      "ol": 269,
      "ation": 270,
      "ot": 271,
      "ut": 272,
      "ig": 273,
      "un": 274,
      "ly": 275,
      "Ġon": 276,
      "Ġst": 277,
      "if": 278,
      "ay": 279,
      "Ġit": 280,
      "ith": 281,
      "Ġpro": 282,
      "Ġas": 283,
      "ver": 284,
      "Ġcan": 285,
      "od": 286,
      "ra": 287,
      "ul": 288,
      "Ġcon": 289,
      "ĠA": 290,
      "ur": 291,
      "Ġwith": 292,
      "ass": 293,
      "Ġor": 294,
      "Ġare": 295,
      "se": 296,
      "Ġus": 297,
      "ge": 298,
      "ir": 299,
      "ĠS": 300,
      "ate": 301,
      "ld": 302,
      "Ġex": 303,
      "ad": 304,
      "ĠC": 305,
      "ke": 306,
      "Ġcom": 307,
      "um": 308,
      "Ġwh": 309,
      "Ġal": 310,
      "her": 311,
      "qu": 312,
      "ers": 313,
      "ure": 314,
      "istant": 315,
      "ess": 316,
      "Ġyour": 317,
      "Ġde": 318,
      "user": 319,
      "pe": 320,
      "ter": 321,
      "ab": 322,
      "ĠThe": 323,
      "assistant": 324,
      "Ġv": 325,
      "Ġhe": 326,
      "ri": 327,
      "ore": 328,
      "ere": 329,
      "ould": 330,
      "Ġsu": 331,
      "pl": 332,
      "th": 333,
      "ity": 334,
      "'s": 335,
      "em": 336,
      "op": 337,
      "ĠH": 338,
      "est": 339,
      "ck": 340,
      "out": 341,
      "igh": 342,
      "Ġne": 343,
      "ment": 344,
      "pt": 345,
      "ain": 346,
      "ort": 347,
      "Ġha": 348,
      "ĠW": 349,
      "ĠP": 350,
      "ive": 351,
      "and": 352,
      "ill": 353,
      "ect": 354,
      "Ġr": 355,
      "os": 356,
      "ies": 357,
      "Ġim": 358,
      "nt": 359,
      "Ġle": 360,
      "Ġ\"": 361,
      "Ġch": 362,
      "ĠM": 363,
      "Ġen": 364,
      "ple": 365,
      "ome": 366,
      "Ġhave": 367,
      "ions": 368,
      "Ġ(": 369,
      "age": 370,
      "ight": 371,
      "rom": 372,
      "iz": 373,
      "Ġun": 374,
      "Ġse": 375,
      "Ġme": 376,
      "per": 377,
      "Ġby": 378,
      "Ġnot": 379,
      "ine": 380,
      "ial": 381,
      "Ġma": 382,
      "iv": 383,
      "Ġsh": 384,
      "Ġwor": 385,
      "pp": 386,
      "end": 387,
      "oc": 388,
      "our": 389,
      "ical": 390,
      "ud": 391,
      "ĠE": 392,
      "Ġ1": 393,
      "ide": 394,
      "ĠD": 395,
      "Ġpl": 396,
      "ther": 397,
      "Ġab": 398,
      "all": 399,
      "ĠB": 400,
      "Ġint": 401,
      "res": 402,
      "Ġfrom": 403,
      "ame": 404,
      "act": 405,
      "art": 406,
      "nd": 407,
      "ĠF": 408,
      "ĠTh": 409,
      "og": 410,
      "ell": 411,
      "Ġ=": 412,
      "ile": 413,
      "ĠG": 414,
      "Ġad": 415,
      "orm": 416,
      "``": 417,
      "Ġwe": 418,
      "ust": 419,
      "ĠR": 420,
      "Ġthis": 421,
      "ich": 422,
      "Ġat": 423,
      "are": 424,
      "able": 425,
      "Ġmore": 426,
      "cl": 427,
      "--": 428,
      "Ġdo": 429,
      "Ġimp": 430,
      "Ġk": 431,
      "Ġcomp": 432,
      "Ġcont": 433,
      "ĠL": 434,
      "ult": 435,
      "Ġli": 436,
      "ep": 437,
      "Ġother": 438,
      "ard": 439,
      "ations": 440,
      "ag": 441,
      "ry": 442,
      "Ġres": 443,
      "rou": 444,
      "form": 445,
      "ang": 446,
      "cess": 447,
      "Ġtheir": 448,
      "Ġwhich": 449,
      "ind": 450,
      "ff": 451,
      "vel": 452,
      "Ġte": 453,
      "up": 454,
      "ase": 455,
      "king": 456,
      "ue": 457,
      "Ġuse": 458,
      "ction": 459,
      "ack": 460,
      "Ġsome": 461,
      "ire": 462,
      "so": 463,
      "Ġcre": 464,
      "ie": 465,
      "Ġwhe": 466,
      "ĠO": 467,
      "Ġwas": 468,
      "Ġwill": 469,
      "Ġ2": 470,
      "ance": 471,
      "Ġhel": 472,
      "ĠThis": 473,
      "Ġqu": 474,
      "low": 475,
      "ime": 476,
      "Ġsc": 477,
      "gh": 478,
      "ans": 479,
      "ence": 480,
      "Ġsuch": 481,
      "ble": 482,
      "ces": 483,
      "Ġhelp": 484,
      "der": 485,
      "Ġgo": 486,
      "iff": 487,
      "ost": 488,
      "Ġspe": 489,
      "ast": 490,
      "Ġmod": 491,
      "du": 492,
      "ous": 493,
      "ach": 494,
      "ated": 495,
      "ĠY": 496,
      "Ġcl": 497,
      "Ġhas": 498,
      "Ġbut": 499,
      "Ġfe": 500,
      "ĠN": 501,
      "Ġ-": 502,
      "Ġif": 503,
      "Ġso": 504,
      "Ġdat": 505,
      "ite": 506,
      "Ġman": 507,
      "Ġwould": 508,
      "ice": 509,
      "oo": 510,
      "ks": 511,
      "Ġany": 512,
      "Ġj": 513,
      "ong": 514,
      "ory": 515,
      "Ġac": 516,
      "Ġsy": 517,
      "ign": 518,
      "Ġmay": 519,
      "Ġdiff": 520,
      "Ġtra": 521,
      "ĠWh": 522,
      "ific": 523,
      "xt": 524,
      "av": 525,
      "ap": 526,
      "ary": 527,
      "ĠU": 528,
      "00": 529,
      "Ġthey": 530,
      "ual": 531,
      "Ġalso": 532,
      "int": 533,
      "Ġabout": 534,
      "ĠIt": 535,
      "clud": 536,
      "ace": 537,
      "ition": 538,
      "ject": 539,
      "now": 540,
      "ac": 541,
      "Ġcomm": 542,
      "ip": 543,
      "ode": 544,
      "Ġlike": 545,
      "Ġneed": 546,
      "Ġout": 547,
      "Ġup": 548,
      "ru": 549,
      "Ġmy": 550,
      "ber": 551,
      "Ġro": 552,
      "ĠIn": 553,
      "Ġar": 554,
      "Ġprov": 555,
      "Ġfun": 556,
      "Ġinclud": 557,
      "Ġpre": 558,
      "Ġhow": 559,
      "Ġcons": 560,
      "Ġdis": 561,
      "one": 562,
      "Ġexam": 563,
      "stem": 564,
      "Ġits": 565,
      "Ġdata": 566,
      "ors": 567,
      "ens": 568,
      "Ġthere": 569,
      "Ġused": 570,
      "Ġev": 571,
      "ient": 572,
      "Ġtime": 573,
      "The": 574,
      "Ġcould": 575,
      "Ġthem": 576,
      "Ġper": 577,
      "Ġknow": 578,
      "Ġsp": 579,
      "lo": 580,
      "ress": 581,
      "Ġspec": 582,
      "ĠHow": 583,
      "Ġusing": 584,
      "etw": 585,
      "ail": 586,
      "Ġdes": 587,
      "Ġall": 588,
      "con": 589,
      "ft": 590,
      "Ġone": 591,
      "```": 592,
      "Ġtr": 593,
      "Ġdiffere": 594,
      "ating": 595,
      "ning": 596,
      "ari": 597,
      "ĠJ": 598,
      "Ġover": 599,
      "Ġsystem": 600,
      "ount": 601,
      "ram": 602,
      "put": 603,
      "Ġinto": 604,
      "ener": 605,
      "ely": 606,
      "Ġimport": 607,
      "Ġser": 608,
      "Ġmake": 609,
      "ater": 610,
      "Ġcol": 611,
      "ake": 612,
      "Ġnew": 613,
      "com": 614,
      "ĠYou": 615,
      "Ġwhat": 616,
      "ics": 617,
      "ize": 618,
      "ak": 619,
      "ular": 620,
      "ature": 621,
      "Ġcode": 622,
      "Ġadd": 623,
      "Ġunder": 624,
      "Ġ3": 625,
      "led": 626,
      "ful": 627,
      "Ġinter": 628,
      "Ġam": 629,
      "angu": 630,
      "Ġway": 631,
      "velop": 632,
      "ub": 633,
      "Ġke": 634,
      "Ġmodel": 635,
      "ĠWhat": 636,
      "Ġthese": 637,
      "Ġap": 638,
      "ally": 639,
      "'t": 640,
      "ible": 641,
      "ord": 642,
      "ings": 643,
      "ild": 644,
      "âĢ": 645,
      "Ġhis": 646,
      "olog": 647,
      "Ġem": 648,
      "ates": 649,
      "Ġlangu": 650,
      "erm": 651,
      "Ġpos": 652,
      "Ġexample": 653,
      "ove": 654,
      "Ġapp": 655,
      "ased": 656,
      "Ġset": 657,
      "Ġwho": 658,
      "pen": 659,
      "aus": 660,
      "vers": 661,
      "ility": 662,
      "Ġpr": 663,
      "Ġsim": 664,
      "Ġpart": 665,
      "very": 666,
      "Ġshould": 667,
      "Ġty": 668,
      "Ġdifferent": 669,
      "ons": 670,
      "Ġnum": 671,
      "eth": 672,
      "ments": 673,
      "ents": 674,
      "Ġrel": 675,
      "ick": 676,
      "Ġind": 677,
      "Ġgener": 678,
      "ĠSt": 679,
      "Ġprog": 680,
      "Ġrequ": 681,
      "Ġph": 682,
      "Ġhum": 683,
      "elf": 684,
      "Ġeff": 685,
      "Ġwork": 686,
      "Ġeach": 687,
      "Ġval": 688,
      "ound": 689,
      "Ġob": 690,
      "ĠIf": 691,
      "Ġdevelop": 692,
      "ree": 693,
      "Ġinst": 694,
      "ange": 695,
      "âĸ": 696,
      "ll": 697,
      "ish": 698,
      "Ġlear": 699,
      "ose": 700,
      "Ġpe": 701,
      "lect": 702,
      "Ġfunction": 703,
      "ph": 704,
      "Ġact": 705,
      "Ġinv": 706,
      "ĊĊ": 707,
      "Ġimportant": 708,
      "ower": 709,
      "Ġthan": 710,
      "ities": 711,
      "ever": 712,
      "In": 713,
      "Ġmany": 714,
      "Ġbu": 715,
      "Ġget": 716,
      "Ġplay": 717,
      "rit": 718,
      "Ġstr": 719,
      "----": 720,
      "rough": 721,
      "Ġpers": 722,
      "row": 723,
      "les": 724,
      "Ġvari": 725,
      "Ġwhen": 726,
      "get": 727,
      "rib": 728,
      "tain": 729,
      "cre": 730,
      "Ġform": 731,
      "chn": 732,
      "Ġprocess": 733,
      "ia": 734,
      "ative": 735,
      "Ġcreate": 736,
      "Ġfol": 737,
      "ear": 738,
      "Ġass": 739,
      "ript": 740,
      "ark": 741,
      "ough": 742,
      "Ġwant": 743,
      "ise": 744,
      "ys": 745,
      "Ġsm": 746,
      "ath": 747,
      "Ġexpl": 748,
      "ĠHere": 749,
      "ov": 750,
      "ict": 751,
      "Ġdet": 752,
      "Ġexper": 753,
      "ĠAI": 754,
      "een": 755,
      "te": 756,
      "Ġdep": 757,
      "als": 758,
      "urn": 759,
      "Ġ0": 760,
      "Ġ{": 761,
      "round": 762,
      "ne": 763,
      "Ġtechn": 764,
      "cur": 765,
      "Ġprogram": 766,
      "etween": 767,
      "Ġwhere": 768,
      "Ġprovide": 769,
      "Ġlanguage": 770,
      "ience": 771,
      "stand": 772,
      "ĠV": 773,
      "ood": 774,
      "ople": 775,
      "yth": 776,
      "Ġworld": 777,
      "Ġbetween": 778,
      "plic": 779,
      "ages": 780,
      "Ġmost": 781,
      "Ġthrough": 782,
      "Ġinform": 783,
      "oth": 784,
      "ware": 785,
      "gg": 786,
      "Ġno": 787,
      "ook": 788,
      "Ġfollow": 789,
      "Ġtw": 790,
      "Ġ'": 791,
      "Ġbeen": 792,
      "ices": 793,
      "tern": 794,
      "()": 795,
      "irst": 796,
      "oint": 797,
      "own": 798,
      "ract": 799,
      "ds": 800,
      "enc": 801,
      "wn": 802,
      "ting": 803,
      "Ġoff": 804,
      "Ġ`": 805,
      "ential": 806,
      "ĠK": 807,
      "ious": 808,
      "Ġthen": 809,
      "Ġreg": 810,
      "Ġcomple": 811,
      "ss": 812,
      "ten": 813,
      "ef": 814,
      "ib": 815,
      "Ġbec": 816,
      "Ġcal": 817,
      "Ġpeople": 818,
      "Ġtrans": 819,
      "Ġprodu": 820,
      "Ġatt": 821,
      "Ġcur": 822,
      "Ġunderstand": 823,
      "Ġfind": 824,
      "ause": 825,
      "its": 826,
      "reat": 827,
      "Ġ|": 828,
      "Ġra": 829,
      "Ġrep": 830,
      "Ġquest": 831,
      "ython": 832,
      "Ġwhile": 833,
      "Ġadv": 834,
      "Ġstart": 835,
      "Ġspecific": 836,
      "Ġ*": 837,
      "ruct": 838,
      "Ġcomput": 839,
      "ob": 840,
      "Ġperson": 841,
      "Ġfile": 842,
      "cept": 843,
      "Ġlar": 844,
      "ality": 845,
      "Ġlist": 846,
      "Ġinformation": 847,
      "âĶ": 848,
      "ays": 849,
      "Ġincluding": 850,
      "Ġhigh": 851,
      "ĠCh": 852,
      "Ġmat": 853,
      "ĠCan": 854,
      "\",": 855,
      "Ġche": 856,
      "Ġconsid": 857,
      "âĶĢ": 858,
      "Ġsol": 859,
      "lease": 860,
      "ife": 861,
      "ues": 862,
      "Ġwell": 863,
      "Ġgood": 864,
      "Ġjust": 865,
      "Ġfl": 866,
      "Ġtwo": 867,
      "ms": 868,
      "Ġchar": 869,
      "Ġtrain": 870,
      "Ġsa": 871,
      "arch": 872,
      "Ġco": 873,
      "anc": 874,
      "Ġresp": 875,
      "//": 876,
      "ng": 877,
      "ural": 878,
      "pport": 879,
      "rite": 880,
      "Ġ<": 881,
      "Ġinf": 882,
      "Ġdef": 883,
      "ness": 884,
      "pect": 885,
      "Ġhuman": 886,
      "Ġrem": 887,
      "Ġrec": 888,
      "uring": 889,
      "ĠHowever": 890,
      "ork": 891,
      "Ġback": 892,
      "Ġpol": 893,
      "erg": 894,
      "Ġfirst": 895,
      "ps": 896,
      "Ġopt": 897,
      "Ġpower": 898,
      "Ġtext": 899,
      "Ġposs": 900,
      "iqu": 901,
      "Ġag": 902,
      "ĠĊ": 903,
      "Ġallow": 904,
      "Ġret": 905,
      "Ġgame": 906,
      "hes": 907,
      "Ġrun": 908,
      "Ġav": 909,
      "Ġdoes": 910,
      "ink": 911,
      "Ġdist": 912,
      "ves": 913,
      "ving": 914,
      "Ġwere": 915,
      "Ġnumber": 916,
      "Ġown": 917,
      "Ġdepend": 918,
      "ically": 919,
      "eg": 920,
      "Ġsign": 921,
      "Ġkey": 922,
      "oy": 923,
      "ĠFor": 924,
      "Ġ[": 925,
      "read": 926,
      "Ġfact": 927,
      "ized": 928,
      "Ġsk": 929,
      "Ġ5": 930,
      "Ġperform": 931,
      "iew": 932,
      "Ġmain": 933,
      "âĶĢâĶĢ": 934,
      "ify": 935,
      "dd": 936,
      "Ġref": 937,
      "Ġdesign": 938,
      "ution": 939,
      "Ġour": 940,
      "Ġbeing": 941,
      "ety": 942,
      "Ġimpro": 943,
      "ved": 944,
      "Ġmin": 945,
      "ered": 946,
      "hen": 947,
      "Ġonly": 948,
      "Ġsub": 949,
      "Ġhand": 950,
      "Ġ+": 951,
      "eng": 952,
      "Ġ4": 953,
      "Ġsoc": 954,
      "alth": 955,
      "Ġweb": 956,
      "Ġbuild": 957,
      "Ġbest": 958,
      "Ġstep": 959,
      "Ġplan": 960,
      "Ġfil": 961,
      "Ġher": 962,
      ");": 963,
      "Ġobject": 964,
      "Ġtake": 965,
      "Ġlong": 966,
      "ines": 967,
      "nce": 968,
      "fore": 969,
      "Ġprovid": 970,
      "Ġrequire": 971,
      "ian": 972,
      "Ġlead": 973,
      "Ġlight": 974,
      "Ġ20": 975,
      "tt": 976,
      "rent": 977,
      "Ġdec": 978,
      "ethod": 979,
      "Ġexp": 980,
      "ples": 981,
      "Ġtyp": 982,
      "ax": 983,
      "Ġpop": 984,
      "Ġloc": 985,
      "Ġresult": 986,
      "Ġtry": 987,
      "Ġpot": 988,
      "Ġhad": 989,
      "ology": 990,
      "Ġopen": 991,
      "Ġide": 992,
      "),": 993,
      "Ġcor": 994,
      "ron": 995,
      "Ġbased": 996,
      ").": 997,
      "ade": 998,
      "iron": 999,
      "Ġclass": 1000,
      "Ġmed": 1001,
      "ures": 1002,
      "Ġfi": 1003,
      "gor": 1004,
      "red": 1005,
      "Ġdown": 1006,
      "Ġcharact": 1007,
      "uch": 1008,
      "Ġmethod": 1009,
      "Ġappro": 1010,
      "ied": 1011,
      "old": 1012,
      "Ġsee": 1013,
      "cript": 1014,
      "ited": 1015,
      "rain": 1016,
      "ource": 1017,
      "Ġbr": 1018,
      "Ġinclude": 1019,
      "Ġpoint": 1020,
      "Ġlife": 1021,
      "'re": 1022,
      "port": 1023,
      "ivid": 1024,
      "Th": 1025,
      "Ġeas": 1026,
      "nect": 1027,
      "ization": 1028,
      "'m": 1029,
      "Ġbel": 1030,
      "Ġapplic": 1031,
      "Ġincre": 1032,
      "ather": 1033,
      "Ġinput": 1034,
      "ming": 1035,
      "ody": 1036,
      "ĠHe": 1037,
      "sw": 1038,
      "Ġext": 1039,
      "Ġcommun": 1040,
      "Ġaut": 1041,
      "gan": 1042,
      "ern": 1043,
      "Ġcomplex": 1044,
      "Ġsmall": 1045,
      "vent": 1046,
      "ars": 1047,
      "..": 1048,
      "ĠAs": 1049,
      "Ġeffect": 1050,
      "Ġpossible": 1051,
      "Ġsupport": 1052,
      "ond": 1053,
      "Ġgu": 1054,
      "ty": 1055,
      "**": 1056,
      "Ġyear": 1057,
      "ward": 1058,
      "Ġdon": 1059,
      "Ġproject": 1060,
      "ily": 1061,
      "Ġsoft": 1062,
      "Ġlearning": 1063,
      "Ġprom": 1064,
      "ism": 1065,
      "Ġboth": 1066,
      "ĠTo": 1067,
      "ĠThere": 1068,
      "Ġeven": 1069,
      "line": 1070,
      "Ġeng": 1071,
      "ources": 1072,
      "viron": 1073,
      "Ġfin": 1074,
      "Ġtas": 1075,
      "):": 1076,
      "Ġsur": 1077,
      "other": 1078,
      "Ġgra": 1079,
      "irect": 1080,
      "Ġfew": 1081,
      "Ġlarge": 1082,
      "fter": 1083,
      "Ġevery": 1084,
      "Ġart": 1085,
      "gorith": 1086,
      "etter": 1087,
      "Ġacc": 1088,
      "Ġoften": 1089,
      "Ġ#": 1090,
      "Ġwater": 1091,
      "Ġbl": 1092,
      "atures": 1093,
      "Ġequ": 1094,
      "Ġins": 1095,
      "Ġstud": 1096,
      "Ġent": 1097,
      "Ġname": 1098,
      "self": 1099,
      "ric": 1100,
      "Ġconf": 1101,
      "Ġhealth": 1102,
      "Ġ$": 1103,
      "Ġproble": 1104,
      "cul": 1105,
      "Ġlearn": 1106,
      "ertain": 1107,
      "Ġdi": 1108,
      "ex": 1109,
      "Ġright": 1110,
      "Ġproper": 1111,
      "Ġvalue": 1112,
      "Ġgive": 1113,
      "br": 1114,
      "Ġmult": 1115,
      "Ġla": 1116,
      "any": 1117,
      "Ġalgorith": 1118,
      "Ġshe": 1119,
      "Ġpat": 1120,
      "Ġmem": 1121,
      "Ġbetter": 1122,
      "Ġens": 1123,
      "hip": 1124,
      "Ġreal": 1125,
      "ts": 1126,
      "Ġansw": 1127,
      "Ġtool": 1128,
      "ional": 1129,
      "Ġoper": 1130,
      "ives": 1131,
      "Ġhere": 1132,
      "Ġinvol": 1133,
      "Ġmight": 1134,
      "Ġbeh": 1135,
      "ĠUn": 1136,
      "comm": 1137,
      "Ġcar": 1138,
      "Ġknown": 1139,
      "Ġcontro": 1140,
      "Ġpotential": 1141,
      "ases": 1142,
      "Ġ}": 1143,
      "Ġcount": 1144,
      "ident": 1145,
      "Ġreturn": 1146,
      "mat": 1147,
      "Ġuser": 1148,
      "Ġenviron": 1149,
      "Ġtype": 1150,
      "Ġconsider": 1151,
      "ribut": 1152,
      "Ġ6": 1153,
      "aking": 1154,
      "Ġtop": 1155,
      "ĠSure": 1156,
      "Ġmuch": 1157,
      "ability": 1158,
      "Ġend": 1159,
      "hed": 1160,
      "Ġfeel": 1161,
      "Ġel": 1162,
      "ĠThey": 1163,
      "ote": 1164,
      "ergy": 1165,
      "ividual": 1166,
      "Ġimprove": 1167,
      "ets": 1168,
      "Ġvis": 1169,
      "Ġsoftware": 1170,
      "Ġpar": 1171,
      "Ġmean": 1172,
      "Ġaccess": 1173,
      "Ġpartic": 1174,
      "ĠRe": 1175,
      "erest": 1176,
      "lu": 1177,
      "Ġnetw": 1178,
      "Ġsever": 1179,
      "ier": 1180,
      "iss": 1181,
      "Ġmaking": 1182,
      "Ġterm": 1183,
      "Ġlet": 1184,
      "Ġcurrent": 1185,
      "Ġpopular": 1186,
      "Ġwrit": 1187,
      "to": 1188,
      "Ġdisc": 1189,
      "Ġserv": 1190,
      "Ġindividual": 1191,
      "Ġconst": 1192,
      "Ġfollowing": 1193,
      "Ġredu": 1194,
      "resent": 1195,
      "Ġaround": 1196,
      "Ġwithout": 1197,
      "ock": 1198,
      "ext": 1199,
      "Ġpur": 1200,
      "ĠPro": 1201,
      "oid": 1202,
      "Ġtem": 1203,
      "Ġhist": 1204,
      "Ġhard": 1205,
      "10": 1206,
      "ually": 1207,
      "Ġbre": 1208,
      "Ġstill": 1209,
      "Ġmade": 1210,
      "Ġseveral": 1211,
      "Ġchang": 1212,
      "lic": 1213,
      "ser": 1214,
      "Ġread": 1215,
      "Ġbefore": 1216,
      "Ġdevelopment": 1217,
      ".\"": 1218,
      "arm": 1219,
      "Ġsom": 1220,
      "Ġsystems": 1221,
      "ox": 1222,
      "ĠPython": 1223,
      "Ġi": 1224,
      "Ġenergy": 1225,
      "Ġsame": 1226,
      "ocus": 1227,
      "Ġcontin": 1228,
      "Ġcommand": 1229,
      "20": 1230,
      "Ġmus": 1231,
      "Ġinterest": 1232,
      "Ġbecause": 1233,
      "Ġ10": 1234,
      "Ġcommon": 1235,
      "ency": 1236,
      "Ġsure": 1237,
      "ren": 1238,
      "riend": 1239,
      "Ġele": 1240,
      "ational": 1241,
      "ĠCon": 1242,
      "li": 1243,
      "Ġrange": 1244,
      "Ġmon": 1245,
      "Ġdirect": 1246,
      "Ġbelie": 1247,
      "ately": 1248,
      "arth": 1249,
      "ique": 1250,
      "Ġday": 1251,
      "ec": 1252,
      "Ġve": 1253,
      "::": 1254,
      "gin": 1255,
      "Ġcle": 1256,
      "ank": 1257,
      "ĠAdd": 1258,
      "--------": 1259,
      "Ġ19": 1260,
      "ĠOpen": 1261,
      "Ġlim": 1262,
      "itional": 1263,
      "Ġlevel": 1264,
      "uc": 1265,
      "Ġprot": 1266,
      "Ġed": 1267,
      "ames": 1268,
      "Ġenvironment": 1269,
      "Ġconnect": 1270,
      "Ġtraining": 1271,
      "Ġmach": 1272,
      "ĠEx": 1273,
      "mer": 1274,
      "Ġgreat": 1275,
      "Ġwrite": 1276,
      "Ġanswer": 1277,
      "Ġstruct": 1278,
      "ĠAn": 1279,
      "ense": 1280,
      "ĠIs": 1281,
      "Ġimpact": 1282,
      "Ġmet": 1283,
      "ave": 1284,
      "itive": 1285,
      "Ġmark": 1286,
      "Ġcontain": 1287,
      "Ġself": 1288,
      "apt": 1289,
      "Ġchall": 1290,
      "sc": 1291,
      "Ġquestions": 1292,
      "Ġpass": 1293,
      "conom": 1294,
      "St": 1295,
      "Ġkeep": 1296,
      "ince": 1297,
      "(\"": 1298,
      "plement": 1299,
      "Ġmulti": 1300,
      "Ġcomputer": 1301,
      "tle": 1302,
      "Ġblo": 1303,
      "Ġable": 1304,
      "ton": 1305,
      "Ġdev": 1306,
      "Ġexperience": 1307,
      "air": 1308,
      "Ġsum": 1309,
      "dit": 1310,
      "ences": 1311,
      "',": 1312,
      "ced": 1313,
      "Ġ8": 1314,
      "ĠSome": 1315,
      "Ġsignific": 1316,
      "Ġsteps": 1317,
      "=\"": 1318,
      "Ġstate": 1319,
      "Ġvery": 1320,
      "ists": 1321,
      "ner": 1322,
      "Ġcult": 1323,
      "Ġfound": 1324,
      "Ġcontrol": 1325,
      "ven": 1326,
      "Âł": 1327,
      "Ġcent": 1328,
      "ale": 1329,
      "ggest": 1330,
      "Ġagain": 1331,
      "Ġprof": 1332,
      "âĸĪ": 1333,
      "err": 1334,
      "Ġtoo": 1335,
      "ĠThese": 1336,
      "Ġfiel": 1337,
      "Ġensure": 1338,
      "ead": 1339,
      "Ġiss": 1340,
      "Ġphys": 1341,
      "Ġavail": 1342,
      "ior": 1343,
      "ustom": 1344,
      "Ġpract": 1345,
      "Ġrese": 1346,
      "Ġstre": 1347,
      "icult": 1348,
      "ways": 1349,
      "Ġelect": 1350,
      "akes": 1351,
      "Ġexplain": 1352,
      "ix": 1353,
      "Ġair": 1354,
      "ething": 1355,
      "pro": 1356,
      "Ġfood": 1357,
      "imes": 1358,
      "Ġcap": 1359,
      "Ġsuggest": 1360,
      "Ġtest": 1361,
      "ention": 1362,
      "thing": 1363,
      "Ġhapp": 1364,
      "Ġscript": 1365,
      "Ġproduct": 1366,
      "Ġduring": 1367,
      "Ġlo": 1368,
      "Ġfocus": 1369,
      "Ġthose": 1370,
      "yle": 1371,
      "Ġfam": 1372,
      "ĠAl": 1373,
      "][": 1374,
      "onse": 1375,
      "Ġeffic": 1376,
      "aterial": 1377,
      "bers": 1378,
      "'ll": 1379,
      "Ġfactors": 1380,
      "Ġafter": 1381,
      "atch": 1382,
      "day": 1383,
      "Ġ.": 1384,
      "âĢĻ": 1385,
      "Ġvers": 1386,
      "Ġmove": 1387,
      "indow": 1388,
      "://": 1389,
      "Ġstory": 1390,
      "commend": 1391,
      "ted": 1392,
      "Ġsw": 1393,
      "Ġfree": 1394,
      "Ġdifficult": 1395,
      "Ġquestion": 1396,
      "Ġcharacter": 1397,
      "Ġoutput": 1398,
      "io": 1399,
      "ument": 1400,
      "Ġsimple": 1401,
      "rect": 1402,
      "Ġgrow": 1403,
      "Ġmess": 1404,
      "Ġbas": 1405,
      "Ġskill": 1406,
      "This": 1407,
      "ooking": 1408,
      "ries": 1409,
      "Ġprogramming": 1410,
      "ata": 1411,
      "Ġrecommend": 1412,
      "ables": 1413,
      "Ġchange": 1414,
      "ared": 1415,
      "Ġwebs": 1416,
      "Ġconcept": 1417,
      "It": 1418,
      "ray": 1419,
      "Ġexamples": 1420,
      "Ġdeterm": 1421,
      "oice": 1422,
      "Ġmodels": 1423,
      "Ġsignificant": 1424,
      "Ġless": 1425,
      "str": 1426,
      "Ġsomething": 1427,
      "Ġresources": 1428,
      "Ġtrad": 1429,
      "000": 1430,
      "oard": 1431,
      "Ġpri": 1432,
      "Ġmust": 1433,
      "Ġeconom": 1434,
      "Ġsocial": 1435,
      "here": 1436,
      "Ġanal": 1437,
      "Ġfeatures": 1438,
      "Ġmov": 1439,
      "ilar": 1440,
      "Ġothers": 1441,
      "Ġnetwork": 1442,
      "ator": 1443,
      "Ġshow": 1444,
      "Ġvarious": 1445,
      "Ġthough": 1446,
      "Ġyears": 1447,
      "Ġperformance": 1448,
      "ilities": 1449,
      "verse": 1450,
      "Ġunderstanding": 1451,
      "iven": 1452,
      "cial": 1453,
      "Ġbi": 1454,
      "yn": 1455,
      "Ġhim": 1456,
      "Ġlay": 1457,
      "inal": 1458,
      "oss": 1459,
      "##": 1460,
      "Ġbehav": 1461,
      "name": 1462,
      "Ġline": 1463,
      "Ġimage": 1464,
      "Ġavailable": 1465,
      "ross": 1466,
      "Ġplace": 1467,
      "Ġamount": 1468,
      "ope": 1469,
      "iness": 1470,
      "Ġtechnology": 1471,
      "less": 1472,
      "Ġgeneral": 1473,
      "Ġalways": 1474,
      "Ġorder": 1475,
      "Ġorgan": 1476,
      "Ġlik": 1477,
      "ger": 1478,
      "usion": 1479,
      "Ġexist": 1480,
      "Ġthings": 1481,
      "ĠDe": 1482,
      "Ġpersonal": 1483,
      "Ġx": 1484,
      "ined": 1485,
      "ull": 1486,
      "Ġlibr": 1487,
      "Ġcalcul": 1488,
      "Ġwid": 1489,
      "uture": 1490,
      "Ġworks": 1491,
      "Ġcustom": 1492,
      "Ġris": 1493,
      "ublic": 1494,
      "ci": 1495,
      "Ġdem": 1496,
      "Ġneeds": 1497,
      "Ġcalled": 1498,
      "ttps": 1499,
      "til": 1500,
      "play": 1501,
      "ape": 1502,
      "Ġfriend": 1503,
      "Ġcomb": 1504,
      "val": 1505,
      "Ġusers": 1506,
      "Ġprint": 1507,
      "Ġimplement": 1508,
      "Ġtasks": 1509,
      "__": 1510,
      "ins": 1511,
      "Ġinstall": 1512,
      "view": 1513,
      "Ġmaterial": 1514,
      "Ġchalleng": 1515,
      "ĠAr": 1516,
      "</": 1517,
      "ava": 1518,
      "Ġways": 1519,
      "Ġgre": 1520,
      "nces": 1521,
      "ĠWe": 1522,
      "raft": 1523,
      "ivity": 1524,
      "chie": 1525,
      "Ġleg": 1526,
      "ellig": 1527,
      "for": 1528,
      "ash": 1529,
      "ĠDo": 1530,
      "ering": 1531,
      "Ġbody": 1532,
      "Ġmachine": 1533,
      "Ġ7": 1534,
      "Ġtell": 1535,
      "Ġinc": 1536,
      "Ġnow": 1537,
      "Ġenc": 1538,
      "Ġspace": 1539,
      "not": 1540,
      "oose": 1541,
      "oh": 1542,
      "Ġplease": 1543,
      "Ġdri": 1544,
      "Ġcheck": 1545,
      "atform": 1546,
      "lish": 1547,
      "Ġconc": 1548,
      "ĠYes": 1549,
      "face": 1550,
      "Ġcare": 1551,
      "Ġsaf": 1552,
      "ool": 1553,
      "Ġ/": 1554,
      "Ġest": 1555,
      "Ġdid": 1556,
      "aster": 1557,
      "Ġspeed": 1558,
      "cy": 1559,
      "ĠCom": 1560,
      "Ġsimilar": 1561,
      "ÂłÂł": 1562,
      "pos": 1563,
      "Ġport": 1564,
      "Ġvide": 1565,
      "Ġserver": 1566,
      "Ġsize": 1567,
      "ems": 1568,
      "ee": 1569,
      "ux": 1570,
      "Ġunique": 1571,
      "Ġmeans": 1572,
      "Ġresponse": 1573,
      "Ġlook": 1574,
      "ateg": 1575,
      "els": 1576,
      "oot": 1577,
      "ination": 1578,
      "atural": 1579,
      "Ġz": 1580,
      "Ġcertain": 1581,
      "Ġmeas": 1582,
      "To": 1583,
      "Ġask": 1584,
      "kes": 1585,
      "Ġachie": 1586,
      "ital": 1587,
      "raph": 1588,
      "Ġcase": 1589,
      "Ġfuture": 1590,
      "Ġgrou": 1591,
      "par": 1592,
      "Ġaff": 1593,
      "Ġcontent": 1594,
      "Ġchanges": 1595,
      "Ġcell": 1596,
      "Ġanother": 1597,
      "Ġstand": 1598,
      "curity": 1599,
      "Ġalgorithm": 1600,
      "Ġsit": 1601,
      "cle": 1602,
      "Ġcolor": 1603,
      "Ġinflu": 1604,
      "Ġfre": 1605,
      "Ġinteract": 1606,
      "Ġhistory": 1607,
      "ants": 1608,
      "pr": 1609,
      "hemat": 1610,
      "Ġuses": 1611,
      "imate": 1612,
      "Ġstrong": 1613,
      "Ġapplications": 1614,
      "Ġident": 1615,
      "Ġsuc": 1616,
      "ĠUse": 1617,
      "Ġarg": 1618,
      "Ġrespons": 1619,
      "Ġpattern": 1620,
      "Ġcost": 1621,
      "Ġben": 1622,
      "Ġtemper": 1623,
      "ling": 1624,
      "orld": 1625,
      "oph": 1626,
      "Ġshort": 1627,
      "rame": 1628,
      "Ġgr": 1629,
      "Ġthink": 1630,
      "Ġstore": 1631,
      "Ġnecess": 1632,
      "Ġskills": 1633,
      "ral": 1634,
      "ats": 1635,
      "Ġresearch": 1636,
      "ired": 1637,
      "itionally": 1638,
      "Ġcorrect": 1639,
      "ories": 1640,
      "Ġplatform": 1641,
      "Ġhy": 1642,
      "uss": 1643,
      "ified": 1644,
      "rad": 1645,
      "Ġproblem": 1646,
      "Ġsource": 1647,
      "ication": 1648,
      "Ġnote": 1649,
      "Ġwhy": 1650,
      "Ġprotect": 1651,
      "reate": 1652,
      "ision": 1653,
      "import": 1654,
      "ĠPlease": 1655,
      "Ġtools": 1656,
      "23": 1657,
      "chan": 1658,
      "ember": 1659,
      "Ġsearch": 1660,
      "hor": 1661,
      "uck": 1662,
      "Ġmag": 1663,
      "Ġability": 1664,
      "âĸĪâĸĪ": 1665,
      "Ġallows": 1666,
      "Ġcause": 1667,
      "ason": 1668,
      "âĸĴ": 1669,
      "Ġinvest": 1670,
      "py": 1671,
      "way": 1672,
      "Ġcr": 1673,
      "Ġwebsite": 1674,
      "\".": 1675,
      "light": 1676,
      "ĠEarth": 1677,
      "11": 1678,
      "Ġelse": 1679,
      "urther": 1680,
      "Ġtypes": 1681,
      "Ġblock": 1682,
      "crib": 1683,
      "Ġlit": 1684,
      "Ġuntil": 1685,
      "vern": 1686,
      "Ġvalues": 1687,
      "Ġengine": 1688,
      "Ġstructure": 1689,
      "ilos": 1690,
      "Ġteam": 1691,
      "ledge": 1692,
      "uro": 1693,
      "ww": 1694,
      "Ġidea": 1695,
      "âĶĢâĶĢâĶĢâĶĢ": 1696,
      "az": 1697,
      "ws": 1698,
      "Ġanim": 1699,
      "Ġdue": 1700,
      "Ġscient": 1701,
      "Ġconsidered": 1702,
      "anced": 1703,
      "Ġmultiple": 1704,
      "Ġbehavior": 1705,
      "pre": 1706,
      "Ġparticular": 1707,
      "ĠQ": 1708,
      "Ġprompt": 1709,
      "Ġlikely": 1710,
      "utes": 1711,
      "PI": 1712,
      "Ġmind": 1713,
      "Ġlow": 1714,
      "Ġuni": 1715,
      "Ġprevent": 1716,
      "Ġsay": 1717,
      "word": 1718,
      "ances": 1719,
      "ĠSh": 1720,
      "Ġcompany": 1721,
      "net": 1722,
      "load": 1723,
      "\":": 1724,
      "Ġinteg": 1725,
      "Ġrequest": 1726,
      "Ġbecome": 1727,
      "Ġsoci": 1728,
      "aut": 1729,
      "Ġdra": 1730,
      "âĢ¢": 1731,
      "ires": 1732,
      "Ġpa": 1733,
      "Ġweight": 1734,
      "Ġsym": 1735,
      "Ġdel": 1736,
      "Ġlog": 1737,
      "Ġintellig": 1738,
      "Ġcontext": 1739,
      "Ġcreating": 1740,
      "js": 1741,
      "Ġsound": 1742,
      "Ġpolit": 1743,
      "app": 1744,
      "Ġsent": 1745,
      "atic": 1746,
      "add": 1747,
      "oin": 1748,
      "ery": 1749,
      "ogn": 1750,
      "Ġpref": 1751,
      "ume": 1752,
      "ĠWhen": 1753,
      "cond": 1754,
      "ew": 1755,
      "amp": 1756,
      "Ġmaintain": 1757,
      "Ġmeaning": 1758,
      "Ġquick": 1759,
      "Ġmarket": 1760,
      "ug": 1761,
      "ulation": 1762,
      "Ġview": 1763,
      "Ġrelations": 1764,
      "Ġ//": 1765,
      "ails": 1766,
      "Ġsuccess": 1767,
      "Ġeffective": 1768,
      "Ġmanage": 1769,
      "Ġwar": 1770,
      "Ġrele": 1771,
      "Ġcompon": 1772,
      "Ġquant": 1773,
      "Ġanything": 1774,
      "Ġevent": 1775,
      "inux": 1776,
      "ium": 1777,
      "Ġdog": 1778,
      "Ġnatural": 1779,
      "Ġonline": 1780,
      "ĠWhile": 1781,
      "Ġoptim": 1782,
      "Ġtheory": 1783,
      "Ġpack": 1784,
      "Ġwithin": 1785,
      "Ġgenerate": 1786,
      "Ġprovides": 1787,
      "Ġerr": 1788,
      "Ġbus": 1789,
      "omet": 1790,
      "vert": 1791,
      "Ġdesigned": 1792,
      "Ġsun": 1793,
      "ĠAss": 1794,
      "Ġprofess": 1795,
      "aces": 1796,
      "Ġwords": 1797,
      "Wh": 1798,
      "Ġdig": 1799,
      "Ġhead": 1800,
      "Ġrole": 1801,
      "Ġdepending": 1802,
      "Ġfield": 1803,
      "19": 1804,
      "Ġpublic": 1805,
      "Ġdeep": 1806,
      "Ġgoals": 1807,
      "Ġbenef": 1808,
      "Ġyourself": 1809,
      "Ġappe": 1810,
      "Ġmathemat": 1811,
      "Ġsince": 1812,
      "\")": 1813,
      "sh": 1814,
      "vious": 1815,
      "Ġes": 1816,
      "xim": 1817,
      "ploy": 1818,
      "Ġexperi": 1819,
      "Ġservices": 1820,
      "ĠEng": 1821,
      "ditions": 1822,
      "Ġmessage": 1823,
      "vant": 1824,
      "rodu": 1825,
      "Ġgiven": 1826,
      "Ġorig": 1827,
      "Ġupd": 1828,
      "Ġknowledge": 1829,
      "Ġrepresent": 1830,
      "Ġissues": 1831,
      "Ġversion": 1832,
      "ream": 1833,
      "Ġdr": 1834,
      "ĠSp": 1835,
      "Ġcontribut": 1836,
      "ĠAnd": 1837,
      "ĠPl": 1838,
      "Ġcour": 1839,
      "Ġphilos": 1840,
      "Ġreduce": 1841,
      "cing": 1842,
      "leep": 1843,
      "Ġlanguages": 1844,
      "Ġwriting": 1845,
      "Ġrelationship": 1846,
      "PT": 1847,
      "Ġess": 1848,
      "Ġrest": 1849,
      "abor": 1850,
      "iving": 1851,
      "Ġvariety": 1852,
      "Ġsing": 1853,
      "Ġoc": 1854,
      "Ġbat": 1855,
      "Ġdoc": 1856,
      "ert": 1857,
      "Ġcaus": 1858,
      "iting": 1859,
      "Ġhumans": 1860,
      "Ġfiles": 1861,
      "ute": 1862,
      "pri": 1863,
      "Ġpain": 1864,
      "Ġterms": 1865,
      "Ġclear": 1866,
      "meric": 1867,
      "Ġtri": 1868,
      "arget": 1869,
      "irt": 1870,
      "ĠGo": 1871,
      "Ġobjects": 1872,
      "back": 1873,
      "ĠEn": 1874,
      "Ġbuilding": 1875,
      "Ġbegin": 1876,
      "Ġmakes": 1877,
      "Ġ**": 1878,
      "Ġlocal": 1879,
      "Ġstudy": 1880,
      "Ġnon": 1881,
      "ĠMy": 1882,
      "Ġear": 1883,
      "Ġsecurity": 1884,
      "Ġavoid": 1885,
      "por": 1886,
      "Ġside": 1887,
      "Ġsong": 1888,
      "place": 1889,
      "Ġmechan": 1890,
      "rypt": 1891,
      "ĠUS": 1892,
      "ength": 1893,
      "Ġstrateg": 1894,
      "Ġminutes": 1895,
      "Ġnecessary": 1896,
      "Ġold": 1897,
      "Ġtoget": 1898,
      "amet": 1899,
      "idd": 1900,
      "Ġstyle": 1901,
      "Ġnext": 1902,
      "Ġtogether": 1903,
      "board": 1904,
      "ender": 1905,
      "Ġnumbers": 1906,
      "Ġspecial": 1907,
      "ĠJava": 1908,
      "Ġmemory": 1909,
      "Ġsumm": 1910,
      "pose": 1911,
      "Ġtre": 1912,
      "Ġcir": 1913,
      "ene": 1914,
      "Ġvol": 1915,
      "ots": 1916,
      "Ġarea": 1917,
      "Ġpred": 1918,
      "ĠAdditionally": 1919,
      "Ġhope": 1920,
      "Ġtravel": 1921,
      "oon": 1922,
      "Ġmil": 1923,
      "ctor": 1924,
      "ĠIm": 1925,
      "ooks": 1926,
      "Ġideas": 1927,
      "))": 1928,
      "come": 1929,
      "Ġfurther": 1930,
      "ĠCreate": 1931,
      "Ġquality": 1932,
      "Ġhelps": 1933,
      "Ġincrease": 1934,
      "olution": 1935,
      "iques": 1936,
      "over": 1937,
      "Ġmor": 1938,
      "Ġchild": 1939,
      "Ġefficient": 1940,
      "be": 1941,
      "Ġaud": 1942,
      "erc": 1943,
      "let": 1944,
      "ctions": 1945,
      "iled": 1946,
      "Ġgovern": 1947,
      "Ġapplication": 1948,
      "Ġlove": 1949,
      "ĠCould": 1950,
      "Ġenough": 1951,
      "Ġoptions": 1952,
      "oms": 1953,
      "Ġworking": 1954,
      "Ġdescrib": 1955,
      "Ġland": 1956,
      "Ġmusic": 1957,
      "ml": 1958,
      "Ġpast": 1959,
      "alk": 1960,
      "Ġhig": 1961,
      "ological": 1962,
      "icro": 1963,
      "Ġthree": 1964,
      "Ġsomeone": 1965,
      "ibility": 1966,
      "Ġcannot": 1967,
      "Ġeasy": 1968,
      "ann": 1969,
      "itor": 1970,
      "Ġpress": 1971,
      "Ġmass": 1972,
      "Ġlooking": 1973,
      "ury": 1974,
      "Ġlibrary": 1975,
      "joy": 1976,
      "ĠX": 1977,
      "ĠBut": 1978,
      "Ġregular": 1979,
      "Ġhome": 1980,
      "ring": 1981,
      "izing": 1982,
      "AI": 1983,
      "Ġfast": 1984,
      "Ġpowerful": 1985,
      "Ġapproach": 1986,
      "Ġtakes": 1987,
      "ouse": 1988,
      "Ġgl": 1989,
      "ression": 1990,
      "Ġproblems": 1991,
      "Ġinvolves": 1992,
      "ĠâĢ": 1993,
      "Ġsal": 1994,
      "ĠLinux": 1995,
      "ik": 1996,
      "Ġrad": 1997,
      "Ġremain": 1998,
      "Ġtemperature": 1999,
      "('": 2000,
      "Ġ9": 2001,
      "Ġsqu": 2002,
      "ĠAmeric": 2003,
      "Ġleft": 2004,
      "ĠThat": 2005,
      "Ġphysical": 2006,
      "ĠSe": 2007,
      "the": 2008,
      "Ġsense": 2009,
      "Ġattack": 2010,
      "'ve": 2011,
      "Ġtechniques": 2012,
      "Ġpoints": 2013,
      "fort": 2014,
      "Ġmot": 2015,
      "oci": 2016,
      "ording": 2017,
      "Ġexplore": 2018,
      "ĠZ": 2019,
      "Ġ\\": 2020,
      "Ġsch": 2021,
      "ides": 2022,
      "oney": 2023,
      "Ġcharacters": 2024,
      "idence": 2025,
      "Ġconditions": 2026,
      "Ġjob": 2027,
      "ample": 2028,
      "based": 2029,
      "ĠSc": 2030,
      "Ġaffect": 2031,
      "If": 2032,
      "just": 2033,
      "sy": 2034,
      "aries": 2035,
      "istic": 2036,
      "ffic": 2037,
      "Ġaddress": 2038,
      "Ġagainst": 2039,
      "âĸĴâĸĴ": 2040,
      "Ġchoice": 2041,
      "Ġbasic": 2042,
      "Ġeconomic": 2043,
      "text": 2044,
      "12": 2045,
      "ane": 2046,
      "oun": 2047,
      "aging": 2048,
      "Ġmethods": 2049,
      "ental": 2050,
      "andom": 2051,
      "Ġtypically": 2052,
      "Ġintelligence": 2053,
      "Ġturn": 2054,
      "erence": 2055,
      "ients": 2056,
      "Ġadditional": 2057,
      "Ġsets": 2058,
      "Ġbusiness": 2059,
      "Ġfore": 2060,
      "Ġbal": 2061,
      "amed": 2062,
      "ips": 2063,
      "ysis": 2064,
      "Ġcard": 2065,
      "ello": 2066,
      "Ġcreated": 2067,
      "Ġsubject": 2068,
      "Ġservice": 2069,
      "Ġvideo": 2070,
      "land": 2071,
      "Ġtarget": 2072,
      "Ġinstead": 2073,
      "Over": 2074,
      "def": 2075,
      "Ġbro": 2076,
      "acy": 2077,
      "ole": 2078,
      "ĠWrite": 2079,
      "Ġtrue": 2080,
      "Ġcommunity": 2081,
      "Ġtimes": 2082,
      "Ġcall": 2083,
      "Ġareas": 2084,
      "As": 2085,
      "of": 2086,
      "Ġhaving": 2087,
      "Ġautom": 2088,
      "Ġtask": 2089,
      "Ġtable": 2090,
      "ĠShe": 2091,
      "ngth": 2092,
      "Ġpriv": 2093,
      "ule": 2094,
      "orn": 2095,
      "Ġprevious": 2096,
      "How": 2097,
      "craft": 2098,
      "ken": 2099,
      "Ġey": 2100,
      "Ġelements": 2101,
      "],": 2102,
      "Ġcome": 2103,
      "Ġsecond": 2104,
      "Ġkind": 2105,
      "Ġrunning": 2106,
      "Ġdetermine": 2107,
      "uation": 2108,
      "Ġgames": 2109,
      "ift": 2110,
      "ancial": 2111,
      "Ġalgorithms": 2112,
      "Ġgroup": 2113,
      "ĠThank": 2114,
      "wards": 2115,
      "path": 2116,
      "Ġsl": 2117,
      "Ġpres": 2118,
      "Ġframe": 2119,
      "lying": 2120,
      "Ġindust": 2121,
      "Ġresults": 2122,
      "Ġindividuals": 2123,
      "Ġrisk": 2124,
      "ties": 2125,
      "~~": 2126,
      "Ġsuper": 2127,
      "Ġword": 2128,
      "Ġactiv": 2129,
      "bal": 2130,
      "Ġimm": 2131,
      "ĠMake": 2132,
      "Ġfamily": 2133,
      "urope": 2134,
      "Ġquantum": 2135,
      "ently": 2136,
      "Ġsingle": 2137,
      "ches": 2138,
      "ration": 2139,
      "Ġcrit": 2140,
      "esp": 2141,
      "Ġmodern": 2142,
      "Ġprin": 2143,
      "ney": 2144,
      "Ġachieve": 2145,
      "Ġhour": 2146,
      "Ġnature": 2147,
      "verage": 2148,
      "Ġvary": 2149,
      "Ġnever": 2150,
      "Ġchoose": 2151,
      "ah": 2152,
      "by": 2153,
      "time": 2154,
      "head": 2155,
      "asing": 2156,
      "ird": 2157,
      "Ġstring": 2158,
      "ER": 2159,
      "man": 2160,
      "Ġpath": 2161,
      "Ġwhether": 2162,
      "Ġneeded": 2163,
      "For": 2164,
      "ON": 2165,
      "ush": 2166,
      "umn": 2167,
      "Ġincludes": 2168,
      "ze": 2169,
      "Ġcoll": 2170,
      "Ġplayers": 2171,
      "Ġsociety": 2172,
      "Ġaction": 2173,
      "ules": 2174,
      "ĠAPI": 2175,
      "ending": 2176,
      "Ġadvant": 2177,
      "Ġexec": 2178,
      "Ġabove": 2179,
      "Ġassist": 2180,
      "ĠUnited": 2181,
      ",\"": 2182,
      "Ġcy": 2183,
      "lex": 2184,
      "indows": 2185,
      "my": 2186,
      "Ġfunctions": 2187,
      "Ġeasier": 2188,
      "Ġpolitical": 2189,
      "Ġsort": 2190,
      "aring": 2191,
      "Ġwide": 2192,
      "Ġpie": 2193,
      "Ġscience": 2194,
      "Ġgraph": 2195,
      "anks": 2196,
      "Ġdistance": 2197,
      "Ġstandard": 2198,
      "Ch": 2199,
      "col": 2200,
      "Ġfall": 2201,
      "Ġtoday": 2202,
      "Ġinit": 2203,
      "Ġlast": 2204,
      "Ġgoal": 2205,
      "Ġchallenges": 2206,
      "OS": 2207,
      "side": 2208,
      "Ġ:": 2209,
      "Ġsleep": 2210,
      "Ġdone": 2211,
      "Ġnorm": 2212,
      "ĠEm": 2213,
      "Here": 2214,
      "Ġbrain": 2215,
      "Ġharm": 2216,
      "Ġrather": 2217,
      "These": 2218,
      "Ġseries": 2219,
      "tml": 2220,
      "ilt": 2221,
      "Ġscre": 2222,
      "ube": 2223,
      "ML": 2224,
      "ĠSo": 2225,
      "Ġenjoy": 2226,
      "Ġaccount": 2227,
      "me": 2228,
      "ished": 2229,
      "Ġbook": 2230,
      "Ġglo": 2231,
      "ption": 2232,
      "And": 2233,
      "file": 2234,
      "Ġpresent": 2235,
      "Ġformat": 2236,
      "Ġtrained": 2237,
      "Ġdepends": 2238,
      "irtual": 2239,
      "Ġrece": 2240,
      "Ġassoci": 2241,
      "ipe": 2242,
      "orks": 2243,
      "ask": 2244,
      "ĠAre": 2245,
      "Ġneg": 2246,
      "Ġdetect": 2247,
      "set": 2248,
      "Ġcity": 2249,
      "Ġexerc": 2250,
      "ĠBy": 2251,
      "Ġposition": 2252,
      "Ġrequires": 2253,
      "Ġmedia": 2254,
      "Ġdevices": 2255,
      "Ġprofessional": 2256,
      "Ġphilosoph": 2257,
      "Ġ_": 2258,
      "Ġaway": 2259,
      "Ġpo": 2260,
      "Ġgen": 2261,
      "sequ": 2262,
      "ĠCl": 2263,
      "ĠChe": 2264,
      "Ġadjust": 2265,
      "ĠLet": 2266,
      "Ġroot": 2267,
      "ologies": 2268,
      "Ġminim": 2269,
      "Ġlimit": 2270,
      "Ġpredict": 2271,
      "Ġsens": 2272,
      "ites": 2273,
      "ĠAd": 2274,
      "opy": 2275,
      "izes": 2276,
      "Ġmeasure": 2277,
      "QL": 2278,
      "Ġuseful": 2279,
      "Ġtrack": 2280,
      "Ġoffer": 2281,
      "Ġhighly": 2282,
      "Ġoption": 2283,
      "You": 2284,
      "we": 2285,
      "erences": 2286,
      "ived": 2287,
      "Ġrelated": 2288,
      "Ġplayer": 2289,
      "Ġdefin": 2290,
      "Ġquickly": 2291,
      "ĠAssistant": 2292,
      "PU": 2293,
      "ãģ": 2294,
      "Ġet": 2295,
      "Ġaltern": 2296,
      "pecial": 2297,
      "ĠWorld": 2298,
      "Ġ==": 2299,
      "Ġdatab": 2300,
      "Ġevents": 2301,
      "Ġtransform": 2302,
      "Ġcountry": 2303,
      "bs": 2304,
      "Ġbase": 2305,
      "Ġgain": 2306,
      "illion": 2307,
      "Ġrecogn": 2308,
      "Overall": 2309,
      "Ġfinancial": 2310,
      "Ġtaking": 2311,
      "ĠEurope": 2312,
      "Ġaccur": 2313,
      "ĠInst": 2314,
      "priate": 2315,
      "++": 2316,
      "ises": 2317,
      "ĠOne": 2318,
      "ĠNo": 2319,
      "ĠWhy": 2320,
      "Ġfriends": 2321,
      "Ġmaterials": 2322,
      "Ġexc": 2323,
      "...": 2324,
      "Ġoccur": 2325,
      "An": 2326,
      "oes": 2327,
      "oura": 2328,
      "Ġmoney": 2329,
      "und": 2330,
      "osed": 2331,
      "Ġvalid": 2332,
      "15": 2333,
      "iod": 2334,
      "Ġfar": 2335,
      "Ġflo": 2336,
      "Ġemot": 2337,
      "bol": 2338,
      "python": 2339,
      "ont": 2340,
      "lection": 2341,
      "Ġarch": 2342,
      "jor": 2343,
      "work": 2344,
      "Ġlot": 2345,
      "ogle": 2346,
      "new": 2347,
      "iency": 2348,
      "utions": 2349,
      "Ġattention": 2350,
      "ohn": 2351,
      "une": 2352,
      "Ġconvers": 2353,
      "Ġdirectory": 2354,
      "rast": 2355,
      "ension": 2356,
      "Ġtrying": 2357,
      "Ġcountries": 2358,
      "Ġcontinue": 2359,
      "ised": 2360,
      "ĠTr": 2361,
      "Ġstat": 2362,
      "Ġmatter": 2363,
      "Ġloop": 2364,
      "Ġhigher": 2365,
      "Ġmar": 2366,
      "Ġcompet": 2367,
      "Ġfeed": 2368,
      "avor": 2369,
      "aves": 2370,
      "Ġemail": 2371,
      "Ġfrequ": 2372,
      "Ġpatterns": 2373,
      "Ex": 2374,
      "au": 2375,
      "data": 2376,
      "Ġneural": 2377,
      "Ġadvanced": 2378,
      "Ġdocument": 2379,
      "ground": 2380,
      "Ġcapt": 2381,
      "isions": 2382,
      "Ġball": 2383,
      "Ġbrow": 2384,
      "Ġhttps": 2385,
      "Ġreach": 2386,
      "ĠBe": 2387,
      "Ġgoing": 2388,
      "Ġpolic": 2389,
      "Ġbreak": 2390,
      "Ġuniverse": 2391,
      "mit": 2392,
      "inally": 2393,
      "Ġreason": 2394,
      "ensive": 2395,
      "ready": 2396,
      "Ġtraditional": 2397,
      "Ġcourse": 2398,
      "point": 2399,
      "ese": 2400,
      "Ġbot": 2401,
      "Ġdark": 2402,
      "ung": 2403,
      "ura": 2404,
      "Ġsources": 2405,
      "Ġeth": 2406,
      "Ġrout": 2407,
      "Ġshape": 2408,
      "nder": 2409,
      "Ġsaid": 2410,
      "Ġrequirements": 2411,
      "ulate": 2412,
      "Ġconcern": 2413,
      "^^": 2414,
      "roid": 2415,
      "ĠSet": 2416,
      "Ġevidence": 2417,
      "Ġcells": 2418,
      "Ġnamed": 2419,
      "ĠBl": 2420,
      "Ġconsum": 2421,
      "Ġproduce": 2422,
      "So": 2423,
      "ius": 2424,
      "Ġslow": 2425,
      "iment": 2426,
      "key": 2427,
      "Ġshare": 2428,
      "Ġ18": 2429,
      "âĸĵ": 2430,
      "Ġstrength": 2431,
      "Ġimages": 2432,
      "Ġrock": 2433,
      "Ġprovided": 2434,
      "Ġleading": 2435,
      "Ġlevels": 2436,
      "Ġscientific": 2437,
      "Ġful": 2438,
      "ĠHT": 2439,
      "Ġeffort": 2440,
      "Ġsmo": 2441,
      "Ġstarting": 2442,
      "right": 2443,
      "Ġdam": 2444,
      "Ġegg": 2445,
      "Ġrandom": 2446,
      "Ġleast": 2447,
      "ivil": 2448,
      "resh": 2449,
      "Ġrob": 2450,
      "Ġperiod": 2451,
      "Ġparts": 2452,
      "Ġobser": 2453,
      "Ġrequired": 2454,
      "Ġpaper": 2455,
      "Ġessential": 2456,
      "We": 2457,
      "ailed": 2458,
      "https": 2459,
      "Ġage": 2460,
      "ĠPh": 2461,
      "arent": 2462,
      "Ġoverall": 2463,
      "ĠChat": 2464,
      "Pro": 2465,
      "oring": 2466,
      "oud": 2467,
      "icate": 2468,
      "Ġinterpre": 2469,
      "Ġface": 2470,
      "Ġfac": 2471,
      "Ġexpect": 2472,
      "ump": 2473,
      "ograph": 2474,
      "Ġprogress": 2475,
      "Ġstarted": 2476,
      "Ġinn": 2477,
      "uments": 2478,
      "Ġconsist": 2479,
      "Ġdisplay": 2480,
      "ators": 2481,
      "Ġcases": 2482,
      "Ġstop": 2483,
      "Ġalready": 2484,
      "Ġmedical": 2485,
      "ystem": 2486,
      "ither": 2487,
      "Ġadapt": 2488,
      "Ġdoing": 2489,
      "ĠStates": 2490,
      "Ġanalysis": 2491,
      "cious": 2492,
      "Ġflow": 2493,
      "Ġitems": 2494,
      "pportun": 2495,
      "Ġappropriate": 2496,
      "Ġpurpose": 2497,
      "Ġlittle": 2498,
      "ek": 2499,
      "Ġlive": 2500,
      "Ġlower": 2501,
      "Ġstay": 2502,
      "Ġprob": 2503,
      "empt": 2504,
      "Ġmajor": 2505,
      "Ġvariable": 2506,
      "enced": 2507,
      "Ġhappen": 2508,
      "Ġrelevant": 2509,
      "ula": 2510,
      "ĠCons": 2511,
      "Ġregard": 2512,
      "Ġelement": 2513,
      "Ġanc": 2514,
      "Ġdays": 2515,
      "aming": 2516,
      "Ġcond": 2517,
      "Ġphot": 2518,
      "Ġparamet": 2519,
      "Ġwidely": 2520,
      "pecially": 2521,
      "\">": 2522,
      "itect": 2523,
      "arc": 2524,
      "use": 2525,
      "Ġlocation": 2526,
      "Ġidentify": 2527,
      "Ġcomponents": 2528,
      "Ġgovernment": 2529,
      "num": 2530,
      "Ġreact": 2531,
      "Ġge": 2532,
      "Ġseen": 2533,
      "like": 2534,
      "But": 2535,
      "ĠInt": 2536,
      "Ġdeb": 2537,
      "Ġsequ": 2538,
      "ĠGod": 2539,
      "Ġcompan": 2540,
      "Ġacross": 2541,
      "Ġconfig": 2542,
      "de": 2543,
      "Ġant": 2544,
      "Ġfit": 2545,
      "Ġnight": 2546,
      "imately": 2547,
      "Ġpositive": 2548,
      "Ġbelief": 2549,
      "Ġpractice": 2550,
      "Ġgrowth": 2551,
      "Ġthought": 2552,
      "Ġ&": 2553,
      "Ġput": 2554,
      "Ġfig": 2555,
      "roll": 2556,
      "ids": 2557,
      "Ġ12": 2558,
      "Ġprocessing": 2559,
      "Ġprojects": 2560,
      "Ġespecially": 2561,
      "ault": 2562,
      "html": 2563,
      "ĊĠĊ": 2564,
      "Ġloss": 2565,
      "Ġlength": 2566,
      "ĠAc": 2567,
      "Ġhelpful": 2568,
      "Ġdifference": 2569,
      "atively": 2570,
      "Ġproduction": 2571,
      "Ġsurface": 2572,
      "Ġanaly": 2573,
      "Script": 2574,
      "source": 2575,
      "orry": 2576,
      "Ġpay": 2577,
      "Ġbit": 2578,
      "uration": 2579,
      "Ġprim": 2580,
      "Ġclean": 2581,
      "Ġschool": 2582,
      "50": 2583,
      "Ġground": 2584,
      "Ġonce": 2585,
      "Ġheart": 2586,
      "Ġ100": 2587,
      "anger": 2588,
      "âĢĿ": 2589,
      "Ġlaw": 2590,
      "Ġfull": 2591,
      "unt": 2592,
      "Ġexact": 2593,
      "Ġheight": 2594,
      "ĠWith": 2595,
      "Ġroom": 2596,
      "Ġhandle": 2597,
      "Ġbenefits": 2598,
      "Ġhours": 2599,
      "go": 2600,
      "âķ": 2601,
      "ificial": 2602,
      "Ġblue": 2603,
      "Ġblack": 2604,
      "Ġproperties": 2605,
      "Ġerror": 2606,
      "Ġsummary": 2607,
      "bon": 2608,
      "Ġaverage": 2609,
      "epend": 2610,
      "ĠOnce": 2611,
      "Ġperspect": 2612,
      "Ġcultural": 2613,
      "eep": 2614,
      "iel": 2615,
      "itch": 2616,
      "Ġopportun": 2617,
      "Ġlab": 2618,
      "Ġforce": 2619,
      "ĠCol": 2620,
      "Ġactions": 2621,
      "Ġconcepts": 2622,
      "ynam": 2623,
      "Ġbar": 2624,
      "Ġyoung": 2625,
      "Ġaspect": 2626,
      "Ġconsequ": 2627,
      "Ġmeet": 2628,
      "Ġabs": 2629,
      "----------------": 2630,
      "Ġprinci": 2631,
      "Ġarchitect": 2632,
      "ones": 2633,
      "Ġopp": 2634,
      "Ġbig": 2635,
      "ĠAp": 2636,
      "ĠDis": 2637,
      "Ġdatas": 2638,
      "ission": 2639,
      "ĠEnglish": 2640,
      "Ġcat": 2641,
      "Ġred": 2642,
      "Ġsepar": 2643,
      "Ġcollect": 2644,
      "Ġdetails": 2645,
      "55": 2646,
      "aling": 2647,
      "Ġlayer": 2648,
      "AR": 2649,
      "sel": 2650,
      "Ġtreat": 2651,
      "izations": 2652,
      "aches": 2653,
      "Ġgetting": 2654,
      "Ġcontinu": 2655,
      "Ġpython": 2656,
      "Ġdest": 2657,
      "igate": 2658,
      "rap": 2659,
      "clusion": 2660,
      "ĠNew": 2661,
      "ribution": 2662,
      "che": 2663,
      "rop": 2664,
      "Ġvirtual": 2665,
      "Ġthroughout": 2666,
      "Ġproperty": 2667,
      "Ġproducts": 2668,
      "GPT": 2669,
      "ST": 2670,
      "gest": 2671,
      "inking": 2672,
      "ison": 2673,
      "itions": 2674,
      "Ġreview": 2675,
      "Ġones": 2676,
      "Ġwhite": 2677,
      "Ġalong": 2678,
      "Ġselect": 2679,
      "ification": 2680,
      "Ġdatabase": 2681,
      "fact": 2682,
      "Ġfish": 2683,
      "asons": 2684,
      "Ġarray": 2685,
      "Ġdeveloped": 2686,
      "Ġattempt": 2687,
      "Ġdevice": 2688,
      "'d": 2689,
      ":**": 2690,
      "ges": 2691,
      "list": 2692,
      "Â°": 2693,
      "Ġ][": 2694,
      "Ġusually": 2695,
      "Ġ30": 2696,
      "Ġoffers": 2697,
      "Ġbelieve": 2698,
      "Ġefficiency": 2699,
      "Ġassociated": 2700,
      "from": 2701,
      "ply": 2702,
      "erson": 2703,
      "Ġproviding": 2704,
      "ians": 2705,
      "ror": 2706,
      "Ġfaster": 2707,
      "Ġstates": 2708,
      "Ġintrodu": 2709,
      "Ġ200": 2710,
      "const": 2711,
      "Ġhardware": 2712,
      "')": 2713,
      "AM": 2714,
      "Ġpow": 2715,
      "Ġcommunication": 2716,
      "Ġwritten": 2717,
      "Ġmanagement": 2718,
      "ID": 2719,
      "Ġcross": 2720,
      "itle": 2721,
      "alking": 2722,
      "abilities": 2723,
      "aps": 2724,
      "Ġeffects": 2725,
      "Ġsuccessful": 2726,
      "However": 2727,
      "Ġpost": 2728,
      "Ġoil": 2729,
      "ider": 2730,
      "Ġemploy": 2731,
      "Ġprocesses": 2732,
      "iction": 2733,
      "Ġtransl": 2734,
      "Ġoperating": 2735,
      "ĠExpl": 2736,
      "Ġdigital": 2737,
      "Ġexperiences": 2738,
      "ĠAmerican": 2739,
      "Ġglobal": 2740,
      "AT": 2741,
      "ma": 2742,
      "script": 2743,
      "Ġnear": 2744,
      "Ġplanet": 2745,
      "IN": 2746,
      "Ġdate": 2747,
      "Ġflu": 2748,
      "Ġdecisions": 2749,
      "Ġvisual": 2750,
      "Ġconstant": 2751,
      "Ġestab": 2752,
      "lt": 2753,
      "erv": 2754,
      "Ġbo": 2755,
      "Ġste": 2756,
      "Ġconscious": 2757,
      "Ġactive": 2758,
      "Ġsmaller": 2759,
      "Ġlimited": 2760,
      "Ġincor": 2761,
      "Ġcirc": 2762,
      "date": 2763,
      "Ġwa": 2764,
      "Ġheat": 2765,
      "Ġrate": 2766,
      "Ġlarger": 2767,
      "Ġdiscuss": 2768,
      "Ġfields": 2769,
      "Ġload": 2770,
      "ĠGoogle": 2771,
      "Ġsn": 2772,
      "oman": 2773,
      "Ġparticularly": 2774,
      "LE": 2775,
      "volution": 2776,
      "Ġcivil": 2777,
      "Ġreally": 2778,
      "hers": 2779,
      "Ġsolution": 2780,
      "Ġhistor": 2781,
      "Ġeduc": 2782,
      "Ġoriginal": 2783,
      "Ġnormal": 2784,
      "oad": 2785,
      "ĠGerm": 2786,
      "duct": 2787,
      "Ġactivities": 2788,
      "Ġcup": 2789,
      "Ġbed": 2790,
      "Ġsuit": 2791,
      "ended": 2792,
      "elling": 2793,
      "Ġweather": 2794,
      "ager": 2795,
      "ĠOn": 2796,
      "ĠYour": 2797,
      "Ġdevelopers": 2798,
      "Ġdoesn": 2799,
      "Ġdecision": 2800,
      "Ġinsp": 2801,
      "Ġsafety": 2802,
      "30": 2803,
      "Ġut": 2804,
      "Ġtast": 2805,
      "Ġwon": 2806,
      "Ġhost": 2807,
      "Ġcomes": 2808,
      "Ġexplan": 2809,
      "();": 2810,
      "18": 2811,
      "omen": 2812,
      "unch": 2813,
      "Ġsupp": 2814,
      "Ġrules": 2815,
      "Ġjour": 2816,
      "Ġaddition": 2817,
      "Ġlonger": 2818,
      "Ġsurv": 2819,
      "Ġ>": 2820,
      "inter": 2821,
      "ival": 2822,
      "ĠRust": 2823,
      "Ġclose": 2824,
      "Ġroll": 2825,
      "ĠJohn": 2826,
      "Ġcool": 2827,
      "Ġexpress": 2828,
      "Ġbring": 2829,
      "==": 2830,
      "aur": 2831,
      "iet": 2832,
      "Ġtips": 2833,
      "Ġfire": 2834,
      "Ġdescript": 2835,
      "Ġamong": 2836,
      "Ġguid": 2837,
      "Ġinfluence": 2838,
      "print": 2839,
      "Ġanimals": 2840,
      "Ġmix": 2841,
      "Ġbecom": 2842,
      "ĠWindows": 2843,
      "Ġsec": 2844,
      "Ġrespect": 2845,
      "Ġcolumn": 2846,
      "Ġintern": 2847,
      "Ġinternet": 2848,
      "Ġbuilt": 2849,
      "Ġsolve": 2850,
      "Ġbackground": 2851,
      "Ġallowing": 2852,
      "Ġinnov": 2853,
      "fect": 2854,
      "Ġpage": 2855,
      "Ġthing": 2856,
      "Ġheav": 2857,
      "cles": 2858,
      "Ġdifferences": 2859,
      "ront": 2860,
      "Ġdraw": 2861,
      "List": 2862,
      "SS": 2863,
      "Ġaware": 2864,
      "inary": 2865,
      "Ġcopy": 2866,
      "elt": 2867,
      "Ġ16": 2868,
      "Ġsynt": 2869,
      "Ġcolors": 2870,
      "aken": 2871,
      "Ġprior": 2872,
      "Ġdrive": 2873,
      "www": 2874,
      "iddle": 2875,
      "log": 2876,
      "Ġdiv": 2877,
      "Ġthread": 2878,
      "Ġeither": 2879,
      "Ġlives": 2880,
      "Ġcompared": 2881,
      "Ġinteresting": 2882,
      "Ġlegal": 2883,
      "Ġsafe": 2884,
      "down": 2885,
      "ipp": 2886,
      "ler": 2887,
      "lict": 2888,
      "het": 2889,
      "itation": 2890,
      "ulations": 2891,
      "soft": 2892,
      "ĠOr": 2893,
      "Ġitself": 2894,
      "ym": 2895,
      "era": 2896,
      "Ġdom": 2897,
      "arily": 2898,
      "icial": 2899,
      "ster": 2900,
      "Ġcomfort": 2901,
      "rie": 2902,
      "ĠBu": 2903,
      "Ġclos": 2904,
      "Ġsimpl": 2905,
      "Ġappear": 2906,
      "ĠJavaScript": 2907,
      "Ġancient": 2908,
      "RE": 2909,
      "dom": 2910,
      "Ġver": 2911,
      "orth": 2912,
      "Ġang": 2913,
      "Ġnut": 2914,
      "quality": 2915,
      "ights": 2916,
      "ude": 2917,
      "aving": 2918,
      "Ġdistribut": 2919,
      "Ġinvolve": 2920,
      "ÂłÂłÂłÂł": 2921,
      "sych": 2922,
      "Ġscreen": 2923,
      "ĠCheck": 2924,
      "rong": 2925,
      "Ġearth": 2926,
      "Ġstru": 2927,
      "Ġscen": 2928,
      "Ġgenerally": 2929,
      "ception": 2930,
      "Ġculture": 2931,
      "Ġissue": 2932,
      "Ġchallenging": 2933,
      "Ġsquare": 2934,
      "Ġinitial": 2935,
      "Ġetc": 2936,
      "Ġaccurate": 2937,
      "dr": 2938,
      "son": 2939,
      "Ġdeg": 2940,
      "sole": 2941,
      "Ġauthor": 2942,
      "Ġentire": 2943,
      "Ġcalculate": 2944,
      "Ġearly": 2945,
      "selves": 2946,
      "body": 2947,
      "care": 2948,
      "ina": 2949,
      "Ġpan": 2950,
      "ĠCal": 2951,
      "Ġvi": 2952,
      "Ġsimply": 2953,
      "Ġcomplete": 2954,
      "Ġbecame": 2955,
      "Ġgrav": 2956,
      "Ġsecure": 2957,
      "bra": 2958,
      "anch": 2959,
      "Ġdream": 2960,
      "asp": 2961,
      "Ġlif": 2962,
      "Ġmaxim": 2963,
      "Ġshap": 2964,
      "Ġaccept": 2965,
      "Ġvariables": 2966,
      "Ġassistant": 2967,
      "ructions": 2968,
      "redients": 2969,
      "Ġdownload": 2970,
      "Ġsituation": 2971,
      "Ġpackage": 2972,
      "ounter": 2973,
      "ĠHTML": 2974,
      "Ġing": 2975,
      "Ġill": 2976,
      "Ġlat": 2977,
      "There": 2978,
      "Ġequation": 2979,
      "Ġcontains": 2980,
      "Ġsymbol": 2981,
      "Ġcompanies": 2982,
      "Ġconsequences": 2983,
      "':": 2984,
      "aw": 2985,
      "yg": 2986,
      "outh": 2987,
      "âĸĳ": 2988,
      "Ġcomplexity": 2989,
      "ĠâĢľ": 2990,
      "Ġsat": 2991,
      "Ġtowards": 2992,
      "Ġworth": 2993,
      "Ġweek": 2994,
      "Ġfund": 2995,
      "versity": 2996,
      "Ġbatter": 2997,
      "16": 2998,
      "22": 2999,
      "mon": 3000,
      "tings": 3001,
      "Ġâ": 3002,
      "ising": 3003,
      "Ġwood": 3004,
      "imens": 3005,
      "emember": 3006,
      "Ġimag": 3007,
      "Ġspecif": 3008,
      "Ġbuy": 3009,
      "Hello": 3010,
      "ai": 3011,
      "bit": 3012,
      "wh": 3013,
      "ocal": 3014,
      "ĠThanks": 3015,
      "ĠRes": 3016,
      "Ġspread": 3017,
      "Ġdistribution": 3018,
      "Ġfinal": 3019,
      "Ġbehind": 3020,
      "Ġaudience": 3021,
      "Ġhold": 3022,
      "ĠPr": 3023,
      "Ġdise": 3024,
      "Ġdesired": 3025,
      "Ġsmart": 3026,
      "Ġtopic": 3027,
      "sing": 3028,
      "Ġcommit": 3029,
      "Ġdiet": 3030,
      "Ġcurrently": 3031,
      "Ġhappy": 3032,
      "Ġdemon": 3033,
      "ĠChatGPT": 3034,
      "Com": 3035,
      "ero": 3036,
      "---": 3037,
      "Ġmodify": 3038,
      "Ġspecies": 3039,
      "Ġmatch": 3040,
      "Ġrelationships": 3041,
      "Ġdescribe": 3042,
      "Ġeyes": 3043,
      "14": 3044,
      "pass": 3045,
      "Ġu": 3046,
      "Ġdanger": 3047,
      "Ġchat": 3048,
      "Ġprice": 3049,
      "Ġformula": 3050,
      "Ġkeyboard": 3051,
      "Ġfix": 3052,
      "Ġfeedback": 3053,
      "Ġdamage": 3054,
      "ech": 3055,
      "med": 3056,
      "Ġid": 3057,
      "Ġcut": 3058,
      "rupt": 3059,
      "phas": 3060,
      "Ġnoise": 3061,
      "Ġcomputing": 3062,
      "Ġelectric": 3063,
      "Ġrecommended": 3064,
      "Ġcondition": 3065,
      "Ġ?": 3066,
      "Ġtot": 3067,
      "Ġdynam": 3068,
      "iles": 3069,
      "Ġsolar": 3070,
      "Ġeasily": 3071,
      "Ġinside": 3072,
      "Ġmonth": 3073,
      "Ġconnection": 3074,
      "Ġbalance": 3075,
      "ged": 3076,
      "oke": 3077,
      "Ġsend": 3078,
      "arr": 3079,
      "osp": 3080,
      "ocol": 3081,
      "Ġplaying": 3082,
      "Ġoperations": 3083,
      "Ġcommonly": 3084,
      "Ġcenter": 3085,
      "Note": 3086,
      "rics": 3087,
      "Ġlack": 3088,
      "Ġreli": 3089,
      "Ġadvent": 3090,
      "Ġveget": 3091,
      "icrosoft": 3092,
      "Ġindustry": 3093,
      "13": 3094,
      "cent": 3095,
      "Ġtim": 3096,
      "Ġop": 3097,
      "Ġbad": 3098,
      "Ġlater": 3099,
      "umb": 3100,
      "plies": 3101,
      "Ġled": 3102,
      "Ġabilities": 3103,
      "resp": 3104,
      "Ġfeature": 3105,
      "Ġeveryone": 3106,
      "Ġhealthy": 3107,
      "AL": 3108,
      "RL": 3109,
      "co": 3110,
      "yond": 3111,
      "Ġfour": 3112,
      "odes": 3113,
      "ection": 3114,
      "ĠName": 3115,
      "Ġupon": 3116,
      "Ġactivity": 3117,
      "Ġprograms": 3118,
      "Ġarchitecture": 3119,
      "64": 3120,
      "min": 3121,
      "sp": 3122,
      "Ġbooks": 3123,
      "Ġnav": 3124,
      "Ġprote": 3125,
      "Ġfollows": 3126,
      "Ġsave": 3127,
      "Ġremember": 3128,
      "ĠCont": 3129,
      "Ġdirectly": 3130,
      "Ġmathematical": 3131,
      "Ġaim": 3132,
      "Ġmom": 3133,
      "Ġmention": 3134,
      "alf": 3135,
      "istance": 3136,
      "Ġscore": 3137,
      "Ġspeak": 3138,
      "Ġactually": 3139,
      "**:": 3140,
      "Ġstudents": 3141,
      "Ġproperly": 3142,
      "Ġinvolved": 3143,
      "force": 3144,
      "aff": 3145,
      "fra": 3146,
      "tr": 3147,
      "uce": 3148,
      "Ġfru": 3149,
      "Ġ15": 3150,
      "ĠNe": 3151,
      "Ġemerg": 3152,
      "ructure": 3153,
      "Ġstructures": 3154,
      "ĠQu": 3155,
      "One": 3156,
      "ball": 3157,
      "pare": 3158,
      "rid": 3159,
      "itary": 3160,
      "ably": 3161,
      "Ġeval": 3162,
      "Ġdetailed": 3163,
      "Ġinterested": 3164,
      "ourage": 3165,
      "ners": 3166,
      "pm": 3167,
      "su": 3168,
      "eration": 3169,
      "Ġcook": 3170,
      "Ġder": 3171,
      "Ġhol": 3172,
      "Ġreasons": 3173,
      "ĠTw": 3174,
      "Ġsche": 3175,
      "astic": 3176,
      "aced": 3177,
      "Ġtechnologies": 3178,
      "rench": 3179,
      "Ġgreater": 3180,
      "Ġplatforms": 3181,
      "zz": 3182,
      "ining": 3183,
      "Ġhot": 3184,
      "Ġlink": 3185,
      "uth": 3186,
      "Ġclimate": 3187,
      "Ġprec": 3188,
      "Ġreport": 3189,
      "Ġreflect": 3190,
      "Ġeverything": 3191,
      "Ġcentury": 3192,
      "Ġpreferences": 3193,
      "Ġtotal": 3194,
      "Add": 3195,
      "base": 3196,
      "gs": 3197,
      "size": 3198,
      "itar": 3199,
      "Ġwindow": 3200,
      "Ġfine": 3201,
      "Ġbud": 3202,
      "alse": 3203,
      "raw": 3204,
      "Ġ</": 3205,
      "With": 3206,
      "aim": 3207,
      "Ġsorry": 3208,
      "Ġcam": 3209,
      "Ġpsych": 3210,
      "Ġmen": 3211,
      "ĠGree": 3212,
      "Ġoutside": 3213,
      "Ġartificial": 3214,
      "Ġconflict": 3215,
      "Ġsuggestions": 3216,
      "ometry": 3217,
      "Ġbeliefs": 3218,
      "40": 3219,
      "uel": 3220,
      "orial": 3221,
      "Ġbir": 3222,
      "ĠInd": 3223,
      "ĠMan": 3224,
      "Ġplants": 3225,
      "cont": 3226,
      "Ġrelig": 3227,
      "ĠStart": 3228,
      "Ġpractices": 3229,
      "ĠDevelop": 3230,
      "Ġfully": 3231,
      "but": 3232,
      "ky": 3233,
      "part": 3234,
      "elcome": 3235,
      "unction": 3236,
      "inecraft": 3237,
      "ĠBrit": 3238,
      "Ġnovel": 3239,
      "Ġadvice": 3240,
      "Ġchem": 3241,
      "Ġsolutions": 3242,
      "Ġpurch": 3243,
      "Ġmotiv": 3244,
      "Ġconcerns": 3245,
      "Con": 3246,
      "IT": 3247,
      "lished": 3248,
      "Ġliving": 3249,
      "ows": 3250,
      "Ġforward": 3251,
      "Ġbeaut": 3252,
      "Ġconsult": 3253,
      "Ġthemselves": 3254,
      "Ġrecord": 3255,
      "Ġfilm": 3256,
      "Ġincreasing": 3257,
      "Ġnegative": 3258,
      "ien": 3259,
      "sv": 3260,
      "world": 3261,
      "Ġreplace": 3262,
      "ĠThen": 3263,
      "ustain": 3264,
      "Ġassum": 3265,
      "Ġtopics": 3266,
      "Ġphysics": 3267,
      "Ġresponses": 3268,
      "Ġethical": 3269,
      "Ġsequence": 3270,
      "Ġprinciples": 3271,
      "do": 3272,
      "eed": 3273,
      "na": 3274,
      "Ġult": 3275,
      "att": 3276,
      "Ġwarm": 3277,
      "Ġever": 3278,
      "ĠAt": 3279,
      "ĠDes": 3280,
      "Ġinterface": 3281,
      "Ġwhole": 3282,
      "Ġdeveloping": 3283,
      "Ġgreen": 3284,
      "By": 3285,
      "iate": 3286,
      "spe": 3287,
      "hent": 3288,
      "org": 3289,
      "orage": 3290,
      "lear": 3291,
      "Ġvoice": 3292,
      "izz": 3293,
      "Ġseem": 3294,
      "ensity": 3295,
      "Ġevol": 3296,
      "Ġemphas": 3297,
      "Ġrefers": 3298,
      "Ġlaws": 3299,
      "Ġlibraries": 3300,
      "Ġpressure": 3301,
      "Ġalternative": 3302,
      "Ġparameters": 3303,
      "gar": 3304,
      "ny": 3305,
      "Ġflex": 3306,
      "room": 3307,
      "Ġreality": 3308,
      "ister": 3309,
      "term": 3310,
      "Ġ11": 3311,
      "Ġ2023": 3312,
      "Ġreturns": 3313,
      "Ġnetworks": 3314,
      "Ġcombination": 3315,
      "EN": 3316,
      "af": 3317,
      "ey": 3318,
      "met": 3319,
      "Ġinj": 3320,
      "Ġded": 3321,
      "rag": 3322,
      "ĠWar": 3323,
      "Ġmap": 3324,
      "Ġ=>": 3325,
      "encies": 3326,
      "Ġlisten": 3327,
      "Al": 3328,
      "fer": 3329,
      "Ġfight": 3330,
      "Ġbeyond": 3331,
      "ĠMod": 3332,
      "Ġperfect": 3333,
      "Ġhealthcare": 3334,
      "Ġimplementation": 3335,
      "Ġsympt": 3336,
      "},": 3337,
      "input": 3338,
      "Ġcast": 3339,
      "Ġboard": 3340,
      "Ġnames": 3341,
      "cket": 3342,
      "Ġmode": 3343,
      "clude": 3344,
      "Ġexperiment": 3345,
      "plications": 3346,
      "Ġgroups": 3347,
      "Ġexercise": 3348,
      "Ġdataset": 3349,
      "uate": 3350,
      "Ġter": 3351,
      "Ġcore": 3352,
      "Ġmount": 3353,
      "istics": 3354,
      "ĠCertain": 3355,
      "ĠPC": 3356,
      "ĠPer": 3357,
      "Ġmanip": 3358,
      "Ġguitar": 3359,
      "Ġblood": 3360,
      "Ġupdate": 3361,
      "Ġprivacy": 3362,
      "Ġsmooth": 3363,
      "hel": 3364,
      "eria": 3365,
      "ĠSw": 3366,
      "Ġdecl": 3367,
      "Ġdefine": 3368,
      "Ġreference": 3369,
      "Ġstrategy": 3370,
      "Ġexecut": 3371,
      "Ġjourney": 3372,
      "32": 3373,
      "Im": 3374,
      "Name": 3375,
      "])": 3376,
      "ging": 3377,
      "Ġwatch": 3378,
      "Ġhab": 3379,
      "ili": 3380,
      "ĠGet": 3381,
      "Ġforms": 3382,
      "Ġmonitor": 3383,
      "Ġmovie": 3384,
      "Ġcareful": 3385,
      "Ġcomponent": 3386,
      "Ġcollabor": 3387,
      "Ġpiece": 3388,
      "Ġtaste": 3389,
      "60": 3390,
      "mod": 3391,
      "ters": 3392,
      "Ġmis": 3393,
      "Ġbox": 3394,
      "Ġlic": 3395,
      "ĠEl": 3396,
      "ffee": 3397,
      "Ġcreates": 3398,
      "Ġlocated": 3399,
      "Ġletter": 3400,
      "Ġdeli": 3401,
      "Ġframework": 3402,
      "ltimately": 3403,
      "Ġconsciousness": 3404,
      "Ġincorpor": 3405,
      "Ġstrugg": 3406,
      "17": 3407,
      "80": 3408,
      "bl": 3409,
      "grad": 3410,
      "where": 3411,
      "ype": 3412,
      "Ġsustain": 3413,
      "itude": 3414,
      "level": 3415,
      "Ġhouse": 3416,
      "Ġconclusion": 3417,
      "plied": 3418,
      "illing": 3419,
      "Ġplant": 3420,
      "Ġscene": 3421,
      "Ġclient": 3422,
      "nown": 3423,
      "ruction": 3424,
      "Ġapply": 3425,
      "Ġpotentially": 3426,
      "Ġadvantage": 3427,
      "ele": 3428,
      "uff": 3429,
      "Ã©": 3430,
      "ĠTry": 3431,
      "unk": 3432,
      "opp": 3433,
      "osing": 3434,
      "apan": 3435,
      "lock": 3436,
      "Ġsetting": 3437,
      "Ġremov": 3438,
      "Ġsky": 3439,
      "Ġmovement": 3440,
      "`.": 3441,
      "Ġthreat": 3442,
      "ĠSu": 3443,
      "ĠGit": 3444,
      "Ġcreative": 3445,
      "Ġimportance": 3446,
      "Ġreducing": 3447,
      "Ġmagic": 3448,
      "Ġliter": 3449,
      "Ġvolume": 3450,
      "âĸĳâĸĳ": 3451,
      "AD": 3452,
      "order": 3453,
      "ouble": 3454,
      "Ġwrong": 3455,
      "alled": 3456,
      "Ġyet": 3457,
      "Ġlines": 3458,
      "Ġstress": 3459,
      "Ġdeath": 3460,
      "Ġchick": 3461,
      "Ġ25": 3462,
      "Ġquite": 3463,
      "Ġbutton": 3464,
      "Ġadded": 3465,
      "Ġequal": 3466,
      "Ġbreath": 3467,
      "Ġstrategies": 3468,
      "âĸĵâĸĵ": 3469,
      "ield": 3470,
      "Your": 3471,
      "cording": 3472,
      "div": 3473,
      "Ġ--": 3474,
      "Ġtax": 3475,
      "Ġhor": 3476,
      "opt": 3477,
      "ĠMar": 3478,
      "Ġcreation": 3479,
      "Ġrot": 3480,
      "aily": 3481,
      "Ġactual": 3482,
      "Ġcheese": 3483,
      "Ġsubst": 3484,
      "type": 3485,
      "Ġmembers": 3486,
      "Ġterminal": 3487,
      "Ġtesting": 3488,
      "Ġexistence": 3489,
      "Ġvideos": 3490,
      "Ġmechanics": 3491,
      "Ġbudget": 3492,
      "Ġsymptoms": 3493,
      "isms": 3494,
      "Ġmiss": 3495,
      "Ġthird": 3496,
      "Ġstock": 3497,
      "oding": 3498,
      "ĠAfter": 3499,
      "ored": 3500,
      "ands": 3501,
      "Ġenem": 3502,
      "ĠDef": 3503,
      "irection": 3504,
      "Ġcreatures": 3505,
      "Ġrecipe": 3506,
      "Ġelectron": 3507,
      "Ġexisting": 3508,
      "Ġcustomer": 3509,
      "Ġchildren": 3510,
      ".,": 3511,
      "['": 3512,
      "rem": 3513,
      "Ġcru": 3514,
      "Ġfair": 3515,
      "Ġeat": 3516,
      "Ġnode": 3517,
      "ement": 3518,
      "value": 3519,
      "Ġresponsible": 3520,
      "Ġeffectively": 3521,
      "Ġphilosophy": 3522,
      "Ġviol": 3523,
      "?\"": 3524,
      "fit": 3525,
      "mar": 3526,
      "pire": 3527,
      "top": 3528,
      "Ġfail": 3529,
      "ĠRed": 3530,
      "angle": 3531,
      "ĠWhich": 3532,
      "overed": 3533,
      "Ġrespond": 3534,
      "Ġsurround": 3535,
      "Ġmilitary": 3536,
      "rim": 3537,
      "rate": 3538,
      "Ġtaken": 3539,
      "ino": 3540,
      "Ġcamp": 3541,
      "Ġmillion": 3542,
      "illed": 3543,
      "Ġgas": 3544,
      "Ġgold": 3545,
      "Ġbegan": 3546,
      "Ġtrust": 3547,
      "Ġgeneration": 3548,
      "Ġauthent": 3549,
      "âĶĢâĶĢâĶĢâĶĢâĶĢâĶĢâĶĢâĶĢ": 3550,
      "Ġrequests": 3551,
      "Ġopportunities": 3552,
      "HT": 3553,
      "Remember": 3554,
      "host": 3555,
      "inct": 3556,
      "ativity": 3557,
      "ĠAm": 3558,
      "adem": 3559,
      "ĠMay": 3560,
      "Ġrow": 3561,
      "Ġgenerated": 3562,
      "Ġphr": 3563,
      "Ġpromot": 3564,
      "Ġartic": 3565,
      "Ġargument": 3566,
      "Ġhistorical": 3567,
      "100": 3568,
      "25": 3569,
      "AN": 3570,
      "Ġpadd": 3571,
      "irl": 3572,
      "Ġchann": 3573,
      "Ġunit": 3574,
      "inder": 3575,
      "ached": 3576,
      "Ġhowever": 3577,
      "Ġremove": 3578,
      "Ġincreased": 3579,
      "Ġcapture": 3580,
      "rel": 3581,
      "eries": 3582,
      "Ġwall": 3583,
      "Ġwelcome": 3584,
      "Ġmer": 3585,
      "Ġgot": 3586,
      "arian": 3587,
      "Ġindepend": 3588,
      "ternal": 3589,
      "Ġexpand": 3590,
      "Ġfeeling": 3591,
      "Ġfamous": 3592,
      "âĸĪâĸĪâĸĪâĸĪ": 3593,
      "What": 3594,
      "ĠCertainly": 3595,
      "!\"": 3596,
      "ED": 3597,
      "dir": 3598,
      "nam": 3599,
      "war": 3600,
      "Ġtur": 3601,
      "onal": 3602,
      "ĠLe": 3603,
      "Ġfeet": 3604,
      "ĠNow": 3605,
      "Ġspir": 3606,
      "Ġtechnical": 3607,
      "Ġinfin": 3608,
      "Ġchanging": 3609,
      "Ġlinear": 3610,
      "Ġorganization": 3611,
      "Ġgraphics": 3612,
      "Ġdemonstr": 3613,
      "button": 3614,
      "Ġtree": 3615,
      "ops": 3616,
      "ĠGener": 3617,
      "ĠLi": 3618,
      "Ġcarbon": 3619,
      "Ġinterests": 3620,
      "rency": 3621,
      "Ġrisks": 3622,
      "idden": 3623,
      "Ġsalt": 3624,
      "Ġattacks": 3625,
      "Ġconversation": 3626,
      "ĠTrans": 3627,
      "Ġinterpret": 3628,
      "run": 3629,
      "sol": 3630,
      "ðŁ": 3631,
      "ony": 3632,
      "Ġbow": 3633,
      "alle": 3634,
      "Ġdaily": 3635,
      "Ġgram": 3636,
      "olf": 3637,
      "Ġcollection": 3638,
      "ĠYouT": 3639,
      "Ġexpert": 3640,
      "Ġmeasures": 3641,
      "fficient": 3642,
      "Ġadvantages": 3643,
      "Ġaspects": 3644,
      "On": 3645,
      "TP": 3646,
      "bi": 3647,
      "book": 3648,
      "friend": 3649,
      "yp": 3650,
      "Ġtheore": 3651,
      "Ġsil": 3652,
      "atives": 3653,
      "Ġmit": 3654,
      "Ġmut": 3655,
      "Ġstorage": 3656,
      "rial": 3657,
      "Ġplayed": 3658,
      "Ġvector": 3659,
      "Ġbott": 3660,
      "Ġmoment": 3661,
      "SC": 3662,
      "iation": 3663,
      "uations": 3664,
      "inks": 3665,
      "Ġpip": 3666,
      "Ġparent": 3667,
      "icious": 3668,
      "Ġsty": 3669,
      "ĠFinally": 3670,
      "Ġclick": 3671,
      "Ġarr": 3672,
      "Ġguide": 3673,
      "::::": 3674,
      "oe": 3675,
      "sive": 3676,
      "vas": 3677,
      "Ġcatch": 3678,
      "enge": 3679,
      "Ġwalk": 3680,
      "Ġmental": 3681,
      "asy": 3682,
      "ctors": 3683,
      "Ġly": 3684,
      "ĠSQL": 3685,
      "ĠSystem": 3686,
      "Ġsup": 3687,
      "ĠFrench": 3688,
      "Ġadding": 3689,
      "Ġinstance": 3690,
      "Ġinstructions": 3691,
      "Ġtransport": 3692,
      "Ġfinding": 3693,
      "Ġcomputers": 3694,
      "Ġeducation": 3695,
      "En": 3696,
      "atory": 3697,
      "itc": 3698,
      "Ġfive": 3699,
      "aly": 3700,
      "amb": 3701,
      "ĠJapan": 3702,
      "Ġnumer": 3703,
      "object": 3704,
      "Ġ+=": 3705,
      "ĠOpenAI": 3706,
      "Ġpassword": 3707,
      "Ġencrypt": 3708,
      "Ġperspective": 3709,
      "Ġdangerous": 3710,
      "II": 3711,
      "erate": 3712,
      "ouch": 3713,
      "Ġrepe": 3714,
      "ether": 3715,
      "chain": 3716,
      "ĠMicrosoft": 3717,
      "izer": 3718,
      "aged": 3719,
      "Ġscale": 3720,
      "Ġrecent": 3721,
      "Ġparticles": 3722,
      "ĠProv": 3723,
      "Ġbelieved": 3724,
      "Ġdrag": 3725,
      "augh": 3726,
      "Ġsuitable": 3727,
      "Ġingredients": 3728,
      "].": 3729,
      "`,": 3730,
      "bed": 3731,
      "dis": 3732,
      "train": 3733,
      "Ġur": 3734,
      "Ġfavor": 3735,
      "Ġnuc": 3736,
      "ams": 3737,
      "rix": 3738,
      "ĠPre": 3739,
      "Ġcho": 3740,
      "ells": 3741,
      "ĠGreat": 3742,
      "ĠReg": 3743,
      "Ġquery": 3744,
      "Ġ->": 3745,
      "Ġindex": 3746,
      "Ġaccording": 3747,
      "Ġrights": 3748,
      "Ġcontinues": 3749,
      "Ġstatement": 3750,
      "uracy": 3751,
      "Ġspecifically": 3752,
      "rist": 3753,
      "Ġtun": 3754,
      "Ġpick": 3755,
      "Ġdirection": 3756,
      "asc": 3757,
      "ils": 3758,
      "Ġvul": 3759,
      "pped": 3760,
      "Ġteach": 3761,
      "ĠKeep": 3762,
      "Ġregion": 3763,
      "Ġadvance": 3764,
      "Ġrefer": 3765,
      "string": 3766,
      "Ġerrors": 3767,
      "ĠEuropean": 3768,
      "Ġpolicy": 3769,
      "ography": 3770,
      "Ġconfiguration": 3771,
      "Ġsupply": 3772,
      "Ġprotein": 3773,
      "??": 3774,
      "OR": 3775,
      "Use": 3776,
      "bu": 3777,
      "erve": 3778,
      "Ġmist": 3779,
      "idity": 3780,
      "Ġpropos": 3781,
      "ĠSun": 3782,
      "essage": 3783,
      "Ġvac": 3784,
      "ĠMat": 3785,
      "Ġaccuracy": 3786,
      "Ġmoving": 3787,
      "Ġrobot": 3788,
      "Ġexplanation": 3789,
      "Ġmicro": 3790,
      "omic": 3791,
      "ĠAv": 3792,
      "ried": 3793,
      "ĠMinecraft": 3794,
      "Ġkn": 3795,
      "ache": 3796,
      "Ġlargest": 3797,
      "Ġcoffee": 3798,
      "Ġretrie": 3799,
      "Ġmedium": 3800,
      "Ġcontainer": 3801,
      "Ġdemand": 3802,
      "Ġprefer": 3803,
      "hing": 3804,
      "Ġfoot": 3805,
      "Ġmath": 3806,
      "rack": 3807,
      "Ġdead": 3808,
      "ĠHello": 3809,
      "Ġmac": 3810,
      "Ġobtain": 3811,
      "Ġflat": 3812,
      "Ġhumanity": 3813,
      "Ġbranch": 3814,
      "strict": 3815,
      "Ġprivate": 3816,
      "Ġeggs": 3817,
      "ĠExplain": 3818,
      "JJ": 3819,
      "mosp": 3820,
      "Ġmel": 3821,
      "Ġban": 3822,
      "eline": 3823,
      "uries": 3824,
      "Ġalign": 3825,
      "Ġshad": 3826,
      "Ġsoon": 3827,
      "apter": 3828,
      "Ġflour": 3829,
      "Ġapproxim": 3830,
      "Ġengage": 3831,
      "Ġcaused": 3832,
      "Ġmentioned": 3833,
      "SD": 3834,
      "eor": 3835,
      "Ġ%": 3836,
      "Ġtheories": 3837,
      "Ġsample": 3838,
      "Ġcrypt": 3839,
      "Ġfresh": 3840,
      "Ġhun": 3841,
      "plot": 3842,
      "though": 3843,
      "Ġrise": 3844,
      "Ġscal": 3845,
      "Ġcloud": 3846,
      "connect": 3847,
      "Ġapart": 3848,
      "ounds": 3849,
      "cret": 3850,
      "ĠWeb": 3851,
      "Ġremains": 3852,
      "estern": 3853,
      "Ġmi": 3854,
      "etimes": 3855,
      "irm": 3856,
      "ĠMon": 3857,
      "Ġseems": 3858,
      "Ġatmosp": 3859,
      "Ġgoes": 3860,
      "Ġclaim": 3861,
      "Ġanyone": 3862,
      "ipment": 3863,
      "Ġorganizations": 3864,
      "Ġmathematics": 3865,
      "ĠConsider": 3866,
      "Ġopin": 3867,
      "Cl": 3868,
      "Re": 3869,
      "lay": 3870,
      "rror": 3871,
      "Ġtend": 3872,
      "gebra": 3873,
      "plit": 3874,
      "Ġcredit": 3875,
      "ĠWho": 3876,
      "Ġtechnique": 3877,
      "Ġhands": 3878,
      "Ġpromote": 3879,
      "Ġmoral": 3880,
      "Ġregularly": 3881,
      "Ġscenari": 3882,
      "Ġchicken": 3883,
      "ees": 3884,
      "gram": 3885,
      "orch": 3886,
      "idth": 3887,
      "Ġstars": 3888,
      "urance": 3889,
      "asses": 3890,
      "Ġneur": 3891,
      "Ġmeant": 3892,
      "Ġweak": 3893,
      "ĠOver": 3894,
      "dule": 3895,
      "Ġcold": 3896,
      "Ġcolle": 3897,
      "Ġinvent": 3898,
      "Ġcomplet": 3899,
      "Ġcapabilities": 3900,
      "Ġamounts": 3901,
      "Ġseparate": 3902,
      "Ġdescription": 3903,
      "Ġfundam": 3904,
      "Ġment": 3905,
      "Ġnp": 3906,
      "Ġseason": 3907,
      "Ġ17": 3908,
      "resents": 3909,
      "ĠFr": 3910,
      "ĠGu": 3911,
      "Ġunderlying": 3912,
      "Ġrelatively": 3913,
      "Ġdetail": 3914,
      "Ġcover": 3915,
      "Ġfactor": 3916,
      "Ġelectr": 3917,
      "Ġemotions": 3918,
      "ĠYouTube": 3919,
      "21": 3920,
      "Please": 3921,
      "known": 3922,
      "uable": 3923,
      "Ġfat": 3924,
      "Ġmole": 3925,
      "Ġmiddle": 3926,
      "Ġbur": 3927,
      "Ġrestrict": 3928,
      "Ġgar": 3929,
      "Ġconvert": 3930,
      "ĠAut": 3931,
      "ĠGood": 3932,
      "Ġweap": 3933,
      "Ġking": 3934,
      "Ġcontact": 3935,
      "Ġacadem": 3936,
      "Ġrelax": 3937,
      "Ġdepth": 3938,
      "Ġrepresents": 3939,
      "Ġresulting": 3940,
      "Ġextra": 3941,
      "Ġcapital": 3942,
      "Ġlayers": 3943,
      "Ġinfluenced": 3944,
      "Ġengineering": 3945,
      "Ġsounds": 3946,
      "Ġeye": 3947,
      "espite": 3948,
      "Ġconsistent": 3949,
      "CT": 3950,
      "PE": 3951,
      "ait": 3952,
      "cer": 3953,
      "Ġ]": 3954,
      "Ġreward": 3955,
      "osit": 3956,
      "Ġchord": 3957,
      "ĠData": 3958,
      "ĠGPU": 3959,
      "ĠList": 3960,
      "Ġextension": 3961,
      "Ġconnected": 3962,
      "Ġmachines": 3963,
      "Ġchallenge": 3964,
      "Ġroutine": 3965,
      "Ġvulner": 3966,
      "ched": 3967,
      "mor": 3968,
      "Ġpub": 3969,
      "Ġpush": 3970,
      "Ġfing": 3971,
      "Ġthinking": 3972,
      "ership": 3973,
      "Ġnotes": 3974,
      "ĠGive": 3975,
      "ĠRoman": 3976,
      "agraph": 3977,
      "ensor": 3978,
      "Ġflight": 3979,
      "Ġextract": 3980,
      "Ġvisit": 3981,
      "Ġcommands": 3982,
      "Ġenvironmental": 3983,
      "Ġcapable": 3984,
      "rastructure": 3985,
      "ĠAccording": 3986,
      "Ġmaximum": 3987,
      "Ar": 3988,
      "Int": 3989,
      "SE": 3990,
      "write": 3991,
      "Ġir": 3992,
      "oration": 3993,
      "Ġgirl": 3994,
      "ĠTake": 3995,
      "Ġitem": 3996,
      "ĠSim": 3997,
      "ĠPy": 3998,
      "Ġwanted": 3999,
      "Ġimproving": 4000,
      "Ġfilled": 4001,
      "Ġfeelings": 4002,
      "Ġcapac": 4003,
      "ĠAlso": 4004,
      "Ġpieces": 4005,
      "Ġphilosophical": 4006,
      "Ġsatis": 4007,
      "']": 4008,
      "99": 4009,
      "='": 4010,
      "ok": 4011,
      "Ġri": 4012,
      "Ġtables": 4013,
      "Ġsus": 4014,
      "Ġcit": 4015,
      "Ġfront": 4016,
      "Ġep": 4017,
      "Ġstri": 4018,
      "iring": 4019,
      "Ġsugar": 4020,
      "osition": 4021,
      "Ġkil": 4022,
      "Ġcompare": 4023,
      "Ġroad": 4024,
      "Ġserve": 4025,
      "Ġinstalled": 4026,
      "ĠKing": 4027,
      "Ġrace": 4028,
      "Ġpopulation": 4029,
      "Ġcommunities": 4030,
      "Ġ80": 4031,
      "Ġhyp": 4032,
      "Ġcontribute": 4033,
      "Ġcritical": 4034,
      "Ġgravity": 4035,
      "45": 4036,
      "inst": 4037,
      "iced": 4038,
      "omy": 4039,
      "Ġlate": 4040,
      "Ġlost": 4041,
      "etic": 4042,
      "Ġalgebra": 4043,
      "Ġvast": 4044,
      "ĠMany": 4045,
      "Ġ13": 4046,
      "ĠLear": 4047,
      "ously": 4048,
      "Ġtransfer": 4049,
      "Ġinfrastructure": 4050,
      "Ġdiag": 4051,
      "Ġmessages": 4052,
      "Ġwebsites": 4053,
      "Ġstatus": 4054,
      "Ġfigure": 4055,
      "De": 4056,
      "When": 4057,
      "wise": 4058,
      "iny": 4059,
      "reg": 4060,
      "Ġwin": 4061,
      "used": 4062,
      "Ġhair": 4063,
      "Ġrh": 4064,
      "ĠMe": 4065,
      "Ġaccom": 4066,
      "Ġofficial": 4067,
      "Ġplanning": 4068,
      "Ġseek": 4069,
      "Ġenter": 4070,
      "Ġlearned": 4071,
      "Ġcentral": 4072,
      "Ġbroad": 4073,
      "Ġlimitations": 4074,
      "Ġestablish": 4075,
      "Ġchemical": 4076,
      "Ġcrucial": 4077,
      "rant": 4078,
      "Ġos": 4079,
      "asure": 4080,
      "oll": 4081,
      "ĠAll": 4082,
      "Ġusage": 4083,
      "ums": 4084,
      "ains": 4085,
      "Ġund": 4086,
      "Ġindic": 4087,
      "rows": 4088,
      "earch": 4089,
      "Ġallowed": 4090,
      "Ġequipment": 4091,
      "Ġpractical": 4092,
      "Ġeconomy": 4093,
      "Ġidentity": 4094,
      "Ġeventually": 4095,
      "weight": 4096,
      "affe": 4097,
      "NA": 4098,
      "TH": 4099,
      "flow": 4100,
      "atically": 4101,
      "Ġhalf": 4102,
      "iling": 4103,
      "Ġstable": 4104,
      "Ġrich": 4105,
      "ĠMark": 4106,
      "Ġenh": 4107,
      "Ġplot": 4108,
      "ifications": 4109,
      "plication": 4110,
      "Ġregulations": 4111,
      "Ġsupports": 4112,
      "Ġaccessible": 4113,
      "Ġresearc": 4114,
      "Ġradius": 4115,
      "~~~~": 4116,
      "Ġprobability": 4117,
      "Ġvegetables": 4118,
      "bre": 4119,
      "eper": 4120,
      "lab": 4121,
      "lib": 4122,
      "ned": 4123,
      "Ġvel": 4124,
      "itter": 4125,
      "amples": 4126,
      "plate": 4127,
      "Ġlett": 4128,
      "Ġenable": 4129,
      "ĠEach": 4130,
      "ĠFl": 4131,
      "ĠRuss": 4132,
      "Ġmodule": 4133,
      "Ġapolog": 4134,
      "Ġsettings": 4135,
      "Ġinstr": 4136,
      "Ġdefined": 4137,
      "Ġwidth": 4138,
      "Ġdogs": 4139,
      "Ġassistance": 4140,
      "Ġprimary": 4141,
      "untu": 4142,
      "ĠBuild": 4143,
      "!!": 4144,
      ".)": 4145,
      "Error": 4146,
      "Se": 4147,
      "aper": 4148,
      "hold": 4149,
      "Ġice": 4150,
      "ana": 4151,
      "ley": 4152,
      "Ġdry": 4153,
      "arge": 4154,
      "Ġgender": 4155,
      "Ġgaming": 4156,
      "Ġrule": 4157,
      "Ġimplications": 4158,
      "Ġstrings": 4159,
      "Ġdiverse": 4160,
      "Ġprompts": 4161,
      "ĠGreek": 4162,
      "ugg": 4163,
      "alax": 4164,
      "Ġhar": 4165,
      "Ġlooks": 4166,
      "Ġgod": 4167,
      "rief": 4168,
      "ellow": 4169,
      "epper": 4170,
      "Ġdefault": 4171,
      "ĠTherefore": 4172,
      "Ġlapt": 4173,
      "Ġoperation": 4174,
      "Ġsometimes": 4175,
      "Ġpassed": 4176,
      "Ġcultures": 4177,
      "poses": 4178,
      "Ġsentence": 4179,
      "âķ£": 4180,
      "Ġpriorit": 4181,
      "aks": 4182,
      "ses": 4183,
      "Ġtalking": 4184,
      "reci": 4185,
      "iful": 4186,
      "ulated": 4187,
      "Ġconsole": 4188,
      "ĠAf": 4189,
      "Ġhear": 4190,
      "ĠPol": 4191,
      "Ġcompat": 4192,
      "Ġspeech": 4193,
      "Ġjoin": 4194,
      "Ġkeys": 4195,
      "Ġfunctionality": 4196,
      "ĠVal": 4197,
      "Ġclasses": 4198,
      "Ġanswers": 4199,
      "issions": 4200,
      "Ġrecommendations": 4201,
      "Ġbiases": 4202,
      "Ġarguments": 4203,
      "Ġhyd": 4204,
      "Ġcausing": 4205,
      "Ġreceive": 4206,
      "Ġpolicies": 4207,
      "Ġcomfortable": 4208,
      "Ġbattery": 4209,
      "Ġcamera": 4210,
      "life": 4211,
      "most": 4212,
      "Ġtour": 4213,
      "inated": 4214,
      "onic": 4215,
      "Ġsides": 4216,
      "Ġcooking": 4217,
      "anish": 4218,
      "vere": 4219,
      "step": 4220,
      "Ġnothing": 4221,
      "ĠDr": 4222,
      "Ġknew": 4223,
      "Ġtraffic": 4224,
      "Ġphone": 4225,
      "Ġvaluable": 4226,
      "Ġfreed": 4227,
      "Ġunivers": 4228,
      "Ġupdated": 4229,
      "Ġbecomes": 4230,
      "IM": 4231,
      "map": 4232,
      "Ġtalk": 4233,
      "Ġcraft": 4234,
      "style": 4235,
      "ĠSince": 4236,
      "Ġcompre": 4237,
      "Ġappreci": 4238,
      "ifying": 4239,
      "Ġstudent": 4240,
      "Ġzero": 4241,
      "Ġcauses": 4242,
      "Ġgeometry": 4243,
      "ĠDefine": 4244,
      "IG": 4245,
      "ae": 4246,
      "can": 4247,
      "csv": 4248,
      "fig": 4249,
      "hib": 4250,
      "Ġvert": 4251,
      "Ġslight": 4252,
      "Ġmob": 4253,
      "Ġdouble": 4254,
      "icking": 4255,
      "Ġluck": 4256,
      "Ġrelease": 4257,
      "etime": 4258,
      "Ġasking": 4259,
      "Ġunc": 4260,
      "Ġmyself": 4261,
      "ĠIntern": 4262,
      "Ġsport": 4263,
      "Ġattribut": 4264,
      "####": 4265,
      "Ġcosts": 4266,
      "Ġintegr": 4267,
      "Ġimmed": 4268,
      "Ġbrowser": 4269,
      "points": 4270,
      "Ġpowers": 4271,
      "Ġdisease": 4272,
      "Ġschedule": 4273,
      "iliar": 4274,
      "overy": 4275,
      "width": 4276,
      "entral": 4277,
      "image": 4278,
      "Ġ14": 4279,
      "class": 4280,
      "ĠOf": 4281,
      "Ġreps": 4282,
      "Ġestimate": 4283,
      "Ġcorrectly": 4284,
      "Ġblocks": 4285,
      "Ġfloat": 4286,
      "Ġanalyze": 4287,
      "Ġexactly": 4288,
      "Ġinnovation": 4289,
      "ufact": 4290,
      "Ġpad": 4291,
      "Ġphen": 4292,
      "Ġtomat": 4293,
      "Ġine": 4294,
      "leg": 4295,
      "Ġhit": 4296,
      "Ġrepl": 4297,
      "Ġstra": 4298,
      "Ġalien": 4299,
      "ĠHis": 4300,
      "ĠPe": 4301,
      "Ġcontrast": 4302,
      "Ġresource": 4303,
      "ĠUsing": 4304,
      "ints": 4305,
      "ĠStud": 4306,
      "ibly": 4307,
      "Ġfilter": 4308,
      "Ġbright": 4309,
      "Ġbelow": 4310,
      "Ġmember": 4311,
      "Ġmuscle": 4312,
      "Ġsituations": 4313,
      "Ġanimal": 4314,
      "Ġscientists": 4315,
      "\";": 4316,
      "70": 4317,
      "cos": 4318,
      "main": 4319,
      "zing": 4320,
      "Ġwent": 4321,
      "Ġfalse": 4322,
      "ĠTe": 4323,
      "Ġstd": 4324,
      "ĠEnder": 4325,
      "ĠFe": 4326,
      "Ġcontract": 4327,
      "ĠLa": 4328,
      "ĠNorth": 4329,
      "Ġthemes": 4330,
      "ĠJust": 4331,
      "Ġserious": 4332,
      "Ġnews": 4333,
      "ĠVis": 4334,
      "ibilities": 4335,
      "Ġraise": 4336,
      "hesis": 4337,
      "Ġrepresentation": 4338,
      "âĸĴâĸĴâĸĴâĸĴ": 4339,
      "Ġstyles": 4340,
      "My": 4341,
      "bot": 4342,
      "hood": 4343,
      "ls": 4344,
      "ratic": 4345,
      "Ġaw": 4346,
      "ened": 4347,
      "Ġpair": 4348,
      "Ġfuel": 4349,
      "Ġmaster": 4350,
      "Ġdimens": 4351,
      "Ġhidden": 4352,
      "Ġgives": 4353,
      "ĠCO": 4354,
      "ĠCSS": 4355,
      "ively": 4356,
      "Ġseg": 4357,
      "Ġplaces": 4358,
      "Ġevil": 4359,
      "Ġreposit": 4360,
      "Ġflavor": 4361,
      "Ġgradu": 4362,
      "Ġpurposes": 4363,
      "Ġedge": 4364,
      "Step": 4365,
      "Ġfocused": 4366,
      "Ġcustomers": 4367,
      "Ġbattle": 4368,
      "Ġexercises": 4369,
      "24": 4370,
      "Data": 4371,
      "Some": 4372,
      "df": 4373,
      "off": 4374,
      "Ġfan": 4375,
      "alt": 4376,
      "Ġdivid": 4377,
      "iding": 4378,
      "Ġexcept": 4379,
      "Ġseed": 4380,
      "ĠDiff": 4381,
      "ĠFirst": 4382,
      "Ġresol": 4383,
      "ĠOk": 4384,
      "acing": 4385,
      "Ġmyth": 4386,
      "ractice": 4387,
      "Ġhighlight": 4388,
      "Ġruns": 4389,
      "Ġcommunicate": 4390,
      "Ġensuring": 4391,
      "Ġdidn": 4392,
      "Ġtrend": 4393,
      "Ġexpected": 4394,
      "Ġsyntax": 4395,
      "Ġspirit": 4396,
      "Ġacademic": 4397,
      "cel": 4398,
      "she": 4399,
      "Ġtut": 4400,
      "Ġax": 4401,
      "onds": 4402,
      "Ġden": 4403,
      "Ġrein": 4404,
      "ades": 4405,
      "Ġvar": 4406,
      "ĠGPT": 4407,
      "Ġ50": 4408,
      "Ġshows": 4409,
      "Ġbias": 4410,
      "Ġdemoc": 4411,
      "Ġstored": 4412,
      "json": 4413,
      "^^^^": 4414,
      "Ġlatest": 4415,
      "Ġlyrics": 4416,
      "Ġfavorite": 4417,
      "Ġapproximately": 4418,
      "77": 4419,
      "mission": 4420,
      "}{": 4421,
      "ref": 4422,
      "Ġsite": 4423,
      "Ġwind": 4424,
      "Ġfem": 4425,
      "Ġmoon": 4426,
      "Ġhat": 4427,
      "Ġgather": 4428,
      "Ġstatic": 4429,
      "Ġconv": 4430,
      "Ġclar": 4431,
      "xture": 4432,
      "Ġsauce": 4433,
      "Ġimproved": 4434,
      "Ġengaging": 4435,
      "Ġcarry": 4436,
      "Ġvision": 4437,
      "Ġparticip": 4438,
      "Ġreading": 4439,
      "lik": 4440,
      "Ġdetermined": 4441,
      "Ġmovies": 4442,
      "ĠComp": 4443,
      "Ġcontinued": 4444,
      "ĠGermany": 4445,
      "Ġnavigate": 4446,
      "friendly": 4447,
      "Ġapologize": 4448,
      "Ġphenomen": 4449,
      "US": 4450,
      "rig": 4451,
      "Ã¼": 4452,
      "ĊĠ": 4453,
      "Ġfelt": 4454,
      "Ġbul": 4455,
      "ascript": 4456,
      "Ġstar": 4457,
      "Ġconver": 4458,
      "ĠCPU": 4459,
      "Ġdoctor": 4460,
      "Ġteasp": 4461,
      "avascript": 4462,
      "ĠUp": 4463,
      "Ġtruth": 4464,
      "Ġfunctional": 4465,
      "tenance": 4466,
      "nesses": 4467,
      "Ġpoll": 4468,
      "Ġstudies": 4469,
      "Ġexperienced": 4470,
      "ĠSpanish": 4471,
      "Ġmilk": 4472,
      "Ġtreatment": 4473,
      "Ġcircum": 4474,
      "ĠGerman": 4475,
      "Ġbottom": 4476,
      "Ġcomprehen": 4477,
      "Ġdimensions": 4478,
      "SQL": 4479,
      "rand": 4480,
      "inate": 4481,
      "hest": 4482,
      "Ġcos": 4483,
      "Ġcame": 4484,
      "icks": 4485,
      "ulating": 4486,
      "Ġleaves": 4487,
      "ĠMed": 4488,
      "Ġmeal": 4489,
      "Ġwear": 4490,
      "ĠLook": 4491,
      "Ġcommer": 4492,
      "Ġspecified": 4493,
      "Ġparty": 4494,
      "Ġrap": 4495,
      "ĠChoose": 4496,
      "Ġlocations": 4497,
      "Ġcorresp": 4498,
      "Ġshell": 4499,
      "Ġready": 4500,
      "Ġcontributions": 4501,
      "Ġpresence": 4502,
      "Ġdefinition": 4503,
      "Another": 4504,
      "Ġatmosphere": 4505,
      "Ġcompletely": 4506,
      "\");": 4507,
      "box": 4508,
      "nel": 4509,
      "vest": 4510,
      "Ġcogn": 4511,
      "Ġmother": 4512,
      "rog": 4513,
      "Ġeating": 4514,
      "ided": 4515,
      "Ġpros": 4516,
      "ĠWestern": 4517,
      "illa": 4518,
      "Ġwealth": 4519,
      "ĠRun": 4520,
      "Ġmanner": 4521,
      "Ġoutline": 4522,
      "Ġobst": 4523,
      "Ġrain": 4524,
      "ĠChrist": 4525,
      "Ġsolid": 4526,
      "Ġbrand": 4527,
      "Ġparad": 4528,
      "Ġinvestment": 4529,
      "Ġlogic": 4530,
      "While": 4531,
      "Ġreliable": 4532,
      "allel": 4533,
      "Ġcapacity": 4534,
      "ĠAfric": 4535,
      "PS": 4536,
      "mers": 4537,
      "ĠÐ": 4538,
      "Ġast": 4539,
      "Ġpepper": 4540,
      "Ġfill": 4541,
      "Ġboot": 4542,
      "Ġdial": 4543,
      "icing": 4544,
      "omb": 4545,
      "Ġlabor": 4546,
      "sect": 4547,
      "aby": 4548,
      "Ġunits": 4549,
      "Ġtele": 4550,
      "Ġmanufact": 4551,
      "ĠURL": 4552,
      "Inst": 4553,
      "Ġattract": 4554,
      "Ġdefe": 4555,
      "Ġskin": 4556,
      "Ġideal": 4557,
      "Ġclassic": 4558,
      "Ġenvironments": 4559,
      "Ġinteractions": 4560,
      "Ġsociet": 4561,
      "Ġforest": 4562,
      "Ġdocumentation": 4563,
      "Ġconsumption": 4564,
      "Ġdynamic": 4565,
      "Ġmixture": 4566,
      "85": 4567,
      "DE": 4568,
      "ET": 4569,
      "Open": 4570,
      "View": 4571,
      "count": 4572,
      "Ġpand": 4573,
      "Ġdough": 4574,
      "uses": 4575,
      "Ġthick": 4576,
      "Ġrev": 4577,
      "etch": 4578,
      "elines": 4579,
      "Ġstories": 4580,
      "ĠSol": 4581,
      "Ġexternal": 4582,
      "pload": 4583,
      "ĠPort": 4584,
      "Ġrough": 4585,
      "ĠDon": 4586,
      "ellent": 4587,
      "Ġcoord": 4588,
      "Ġopening": 4589,
      "Ġlegs": 4590,
      "Ġestim": 4591,
      "Ġreleased": 4592,
      "roduction": 4593,
      "Ġfrequency": 4594,
      "ĠApple": 4595,
      "Ġguidance": 4596,
      "Ġangle": 4597,
      "ĠBritish": 4598,
      "ĠProvide": 4599,
      "90": 4600,
      "AP": 4601,
      "Now": 4602,
      "event": 4603,
      "sum": 4604,
      "ued": 4605,
      "rees": 4606,
      "rest": 4607,
      "Ġsou": 4608,
      "Ġmo": 4609,
      "Ġbound": 4610,
      "ĠTV": 4611,
      "istry": 4612,
      "odies": 4613,
      "Ġord": 4614,
      "ĠCar": 4615,
      "uman": 4616,
      "Ġdeeper": 4617,
      "Ġvib": 4618,
      "berry": 4619,
      "Ġtransition": 4620,
      "Ġcurve": 4621,
      "Ġchess": 4622,
      "Ġkeyword": 4623,
      "Ġconstruct": 4624,
      "Ġfoods": 4625,
      "Ġswe": 4626,
      "Ġthoughts": 4627,
      "iveness": 4628,
      "Ġocc": 4629,
      "Ġtrees": 4630,
      "Ġlandsc": 4631,
      "Ġjobs": 4632,
      "Ġminimum": 4633,
      "Ġfruit": 4634,
      "Ġpurchase": 4635,
      "Ġbeautiful": 4636,
      "Ġneurons": 4637,
      "Ġfundamental": 4638,
      "Ġhypot": 4639,
      "IGHT": 4640,
      "Ġrepository": 4641,
      "');": 4642,
      "Ass": 4643,
      "From": 4644,
      "He": 4645,
      "Line": 4646,
      "zer": 4647,
      "Ġbrief": 4648,
      "Ġdeploy": 4649,
      "Ġvill": 4650,
      "Ġsuff": 4651,
      "Ġsea": 4652,
      "Ġshared": 4653,
      "ocity": 4654,
      "ĠEU": 4655,
      "allow": 4656,
      "ĠFrom": 4657,
      "Ġcompar": 4658,
      "Ġsignal": 4659,
      "Ġparagraph": 4660,
      "2023": 4661,
      "Ġtook": 4662,
      "ync": 4663,
      "Ġhimself": 4664,
      "Ġprotection": 4665,
      "Ġharmful": 4666,
      "Ġheavy": 4667,
      "password": 4668,
      "Ġmenu": 4669,
      "Ġtutorial": 4670,
      "TT": 4671,
      "bles": 4672,
      "code": 4673,
      "more": 4674,
      "pat": 4675,
      "pack": 4676,
      "rm": 4677,
      "ua": 4678,
      "Ġtru": 4679,
      "onent": 4680,
      "Ġcounter": 4681,
      "Ġpet": 4682,
      "ceed": 4683,
      "Ġproced": 4684,
      "ĠMax": 4685,
      "pping": 4686,
      "ĠDep": 4687,
      "Ġqual": 4688,
      "Ġacid": 4689,
      "Ġapplied": 4690,
      "Ġgets": 4691,
      "Ġreply": 4692,
      "Ġexpensive": 4693,
      "Ġdiscover": 4694,
      "ocket": 4695,
      "Ġlimits": 4696,
      "process": 4697,
      "Ġasked": 4698,
      "Ġdrink": 4699,
      "Ġrestaur": 4700,
      "ĠAmerica": 4701,
      "Ġslightly": 4702,
      "Chor": 4703,
      "Ġtrou": 4704,
      "Ġtouch": 4705,
      "Ġple": 4706,
      "icy": 4707,
      "Ġlov": 4708,
      "enty": 4709,
      "Ġreve": 4710,
      "eli": 4711,
      "ĠSm": 4712,
      "Ġcomment": 4713,
      "que": 4714,
      "ession": 4715,
      "Ġdecre": 4716,
      "abet": 4717,
      "Ġsex": 4718,
      "Ġmeat": 4719,
      "Ġdish": 4720,
      "Ġprices": 4721,
      "Ġpeace": 4722,
      "Ġexploring": 4723,
      "Ġdistinct": 4724,
      "Ġexpos": 4725,
      "Ġbehavi": 4726,
      "Ġphilosop": 4727,
      "Ġemotional": 4728,
      "Ġstrengths": 4729,
      "Ġcopyright": 4730,
      "Ġadventure": 4731,
      "eorge": 4732,
      "lam": 4733,
      "px": 4734,
      "rices": 4735,
      "Ġwild": 4736,
      "Ġmal": 4737,
      "Ġbread": 4738,
      "Ġbillion": 4739,
      "ĠAust": 4740,
      "Ġalt": 4741,
      "ills": 4742,
      "Ġunable": 4743,
      "Ġshown": 4744,
      "ĠEnd": 4745,
      "clus": 4746,
      "ags": 4747,
      "Ġspaces": 4748,
      "Ġleader": 4749,
      "Ġgrowing": 4750,
      "____": 4751,
      "ĠDoes": 4752,
      "Ġsongs": 4753,
      "Ġrecognition": 4754,
      "ĠInstall": 4755,
      "going": 4756,
      "Ġshapes": 4757,
      "Ġchannel": 4758,
      "Ġprioritize": 4759,
      "Chorus": 4760,
      "Cont": 4761,
      "Tr": 4762,
      "Text": 4763,
      "coh": 4764,
      "pow": 4765,
      "Ġ```": 4766,
      "eral": 4767,
      "Ġsav": 4768,
      "Ġoven": 4769,
      "Ġbra": 4770,
      "rol": 4771,
      "section": 4772,
      "Ġcoming": 4773,
      "ĠHi": 4774,
      "Ġleave": 4775,
      "Ġchain": 4776,
      "ĠMach": 4777,
      "ĠOur": 4778,
      "Ġhelped": 4779,
      "Ġclim": 4780,
      "api": 4781,
      "Ġspend": 4782,
      "conds": 4783,
      "Ġdeveloper": 4784,
      "othing": 4785,
      "Ġregions": 4786,
      "Ġmedic": 4787,
      "ĠUnion": 4788,
      "Ġdiscovered": 4789,
      "String": 4790,
      "ĠComput": 4791,
      "being": 4792,
      "Ġreceived": 4793,
      "Ġprimarily": 4794,
      "Ġperspectives": 4795,
      "ĠDisc": 4796,
      "hetic": 4797,
      ")^": 4798,
      "CE": 4799,
      "HE": 4800,
      "[\"": 4801,
      "uzz": 4802,
      "include": 4803,
      "orous": 4804,
      "esh": 4805,
      "Ġmill": 4806,
      "cean": 4807,
      "sem": 4808,
      "ĠCo": 4809,
      "rive": 4810,
      "ĠDuring": 4811,
      "Ġdoor": 4812,
      "ards": 4813,
      "ĠNot": 4814,
      "Ġtrig": 4815,
      "Ġinterf": 4816,
      "ought": 4817,
      "Ġsaw": 4818,
      "Ġclassical": 4819,
      "token": 4820,
      "scale": 4821,
      "Ġtrade": 4822,
      "ashing": 4823,
      "Ġcareer": 4824,
      "Ġblockchain": 4825,
      "Ġefficiently": 4826,
      "Ġmotion": 4827,
      "Ġsubjective": 4828,
      "Ġautomatically": 4829,
      "frac": 4830,
      "Ġsustainable": 4831,
      "cohol": 4832,
      "Ad": 4833,
      "SV": 4834,
      "la": 4835,
      "note": 4836,
      "ris": 4837,
      "sub": 4838,
      "title": 4839,
      "your": 4840,
      "year": 4841,
      "Ġtab": 4842,
      "Ġtall": 4843,
      "itution": 4844,
      "Ġwave": 4845,
      "Ġox": 4846,
      "Ġforces": 4847,
      "ĠApp": 4848,
      "Ġvoc": 4849,
      "Ġheard": 4850,
      "ptions": 4851,
      "Ġnoting": 4852,
      "Ġabst": 4853,
      "ĠLL": 4854,
      "ĠOff": 4855,
      "Ġbutter": 4856,
      "Ġsoil": 4857,
      "Ġassign": 4858,
      "Ġincred": 4859,
      "....": 4860,
      "onday": 4861,
      "Ġpatient": 4862,
      "ĠReact": 4863,
      "Ġreduced": 4864,
      "Ġprinting": 4865,
      "Ġoptimize": 4866,
      "Ġoptimization": 4867,
      "ĠInstead": 4868,
      "Ġutil": 4869,
      "Ġinternational": 4870,
      "ĠCalcul": 4871,
      "Ġbirds": 4872,
      "Ġbowl": 4873,
      "likely": 4874,
      "Finally": 4875,
      "Or": 4876,
      "gre": 4877,
      "ugin": 4878,
      "init": 4879,
      "Ġwaves": 4880,
      "Ġfant": 4881,
      "Ġdensity": 4882,
      "change": 4883,
      "Ġonto": 4884,
      "ĠAct": 4885,
      "advant": 4886,
      "Ġhero": 4887,
      "ĠWould": 4888,
      "ĠPar": 4889,
      "ĠPower": 4890,
      "Ġsharing": 4891,
      "ĠRem": 4892,
      "Ġcred": 4893,
      "ressive": 4894,
      "Ġovercome": 4895,
      "Ġpersonality": 4896,
      "Ġexpression": 4897,
      "Ġseeking": 4898,
      "onding": 4899,
      "Ġediting": 4900,
      "Ġhyper": 4901,
      "\":\"": 4902,
      "Ġweights": 4903,
      "Ġstandards": 4904,
      "Ġefforts": 4905,
      "Ġbecoming": 4906,
      "Ġcitiz": 4907,
      "200": 4908,
      "Once": 4909,
      "Un": 4910,
      "da": 4911,
      "gy": 4912,
      "ha": 4913,
      "uis": 4914,
      "atur": 4915,
      "Ġcars": 4916,
      "itate": 4917,
      "Ġpin": 4918,
      "Ġfr": 4919,
      "Ġtown": 4920,
      "Ġhon": 4921,
      "raction": 4922,
      "umin": 4923,
      "Ġvir": 4924,
      "rier": 4925,
      "ests": 4926,
      "osis": 4927,
      "ĠMag": 4928,
      "ryst": 4929,
      "Ġincluded": 4930,
      "Ġgenerating": 4931,
      "Ġassume": 4932,
      "Ġmaintenance": 4933,
      "Ġapproaches": 4934,
      "Ġmetal": 4935,
      "Ġargue": 4936,
      "Ġtrip": 4937,
      "Ġsummar": 4938,
      "Ġcompetition": 4939,
      "Ġdegree": 4940,
      "ocolate": 4941,
      "ĠTwitter": 4942,
      "Ġreligious": 4943,
      "ĠLearning": 4944,
      "Ġresearchers": 4945,
      "Ġcommercial": 4946,
      "Id": 4947,
      "ares": 4948,
      "aign": 4949,
      "lines": 4950,
      "making": 4951,
      "ret": 4952,
      "Ġfarm": 4953,
      "Ġburn": 4954,
      "Ġbinary": 4955,
      "Ġincom": 4956,
      "using": 4957,
      "unc": 4958,
      "Ġcand": 4959,
      "iration": 4960,
      "ured": 4961,
      "Ġunlikely": 4962,
      "ĠRep": 4963,
      "anging": 4964,
      "Ġwilling": 4965,
      "Ġhash": 4966,
      "Ġjo": 4967,
      "ĠUb": 4968,
      "ĠInter": 4969,
      "Ġoverview": 4970,
      "anguage": 4971,
      "efore": 4972,
      "Ġgoods": 4973,
      "Ġremote": 4974,
      "Ġ40": 4975,
      "inese": 4976,
      "Ġlights": 4977,
      "ocker": 4978,
      "Ġbreed": 4979,
      "Ġvegan": 4980,
      "Ġfoundation": 4981,
      "Ġaircraft": 4982,
      "Ġsuggests": 4983,
      "Ġswitch": 4984,
      "Ġdriving": 4985,
      "Ġtemperatures": 4986,
      "Ġbrown": 4987,
      "Ġestablished": 4988,
      "Ġdistributed": 4989,
      "forcement": 4990,
      "izza": 4991,
      "affeine": 4992,
      "DO": 4993,
      "Let": 4994,
      "RI": 4995,
      "yd": 4996,
      "Ġiron": 4997,
      "Ġcro": 4998,
      "Ġpen": 4999,
      "Ġborn": 5000,
      "icles": 5001,
      "Ġstack": 5002,
      "ĠAlex": 5003,
      "ĠServ": 5004,
      "ĠHar": 5005,
      "osen": 5006,
      "ĠMin": 5007,
      "ĠMer": 5008,
      "ĠOut": 5009,
      "ĠOther": 5010,
      "Ġsyn": 5011,
      "Ġapps": 5012,
      "Ġprime": 5013,
      "Ġplays": 5014,
      "Ġformal": 5015,
      "Ġinsights": 5016,
      "Ġconsidering": 5017,
      "Ġimprovement": 5018,
      "Ġstream": 5019,
      "Ġtests": 5020,
      "###": 5021,
      "Ġimplementing": 5022,
      "ĠArt": 5023,
      "ategory": 5024,
      "Ġmagical": 5025,
      "Ġmaintaining": 5026,
      "Ġesc": 5027,
      "Ġcircle": 5028,
      "Ġrecognize": 5029,
      "Ġphrase": 5030,
      "Ġnuclear": 5031,
      "Ġfreedom": 5032,
      "Ġcognitive": 5033,
      "Ultimately": 5034,
      "den": 5035,
      "lin": 5036,
      "po": 5037,
      "Ġ__": 5038,
      "ingu": 5039,
      "array": 5040,
      "roy": 5041,
      "Ġlived": 5042,
      "ĠTell": 5043,
      "Ġdeal": 5044,
      "Ġvia": 5045,
      "output": 5046,
      "ĠGra": 5047,
      "Ġadult": 5048,
      "ansion": 5049,
      "Ġworkout": 5050,
      "Ġjustice": 5051,
      "ancing": 5052,
      "oyal": 5053,
      "Ġ[]": 5054,
      "Ġinputs": 5055,
      "Ġfinally": 5056,
      "Ġparallel": 5057,
      "ossible": 5058,
      "Ġachieved": 5059,
      "Ġcris": 5060,
      "Ġinteger": 5061,
      "Ġorigin": 5062,
      "Ġdescribed": 5063,
      "Ġglad": 5064,
      "ĠEmpire": 5065,
      "Ġvalidation": 5066,
      "Ġinspired": 5067,
      "Ġsimpler": 5068,
      "Ġflexible": 5069,
      "Ġhoriz": 5070,
      "Ġrapid": 5071,
      "Col": 5072,
      "db": 5073,
      "local": 5074,
      "yl": 5075,
      "Ġtherm": 5076,
      "Ġanime": 5077,
      "Ġfict": 5078,
      "Ġmid": 5079,
      "icians": 5080,
      "uster": 5081,
      "root": 5082,
      "Ġgard": 5083,
      "unning": 5084,
      "Ġprop": 5085,
      "racy": 5086,
      "ĠSk": 5087,
      "ada": 5088,
      "Ġplugin": 5089,
      "Ġdesire": 5090,
      "ĠJS": 5091,
      "encing": 5092,
      "Ġoffice": 5093,
      "Ġstarts": 5094,
      "Ġentertain": 5095,
      "ĠUni": 5096,
      "ĠRevolution": 5097,
      "Ġintegers": 5098,
      "Ġviews": 5099,
      "====": 5100,
      "Ġarticle": 5101,
      "Ġvelocity": 5102,
      "Ġlaptop": 5103,
      "65": 5104,
      "Can": 5105,
      "Create": 5106,
      "Sc": 5107,
      "UI": 5108,
      "ding": 5109,
      "function": 5110,
      "sk": 5111,
      "ĠðŁ": 5112,
      "Ġcm": 5113,
      "Ġcou": 5114,
      "Ġalcohol": 5115,
      "plays": 5116,
      "ĠHer": 5117,
      "ĠWill": 5118,
      "Ġuns": 5119,
      "ĠBat": 5120,
      "ĠRet": 5121,
      "Ġcreativity": 5122,
      "Ġfear": 5123,
      "Ġmanager": 5124,
      "Ġjoke": 5125,
      "enses": 5126,
      "Ġdesk": 5127,
      "Ġpopularity": 5128,
      "Ġincome": 5129,
      "Ġolder": 5130,
      "Ġspecialized": 5131,
      "Ġhighest": 5132,
      "Ġinternal": 5133,
      "Ġdegrees": 5134,
      "Ġderiv": 5135,
      "Ġinjury": 5136,
      "Ġretrieve": 5137,
      "LL": 5138,
      "bell": 5139,
      "car": 5140,
      "cast": 5141,
      "mark": 5142,
      "person": 5143,
      "ql": 5144,
      "writ": 5145,
      "herent": 5146,
      "erse": 5147,
      "Ġsection": 5148,
      "ament": 5149,
      "ĠWhere": 5150,
      "ĠMart": 5151,
      "Ġshift": 5152,
      "ĠDi": 5153,
      "formation": 5154,
      "ief": 5155,
      "Ġ24": 5156,
      "Ġjump": 5157,
      "Ġservers": 5158,
      "Ġsettle": 5159,
      "Ġassess": 5160,
      "Ġfollowed": 5161,
      "Ġmatrix": 5162,
      "Ġengines": 5163,
      "Ġoutputs": 5164,
      "Ġafford": 5165,
      "Ġinteractive": 5166,
      "Ġappears": 5167,
      "Ġupdates": 5168,
      "Ġbeginning": 5169,
      "Ġmiles": 5170,
      "AION": 5171,
      "Ġfasting": 5172,
      "ĠScience": 5173,
      "Ġpoor": 5174,
      "Ġobserv": 5175,
      "Ġlifest": 5176,
      "Ġelectricity": 5177,
      "Ġmonths": 5178,
      "Ġenemies": 5179,
      "Ġcampaign": 5180,
      "Ġaccompl": 5181,
      "Ġtruly": 5182,
      "ĠUbuntu": 5183,
      "frame": 5184,
      "press": 5185,
      "uit": 5186,
      "Ġagg": 5187,
      "inating": 5188,
      "Ġandroid": 5189,
      "Ġbird": 5190,
      "Ġstability": 5191,
      "Ġconduct": 5192,
      "Ġleaving": 5193,
      "Ġchance": 5194,
      "ocur": 5195,
      "ĠElect": 5196,
      "ups": 5197,
      "Ġqueries": 5198,
      "Ġmodified": 5199,
      "ĠUnder": 5200,
      "Ġworked": 5201,
      "âĸĢ": 5202,
      "rought": 5203,
      "Ġsigns": 5204,
      "Ġpotat": 5205,
      "Ġvectors": 5206,
      "Ġstret": 5207,
      "Ġmagnet": 5208,
      "azi": 5209,
      "Ġdrum": 5210,
      "Ġcycle": 5211,
      "Ġabsol": 5212,
      "Ġupload": 5213,
      "Ġteaspoon": 5214,
      "Ġcomprehensive": 5215,
      "Get": 5216,
      "Pr": 5217,
      "Sh": 5218,
      "cor": 5219,
      "iers": 5220,
      "sm": 5221,
      "Ġign": 5222,
      "Ġtail": 5223,
      "inant": 5224,
      "inner": 5225,
      "reme": 5226,
      "Ġwire": 5227,
      "Ġdie": 5228,
      "ara": 5229,
      "ician": 5230,
      "Ġgiving": 5231,
      "ĠIN": 5232,
      "ĠTime": 5233,
      "Ġexists": 5234,
      "Ġchocolate": 5235,
      "ends": 5236,
      "ĠEd": 5237,
      "ĠDoc": 5238,
      "ĠBoth": 5239,
      "ĠGeorge": 5240,
      "client": 5241,
      "Ġkid": 5242,
      "ĠStar": 5243,
      "ishing": 5244,
      "Ġthanks": 5245,
      "():": 5246,
      "Ġrecip": 5247,
      "Ġplane": 5248,
      "serv": 5249,
      "Ġencourage": 5250,
      "Ġconcent": 5251,
      "Ġbusinesses": 5252,
      "Ġpoem": 5253,
      "Ġopportunity": 5254,
      "Ġabsor": 5255,
      "Ġfishing": 5256,
      "Ġappearance": 5257,
      "Ġmerge": 5258,
      "Ġnumerous": 5259,
      "label": 5260,
      "Ġstraight": 5261,
      "OO": 5262,
      "Reg": 5263,
      "SP": 5264,
      "lation": 5265,
      "mun": 5266,
      "ye": 5267,
      "Ġaid": 5268,
      "Ġsand": 5269,
      "Ġsplit": 5270,
      "Ġcoding": 5271,
      "Ġpy": 5272,
      "Ġdim": 5273,
      "Ġhom": 5274,
      "Ġnational": 5275,
      "igation": 5276,
      "ĠPart": 5277,
      "Ġplenty": 5278,
      "aching": 5279,
      "Ġmanaging": 5280,
      "Ġthank": 5281,
      "current": 5282,
      "Ġchanged": 5283,
      "Ġgreatly": 5284,
      "Ġcombat": 5285,
      "Ġgrand": 5286,
      "Ġprofession": 5287,
      "Ġbenefit": 5288,
      "Ġfrequently": 5289,
      "Ġhabit": 5290,
      "Ġcollaboration": 5291,
      "Ġlicense": 5292,
      "Ġexpertise": 5293,
      "Ġexposure": 5294,
      "UT": 5295,
      "equ": 5296,
      "fast": 5297,
      "free": 5298,
      "rs": 5299,
      "Ġic": 5300,
      "Ġcub": 5301,
      "Ġyellow": 5302,
      "eter": 5303,
      "stood": 5304,
      "Ġstage": 5305,
      "Ġconve": 5306,
      "Ġconvent": 5307,
      "abric": 5308,
      "Ġneut": 5309,
      "Ġmax": 5310,
      "Ġshoot": 5311,
      "ague": 5312,
      "Ġpositions": 5313,
      "rown": 5314,
      "Ġrepair": 5315,
      "Ġmatrices": 5316,
      "Ġfacts": 5317,
      "tty": 5318,
      "Ġextensive": 5319,
      "Ġaccel": 5320,
      "Ġconstra": 5321,
      "ĠAnother": 5322,
      "Ġversat": 5323,
      "Ġmoves": 5324,
      "Ġlayout": 5325,
      "eek": 5326,
      "aborate": 5327,
      "Ġfacing": 5328,
      "Ġsurvive": 5329,
      "Ġsurvival": 5330,
      "Ġemergency": 5331,
      "Ġenhance": 5332,
      "Ġabstract": 5333,
      "\"\"": 5334,
      "Do": 5335,
      "HP": 5336,
      "](": 5337,
      "ban": 5338,
      "cm": 5339,
      "cies": 5340,
      "Ð¾": 5341,
      "Ġer": 5342,
      "itches": 5343,
      "Ġpict": 5344,
      "Ġband": 5345,
      "Ġtow": 5346,
      "lean": 5347,
      "ĠII": 5348,
      "otes": 5349,
      "Ġongoing": 5350,
      "Ġiter": 5351,
      "Ġvan": 5352,
      "Ġrat": 5353,
      "Ġintended": 5354,
      "Ġcompil": 5355,
      "epth": 5356,
      "ffect": 5357,
      "ĠNetw": 5358,
      "Ġupgrad": 5359,
      "Ġspecify": 5360,
      "comes": 5361,
      "Ġcompute": 5362,
      "ĠChinese": 5363,
      "Ġsolving": 5364,
      "Ġequival": 5365,
      "ecause": 5366,
      "Ġfamiliar": 5367,
      "Ġcombined": 5368,
      "Ġgrid": 5369,
      "Ġessay": 5370,
      "Ġfulf": 5371,
      "Ġprobably": 5372,
      "Ġlabel": 5373,
      "Ġwait": 5374,
      "Ġinterpretation": 5375,
      "ĠRegular": 5376,
      "Ġfictional": 5377,
      "((": 5378,
      "CP": 5379,
      "bing": 5380,
      "dri": 5381,
      "iately": 5382,
      "Ġtone": 5383,
      "real": 5384,
      "erver": 5385,
      "Ġsizes": 5386,
      "Ġdwar": 5387,
      "Ġhi": 5388,
      "Ġreput": 5389,
      "eterm": 5390,
      "Ġgalax": 5391,
      "stream": 5392,
      "ĠSouth": 5393,
      "Ġexcess": 5394,
      "Ġalone": 5395,
      "Ġalmost": 5396,
      "ections": 5397,
      "ĠMonday": 5398,
      "Ġseconds": 5399,
      "ĠRE": 5400,
      "Ġimpossible": 5401,
      "Ġempt": 5402,
      "Ġoffering": 5403,
      "Ġagent": 5404,
      "Ġleads": 5405,
      "Ġartists": 5406,
      "Ġmeters": 5407,
      "Ġkeeping": 5408,
      "Ġmovements": 5409,
      "Ġcharacteristics": 5410,
      "prise": 5411,
      "Ġstores": 5412,
      "Ġcriteria": 5413,
      "Ġaccurately": 5414,
      "opping": 5415,
      "Ġelectronic": 5416,
      "aught": 5417,
      "holders": 5418,
      "Ġlifestyle": 5419,
      "SA": 5420,
      "direct": 5421,
      "iant": 5422,
      "zy": 5423,
      "Ġaer": 5424,
      "Ġcab": 5425,
      "Ġcert": 5426,
      "anu": 5427,
      "Ġwalking": 5428,
      "Ġfly": 5429,
      "Ġmouth": 5430,
      "Ġbact": 5431,
      "Ġproport": 5432,
      "ategor": 5433,
      "plan": 5434,
      "ĠHigh": 5435,
      "ĠWell": 5436,
      "ĠMac": 5437,
      "Ġsecret": 5438,
      "Ġnotation": 5439,
      "ĠFin": 5440,
      "ĠGame": 5441,
      "Ġwaste": 5442,
      "Ġsimulation": 5443,
      "Ġworkers": 5444,
      "Ġstrange": 5445,
      "Ġsold": 5446,
      "Ġlightweight": 5447,
      "ttp": 5448,
      "Ġgrad": 5449,
      "ĠAndroid": 5450,
      "Ġmassive": 5451,
      "Ġbalanced": 5452,
      "ERT": 5453,
      "Ġawareness": 5454,
      "ygen": 5455,
      "Ġbirth": 5456,
      "Ġterrain": 5457,
      "Ġcarefully": 5458,
      "Ġpaddle": 5459,
      "Ġgrammar": 5460,
      "Ġsupplies": 5461,
      "Ġdiagn": 5462,
      "Ġletters": 5463,
      "Ġappreciate": 5464,
      "Ġcircumst": 5465,
      "ĠAustral": 5466,
      "Bat": 5467,
      "gu": 5468,
      "hand": 5469,
      "haps": 5470,
      "kens": 5471,
      "parent": 5472,
      "sort": 5473,
      "tun": 5474,
      "Ġtact": 5475,
      "inf": 5476,
      "Ġson": 5477,
      "Ġcats": 5478,
      "orter": 5479,
      "itors": 5480,
      "arter": 5481,
      "Ġlinks": 5482,
      "Ġisn": 5483,
      "ott": 5484,
      "ĠAg": 5485,
      "Ġvict": 5486,
      "open": 5487,
      "aint": 5488,
      "ĠDespite": 5489,
      "Ġliqu": 5490,
      "agon": 5491,
      "index": 5492,
      "Ġtherefore": 5493,
      "pha": 5494,
      "Inter": 5495,
      "Ġassets": 5496,
      "Ġextrem": 5497,
      "Ġharder": 5498,
      "Ġmonad": 5499,
      "Ġimplemented": 5500,
      "Ġinfluential": 5501,
      "append": 5502,
      "ĠEngine": 5503,
      "ĠPlay": 5504,
      "Ġmorning": 5505,
      "ĠBlack": 5506,
      "Ġthreads": 5507,
      "Ġfixed": 5508,
      "fitting": 5509,
      "ĠFrance": 5510,
      "Ġmobile": 5511,
      "Ġimmediately": 5512,
      "entralized": 5513,
      "->": 5514,
      "No": 5515,
      "acles": 5516,
      "ios": 5517,
      "link": 5518,
      "no": 5519,
      "ãĤ": 5520,
      "Ġil": 5521,
      "Ġtk": 5522,
      "atus": 5523,
      "Ġcaffeine": 5524,
      "Ġisol": 5525,
      "Ġstick": 5526,
      "Ġorbit": 5527,
      "ĠSpe": 5528,
      "ĠHave": 5529,
      "android": 5530,
      "Ġchosen": 5531,
      "ĠFind": 5532,
      "ĠLat": 5533,
      "ĠYork": 5534,
      "Ġprepare": 5535,
      "Ġsetup": 5536,
      "Ġindicate": 5537,
      "âĸĦ": 5538,
      "Ġexploration": 5539,
      "Ġexperts": 5540,
      "standing": 5541,
      "Ġtyping": 5542,
      "Ġguess": 5543,
      "Ġequations": 5544,
      "example": 5545,
      "Ġcontroll": 5546,
      "Ġpersonalized": 5547,
      "Ġteams": 5548,
      "azon": 5549,
      "Ġcontributed": 5550,
      "Ġpasta": 5551,
      "Ġbroken": 5552,
      "Ġfloor": 5553,
      "Ġemployees": 5554,
      "Ġearthqu": 5555,
      "Ġevolved": 5556,
      "Image": 5557,
      "Ġauthentication": 5558,
      "Ġindependent": 5559,
      "Ġweapons": 5560,
      "Ġsatisf": 5561,
      "Ġparadox": 5562,
      "Ġcircumstances": 5563,
      "Ġilleg": 5564,
      "75": 5565,
      "Be": 5566,
      "Is": 5567,
      "She": 5568,
      "iance": 5569,
      "such": 5570,
      "ĠÎ": 5571,
      "inations": 5572,
      "Ġcop": 5573,
      "Ġwoman": 5574,
      "Ġwomen": 5575,
      "Ġbank": 5576,
      "Ġrevolution": 5577,
      "Ġnice": 5578,
      "ĠId": 5579,
      "start": 5580,
      "otic": 5581,
      "ifier": 5582,
      "Ġusern": 5583,
      "ĠCent": 5584,
      "ĠPractice": 5585,
      "Ġrates": 5586,
      "resident": 5587,
      "Ġjud": 5588,
      "crete": 5589,
      "Ġfolder": 5590,
      "Ġexperim": 5591,
      "ĠChina": 5592,
      "Ġpossibility": 5593,
      "Ġdecide": 5594,
      "Ġrealistic": 5595,
      "Ġcontrovers": 5596,
      "Ġ60": 5597,
      "Ġpassion": 5598,
      "Ġstatements": 5599,
      "Ġswim": 5600,
      "Ġbasis": 5601,
      "Ġbiological": 5602,
      "Ġdelicious": 5603,
      "Ġsentient": 5604,
      "Ġmorality": 5605,
      "Ġexecute": 5606,
      "Ġdebate": 5607,
      "Ġattempts": 5608,
      "Ġsuccessfully": 5609,
      "Ġtranslate": 5610,
      "Ġaccepted": 5611,
      "ygame": 5612,
      "ĠâĪ": 5613,
      "Ġimagine": 5614,
      "ĠResearch": 5615,
      "Ġdiseases": 5616,
      "Ġevaluate": 5617,
      "Ġultimately": 5618,
      "speed": 5619,
      "Ġhabits": 5620,
      "Ġcryptocur": 5621,
      "rogen": 5622,
      "Ġsweet": 5623,
      "powered": 5624,
      "ĠJSON": 5625,
      "33": 5626,
      "Cons": 5627,
      "FT": 5628,
      "GB": 5629,
      "Ph": 5630,
      "Time": 5631,
      "uber": 5632,
      "âĻ": 5633,
      "Ġtight": 5634,
      "Ġcryst": 5635,
      "Ġanx": 5636,
      "Ġpizza": 5637,
      "arp": 5638,
      "Ġnodes": 5639,
      "uts": 5640,
      "Ġcanvas": 5641,
      "oder": 5642,
      "urt": 5643,
      "ĠPHP": 5644,
      "osite": 5645,
      "ĠMain": 5646,
      "Ġunex": 5647,
      "Ġsevere": 5648,
      "Ġmeets": 5649,
      "Ġplans": 5650,
      "Ġplastic": 5651,
      "Ġclock": 5652,
      "Ġroots": 5653,
      "Ġdisadvant": 5654,
      "Ġdesp": 5655,
      "Ġproduced": 5656,
      "ancy": 5657,
      "pected": 5658,
      "Ġtexture": 5659,
      "Ġperformed": 5660,
      "Ġplanets": 5661,
      "That": 5662,
      "ernel": 5663,
      "Ġdiscrim": 5664,
      "Ġhappens": 5665,
      "Ġwidesp": 5666,
      "ĠArch": 5667,
      "Ġportal": 5668,
      "Ġstronger": 5669,
      "Ġnecessarily": 5670,
      "Ġpackages": 5671,
      "Ġcyber": 5672,
      "Ġminimize": 5673,
      "Ġmeeting": 5674,
      "Ġreviews": 5675,
      "Ġcloser": 5676,
      "imensional": 5677,
      "Ġincreasingly": 5678,
      "Ġinstrument": 5679,
      "Ġwidespread": 5680,
      "\"]": 5681,
      "UR": 5682,
      "men": 5683,
      "ying": 5684,
      "Ġtitle": 5685,
      "Ġcities": 5686,
      "itutions": 5687,
      "Ġpure": 5688,
      "lete": 5689,
      "arant": 5690,
      "ros": 5691,
      "Ġthus": 5692,
      "Ġbeans": 5693,
      "ĠAN": 5694,
      "ĠSub": 5695,
      "Ġvoid": 5696,
      "ĠBefore": 5697,
      "Ġadvert": 5698,
      "ĠLanguage": 5699,
      "Ġhelping": 5700,
      "Ġjoy": 5701,
      "Ġmyster": 5702,
      "Ġconsists": 5703,
      "Ġserved": 5704,
      "Ġcolon": 5705,
      "Ġago": 5706,
      "egin": 5707,
      "Ġtypical": 5708,
      "Ġtemplate": 5709,
      "Ġbreaking": 5710,
      "Ġprofit": 5711,
      "Ġinstallation": 5712,
      "Ġintelligent": 5713,
      "ĠPlace": 5714,
      "Ġdocuments": 5715,
      "Ġstudying": 5716,
      "Ġaudio": 5717,
      "ĠClick": 5718,
      "Ġexcellent": 5719,
      "Ġhappened": 5720,
      "Ġdestroy": 5721,
      "fraid": 5722,
      "elebr": 5723,
      "Ġsurrounding": 5724,
      "Ġchoices": 5725,
      "Ġopinions": 5726,
      "Ġphenomenon": 5727,
      "Ġcorresponding": 5728,
      "Ġtutorials": 5729,
      "'},": 5730,
      "01": 5731,
      "AB": 5732,
      "AC": 5733,
      "OP": 5734,
      "Set": 5735,
      "rt": 5736,
      "tical": 5737,
      "with": 5738,
      "Ã¤": 5739,
      "Ġ!": 5740,
      "Ġtit": 5741,
      "item": 5742,
      "Ġwings": 5743,
      "Ġtoken": 5744,
      "Ġdro": 5745,
      "omial": 5746,
      "ĠTuring": 5747,
      "idate": 5748,
      "unately": 5749,
      "Ġstim": 5750,
      "Ġcancer": 5751,
      "ĠAR": 5752,
      "Ġcomed": 5753,
      "ĠHol": 5754,
      "Ġround": 5755,
      "ĠOb": 5756,
      "Ġclosed": 5757,
      "ĠUltimately": 5758,
      "0000": 5759,
      "creen": 5760,
      "ĠKore": 5761,
      "Ġtransact": 5762,
      "Ġflav": 5763,
      "Ġprovider": 5764,
      "Ġdiam": 5765,
      "commod": 5766,
      "ĠProgram": 5767,
      "Ġtempor": 5768,
      "Ġreader": 5769,
      "Ġinvesting": 5770,
      "Ġinvestors": 5771,
      "Ġpaid": 5772,
      "Ġtried": 5773,
      "ameter": 5774,
      "Ġnutri": 5775,
      "Ġfruits": 5776,
      "Ġgarlic": 5777,
      "Ġrhyth": 5778,
      "Ġfemale": 5779,
      "First": 5780,
      "OT": 5781,
      "bash": 5782,
      "mut": 5783,
      "mber": 5784,
      "rc": 5785,
      "Ġafraid": 5786,
      "Ġann": 5787,
      "itial": 5788,
      "Ġpig": 5789,
      "Ġpun": 5790,
      "Ġfur": 5791,
      "ales": 5792,
      "Ġdu": 5793,
      "Ġdiction": 5794,
      "icated": 5795,
      "Ġye": 5796,
      "ĠTest": 5797,
      "idents": 5798,
      "ĠSch": 5799,
      "ĠCre": 5800,
      "orty": 5801,
      "Ġshorter": 5802,
      "Ġworry": 5803,
      "ormal": 5804,
      "ĠRob": 5805,
      "Ġquiet": 5806,
      "ĠNode": 5807,
      "Ġoutcomes": 5808,
      "Ġdisplays": 5809,
      "ensions": 5810,
      "ressed": 5811,
      "Ġtechnological": 5812,
      "anches": 5813,
      "Ġhandling": 5814,
      "Ġsheet": 5815,
      "Ġconnections": 5816,
      "Ġimpacts": 5817,
      "error": 5818,
      "Ġconcise": 5819,
      "Ġmagn": 5820,
      "Ġpainting": 5821,
      "Ġtriangle": 5822,
      "Ġradio": 5823,
      "Ġparameter": 5824,
      "--------------------------------": 5825,
      "Ġconstantly": 5826,
      "Ġbeauty": 5827,
      "ĠDesign": 5828,
      "Ġmanipulate": 5829,
      "Ġfinger": 5830,
      "Ġconstraints": 5831,
      "Ġequivalent": 5832,
      "Ġempty": 5833,
      "Ġextremely": 5834,
      "48": 5835,
      "Event": 5836,
      "Out": 5837,
      "];": 5838,
      "cal": 5839,
      "message": 5840,
      "page": 5841,
      "zen": 5842,
      "Ġten": 5843,
      "Ġsem": 5844,
      "Ġsell": 5845,
      "orrow": 5846,
      "orough": 5847,
      "ening": 5848,
      "alysis": 5849,
      "icit": 5850,
      "eting": 5851,
      "antum": 5852,
      "Ġcomments": 5853,
      "operation": 5854,
      "ĠRo": 5855,
      "Ġresistance": 5856,
      "Ġ22": 5857,
      "Ġoutcome": 5858,
      "Ġevolution": 5859,
      "ĠStep": 5860,
      "Ġpersist": 5861,
      "().": 5862,
      "Ġraw": 5863,
      "Ġmatches": 5864,
      "cules": 5865,
      "Ġparticle": 5866,
      "Ġwriter": 5867,
      "ĠConst": 5868,
      "Ġveh": 5869,
      "Ġcenturies": 5870,
      "Ġavailability": 5871,
      "Ġencounter": 5872,
      "Ġschol": 5873,
      "Ġ:=": 5874,
      "Ġoccurs": 5875,
      "Ġmargin": 5876,
      "Ġregarding": 5877,
      "Ġcups": 5878,
      "Ġguidelines": 5879,
      "Ġillust": 5880,
      "Ġliterature": 5881,
      "Ġparents": 5882,
      "ĠJapanese": 5883,
      "ĠAvoid": 5884,
      "Ġelectrical": 5885,
      "ĠDiffusion": 5886,
      "ĠMachine": 5887,
      "Ġcouple": 5888,
      "28": 5889,
      "Base": 5890,
      "dimensional": 5891,
      "fol": 5892,
      "ka": 5893,
      "pared": 5894,
      "ydr": 5895,
      "Ġ...": 5896,
      "Ġcategor": 5897,
      "Ġpal": 5898,
      "Ġfasc": 5899,
      "Ġbaking": 5900,
      "Ġinsect": 5901,
      "Ġyes": 5902,
      "Ġlose": 5903,
      "Ġgave": 5904,
      "ithub": 5905,
      "orem": 5906,
      "roup": 5907,
      "Ġacqu": 5908,
      "Ġdiffer": 5909,
      "bert": 5910,
      "Ġpretty": 5911,
      "Ġadds": 5912,
      "Ġcomputational": 5913,
      "Ġowner": 5914,
      "Ġdecided": 5915,
      "cription": 5916,
      "Ġlaunch": 5917,
      "Ġvisible": 5918,
      "Ġconstruction": 5919,
      "Ġpursu": 5920,
      "Ġ199": 5921,
      "Ġprotocol": 5922,
      "erring": 5923,
      "Ġspeeds": 5924,
      "Ġprotected": 5925,
      "Ġsaying": 5926,
      "Ġmeaningful": 5927,
      "ĠImplement": 5928,
      "Ġglass": 5929,
      "Ġremaining": 5930,
      "Ġturned": 5931,
      "Ġroute": 5932,
      "Ġinterpreted": 5933,
      "number": 5934,
      "Ġantib": 5935,
      "Ġintroduced": 5936,
      "Ġpowder": 5937,
      "Ġcivilization": 5938,
      "Ġexplanations": 5939,
      "Ġdreams": 5940,
      "opped": 5941,
      "Ġmissing": 5942,
      "Ġlandscape": 5943,
      "67": 5944,
      "File": 5945,
      "efficient": 5946,
      "game": 5947,
      "gener": 5948,
      "length": 5949,
      "ship": 5950,
      "ugh": 5951,
      "works": 5952,
      "Ġrom": 5953,
      "Ġsnow": 5954,
      "Ġcoc": 5955,
      "Ġcrack": 5956,
      "Ġcategory": 5957,
      "Ġocean": 5958,
      "Ġtold": 5959,
      "Ġdance": 5960,
      "Ġthous": 5961,
      "Ġreplic": 5962,
      "ellect": 5963,
      "Ġproof": 5964,
      "ĠAb": 5965,
      "ĠAnt": 5966,
      "ĠSat": 5967,
      "peare": 5968,
      "Ġvs": 5969,
      "Ġvit": 5970,
      "osaur": 5971,
      "ĠGr": 5972,
      "Ġkids": 5973,
      "ĠLight": 5974,
      "ĠLED": 5975,
      "ĠNational": 5976,
      "acher": 5977,
      "Ġdishes": 5978,
      "Ġspot": 5979,
      "Ġstrict": 5980,
      "Ġdepart": 5981,
      "Ġdistract": 5982,
      "Ġguarant": 5983,
      "brid": 5984,
      "Ġversions": 5985,
      "ynomial": 5986,
      "notation": 5987,
      "Ġcrime": 5988,
      "Ġcourses": 5989,
      "fortunately": 5990,
      "lands": 5991,
      "Ġminimal": 5992,
      "Ġpredictions": 5993,
      "Ġobserved": 5994,
      "Ġphotos": 5995,
      "Ġtranslation": 5996,
      "Ġboost": 5997,
      "ridge": 5998,
      "Additionally": 5999,
      "Ġconflicts": 6000,
      "Ġencryption": 6001,
      "trained": 6002,
      "Ġhunting": 6003,
      "Ġscenario": 6004,
      "Ġrestrictions": 6005,
      "Ġuncertain": 6006,
      "Ġgradually": 6007,
      "Ġpandas": 6008,
      "Ġcomparison": 6009,
      "anuary": 6010,
      "After": 6011,
      "Ele": 6012,
      "ipl": 6013,
      "long": 6014,
      "och": 6015,
      "tes": 6016,
      "ÏĢ": 6017,
      "Ġahead": 6018,
      "ename": 6019,
      "Ġfer": 6020,
      "Ġfans": 6021,
      "Ġfather": 6022,
      "Ġmood": 6023,
      "Ġbub": 6024,
      "Ġbodies": 6025,
      "ica": 6026,
      "icism": 6027,
      "Ġthorough": 6028,
      "Ġyog": 6029,
      "Ġrely": 6030,
      "Ġgrain": 6031,
      "ĠAM": 6032,
      "Ġexchange": 6033,
      "Ġheld": 6034,
      "Ġsudd": 6035,
      "Ġru": 6036,
      "ĠMet": 6037,
      "ĠMost": 6038,
      "ĠMarch": 6039,
      "udd": 6040,
      "ĠFace": 6041,
      "ĠRome": 6042,
      "ĠLarge": 6043,
      "Ġtech": 6044,
      "Ġscr": 6045,
      "ĠNum": 6046,
      "Ġspells": 6047,
      "ĠString": 6048,
      "Ġphase": 6049,
      "())": 6050,
      "Ġfinds": 6051,
      "Ġraised": 6052,
      "Ġlisted": 6053,
      "Ġpoly": 6054,
      "Ġperforming": 6055,
      "raining": 6056,
      "Ġinsurance": 6057,
      "Ġentry": 6058,
      "Ġmuscles": 6059,
      "Ġcontaining": 6060,
      "akespeare": 6061,
      "Ġcalculated": 6062,
      "Ġintegration": 6063,
      "ointer": 6064,
      "Ġexperiencing": 6065,
      "Ġmechanical": 6066,
      "Ġmechanisms": 6067,
      "Ġforeign": 6068,
      "color": 6069,
      "Ġregardless": 6070,
      "Ġinnovative": 6071,
      "ÂłÂłÂłÂłÂłÂłÂłÂł": 6072,
      "Ġlistening": 6073,
      "Ġenemy": 6074,
      "plotlib": 6075,
      "Ġweaknesses": 6076,
      "Ġpublished": 6077,
      "Ġresolve": 6078,
      "Ġobstacles": 6079,
      "Ġastron": 6080,
      "elihood": 6081,
      "Ġfantasy": 6082,
      "ĠUniversity": 6083,
      "';": 6084,
      "fl": 6085,
      "iety": 6086,
      "whel": 6087,
      "requ": 6088,
      "Ġcelebr": 6089,
      "Ġpull": 6090,
      "Ġpygame": 6091,
      "Ġdru": 6092,
      "asazi": 6093,
      "Ġnet": 6094,
      "ĠAtt": 6095,
      "url": 6096,
      "Ġhes": 6097,
      "ĠPri": 6098,
      "oses": 6099,
      "Ġshall": 6100,
      "anges": 6101,
      "Ġrows": 6102,
      "Ġcouldn": 6103,
      "Ġoverl": 6104,
      "Ġserves": 6105,
      "Ġemb": 6106,
      "Ġinstitutions": 6107,
      "ĠChar": 6108,
      "Ġpolynomial": 6109,
      "Ġobjective": 6110,
      "Ġlighting": 6111,
      "Ġclassification": 6112,
      "Ġbrid": 6113,
      "Ġbranches": 6114,
      "Ġmultip": 6115,
      "ĠUnity": 6116,
      "Ġ},": 6117,
      "ĠRead": 6118,
      "ĠAnasazi": 6119,
      "Ġtrading": 6120,
      "Ġmarketing": 6121,
      "Ġbeneficial": 6122,
      "ĠPlan": 6123,
      "Ġdetection": 6124,
      "âķ¢": 6125,
      "Ġrolls": 6126,
      "Ġfailure": 6127,
      "Ġpromoting": 6128,
      "Ġtheorem": 6129,
      "Ġmolecules": 6130,
      "Ġprofessionals": 6131,
      "Ġsudden": 6132,
      "At": 6133,
      "PG": 6134,
      "PL": 6135,
      "Qu": 6136,
      "SI": 6137,
      "ev": 6138,
      "rary": 6139,
      "window": 6140,
      "ĠÂ": 6141,
      "Ġou": 6142,
      "ĨĴ": 6143,
      "Ġpuzz": 6144,
      "left": 6145,
      "Ġdf": 6146,
      "etary": 6147,
      "Ġgall": 6148,
      "ĠIP": 6149,
      "ĠTur": 6150,
      "antic": 6151,
      "ĠSil": 6152,
      "ighb": 6153,
      "Ġrig": 6154,
      "Ġshot": 6155,
      "ogram": 6156,
      "ella": 6157,
      "click": 6158,
      "ĠLeg": 6159,
      "Ġarmor": 6160,
      "Ġprepar": 6161,
      "Ġspell": 6162,
      "Ġrelative": 6163,
      "entials": 6164,
      "Ġrealized": 6165,
      "Ġeditor": 6166,
      "score": 6167,
      "Ġfocuses": 6168,
      "Ġdifficulty": 6169,
      "Ġprints": 6170,
      "ĠArray": 6171,
      "ucket": 6172,
      "ĠShakespeare": 6173,
      "ometers": 6174,
      "Ġmechanism": 6175,
      "Ġaffected": 6176,
      "Ġcalls": 6177,
      "Ġindustries": 6178,
      "Ġindustrial": 6179,
      "Ġsorted": 6180,
      "Ġflowers": 6181,
      "Ġfitness": 6182,
      "Ġdestination": 6183,
      "Ġwonder": 6184,
      "minist": 6185,
      "controll": 6186,
      "Ġexecuted": 6187,
      "Ġdeliver": 6188,
      "ĠSuper": 6189,
      "ĠPeople": 6190,
      "ĠTechn": 6191,
      "Assistant": 6192,
      "Ġloved": 6193,
      "Ġaccomplish": 6194,
      "27": 6195,
      "89": 6196,
      "RO": 6197,
      "Socket": 6198,
      "Verse": 6199,
      "YPE": 6200,
      "fall": 6201,
      "gl": 6202,
      "house": 6203,
      "ln": 6204,
      "lier": 6205,
      "test": 6206,
      "});": 6207,
      "hether": 6208,
      "Ġcin": 6209,
      "Ġcake": 6210,
      "Ġcuis": 6211,
      "iter": 6212,
      "Ġwish": 6213,
      "Ġfiction": 6214,
      "Ġnose": 6215,
      "unge": 6216,
      "Ġstir": 6217,
      "Ġconven": 6218,
      "ĠAng": 6219,
      "ĠSorry": 6220,
      "izard": 6221,
      "ĠFocus": 6222,
      "ĠGraph": 6223,
      "Ġcontents": 6224,
      "Ġcontrad": 6225,
      "Ġscan": 6226,
      "blem": 6227,
      "ĠNone": 6228,
      "Ġju": 6229,
      "Ġaccommod": 6230,
      "Ġperce": 6231,
      "ĠJames": 6232,
      "Ġemissions": 6233,
      "Ġnumpy": 6234,
      "Ing": 6235,
      "ĠVR": 6236,
      "Ġbackup": 6237,
      "Ġ[âĻ": 6238,
      "Ġdesigns": 6239,
      "Ġdecentralized": 6240,
      "Ġoperator": 6241,
      "ginx": 6242,
      "State": 6243,
      "Ġcontrols": 6244,
      "Ġsignificantly": 6245,
      "Ġwider": 6246,
      "elligence": 6247,
      "Ġanimation": 6248,
      "Ġlogical": 6249,
      "ĠUSB": 6250,
      "ĠImpro": 6251,
      "ĠâĢĵ": 6252,
      "Ġreasoning": 6253,
      "Ġslowly": 6254,
      "Ġfigures": 6255,
      "Ġprinciple": 6256,
      "Ġopposite": 6257,
      "response": 6258,
      "Ġcooked": 6259,
      "Ġpsychology": 6260,
      "Ġreligion": 6261,
      "Ġincorporating": 6262,
      "ĠAmazon": 6263,
      "ĠMaybe": 6264,
      "Ġturning": 6265,
      "Ġtunnel": 6266,
      "Ġcompatible": 6267,
      "Ġtomatoes": 6268,
      "Ġtrends": 6269,
      "Ġoxygen": 6270,
      "Ġcrisis": 6271,
      "Ġbacteria": 6272,
      "Ġunexpected": 6273,
      "\"?": 6274,
      "Res": 6275,
      "hop": 6276,
      "join": 6277,
      "nal": 6278,
      "oop": 6279,
      "pace": 6280,
      "Ġtong": 6281,
      "inates": 6282,
      "onna": 6283,
      "itely": 6284,
      "itute": 6285,
      "Ġpul": 6286,
      "Ġmale": 6287,
      "Ġtox": 6288,
      "Ġdrop": 6289,
      "Ġhob": 6290,
      "Ġloyal": 6291,
      "Ġnative": 6292,
      "elon": 6293,
      "urd": 6294,
      "ĠWork": 6295,
      "rompt": 6296,
      "Ġliber": 6297,
      "Ġcream": 6298,
      "ĠOh": 6299,
      "ruption": 6300,
      "ĠJanuary": 6301,
      "Ġoverwhel": 6302,
      "Ġcalories": 6303,
      "Ġchest": 6304,
      "Ġownership": 6305,
      "redict": 6306,
      "Thank": 6307,
      "Ġfinish": 6308,
      "Ġconfusion": 6309,
      "Ġbreaks": 6310,
      "Ġcombine": 6311,
      "Ġrepresenting": 6312,
      "ĠEnc": 6313,
      "Ġsensitive": 6314,
      "Ġadapted": 6315,
      "Ġreactions": 6316,
      "Ġdatasets": 6317,
      "ATE": 6318,
      "ĠâĨĴ": 6319,
      "Ġstruggle": 6320,
      "Ġviolence": 6321,
      "itchen": 6322,
      "Ġscenarios": 6323,
      "Ġkingdom": 6324,
      "Ġillegal": 6325,
      "Ġanxiety": 6326,
      "87": 6327,
      "Keep": 6328,
      "Mod": 6329,
      "case": 6330,
      "live": 6331,
      "eras": 6332,
      "Ġsin": 6333,
      "Ġwis": 6334,
      "Ġpages": 6335,
      "Ġft": 6336,
      "Ġthr": 6337,
      "Ġgift": 6338,
      "anted": 6339,
      "Ġbeef": 6340,
      "olt": 6341,
      "ĠCSV": 6342,
      "Ġneck": 6343,
      "Ġneighb": 6344,
      "Ġchron": 6345,
      "ĠEconom": 6346,
      "Ġintellect": 6347,
      "ulture": 6348,
      "ĠInitial": 6349,
      "Ġspent": 6350,
      "Ġserving": 6351,
      "âĢĶ": 6352,
      "Ġemit": 6353,
      "Ġempire": 6354,
      "()`": 6355,
      "Ġpossibilities": 6356,
      "Ġsupported": 6357,
      "Ġsummer": 6358,
      "Ġhappiness": 6359,
      "Ġcustomize": 6360,
      "Ġtells": 6361,
      "position": 6362,
      "Ġexplores": 6363,
      "Ġexciting": 6364,
      "Exception": 6365,
      "Ġslower": 6366,
      "Ġfluid": 6367,
      "ĠContin": 6368,
      "Ġemphasizes": 6369,
      "Ġremoving": 6370,
      "Ġpadding": 6371,
      "Ġcollege": 6372,
      "Ġcitizens": 6373,
      "Ġpotatoes": 6374,
      "Ġstretch": 6375,
      "Ġcuisine": 6376,
      "''": 6377,
      "Che": 6378,
      "Since": 6379,
      "ca": 6380,
      "des": 6381,
      "distance": 6382,
      "eled": 6383,
      "rated": 6384,
      "td": 6385,
      "table": 6386,
      "vis": 6387,
      "var": 6388,
      "Ð°": 6389,
      "Ġ)": 6390,
      "rength": 6391,
      "erry": 6392,
      "Ġwinter": 6393,
      "Ġok": 6394,
      "Ġmir": 6395,
      "Ġthrow": 6396,
      "Ġhous": 6397,
      "Ġease": 6398,
      "Ġlon": 6399,
      "Ġreform": 6400,
      "Ġreven": 6401,
      "ĠIS": 6402,
      "istical": 6403,
      "under": 6404,
      "abul": 6405,
      "estion": 6406,
      "mental": 6407,
      "Ġrul": 6408,
      "Ġimper": 6409,
      "Ġ1000": 6410,
      "Ġadop": 6411,
      "ĠRAM": 6412,
      "Ġkernel": 6413,
      "Ġcompile": 6414,
      "ĠLim": 6415,
      "Ġ23": 6416,
      "Ġclub": 6417,
      "Ġclothing": 6418,
      "ĠNote": 6419,
      "jecture": 6420,
      "Ġspin": 6421,
      "loat": 6422,
      "âĢĵ": 6423,
      "Ġparties": 6424,
      "Ġexplicit": 6425,
      "oviet": 6426,
      "Ġcalm": 6427,
      "Ġobjectives": 6428,
      "Ġlaugh": 6429,
      "Ġelim": 6430,
      "Ġmarkets": 6431,
      "Ġsignificance": 6432,
      "Ġswitches": 6433,
      "ĠDev": 6434,
      "Ġencoura": 6435,
      "cribe": 6436,
      "Ġpolitics": 6437,
      "Ġearlier": 6438,
      "Ġgenre": 6439,
      "Ġgenetic": 6440,
      "ĠTrue": 6441,
      "Example": 6442,
      "dev": 6443,
      "Ġintroduce": 6444,
      "Ġdrawing": 6445,
      "while": 6446,
      "display": 6447,
      "ĠRussia": 6448,
      "Ġdefeat": 6449,
      "Ġhypothet": 6450,
      "Ġbehaviors": 6451,
      "Ġderivative": 6452,
      "Batik": 6453,
      "Ġusername": 6454,
      "34": 6455,
      "={": 6456,
      "All": 6457,
      "ES": 6458,
      "Pl": 6459,
      "eks": 6460,
      "fin": 6461,
      "iam": 6462,
      "max": 6463,
      "send": 6464,
      "tent": 6465,
      "Ġtorch": 6466,
      "height": 6467,
      "Ġsad": 6468,
      "itational": 6469,
      "Ġfabric": 6470,
      "Ġboss": 6471,
      "Ġbrought": 6472,
      "Ġinher": 6473,
      "edia": 6474,
      "Ġlock": 6475,
      "Ġreached": 6476,
      "ĠText": 6477,
      "Ġonion": 6478,
      "Ġstone": 6479,
      "urch": 6480,
      "Ġcompl": 6481,
      "Ġwhis": 6482,
      "Ġdeals": 6483,
      "Ġneuro": 6484,
      "ocation": 6485,
      "Ġintu": 6486,
      "Ġintent": 6487,
      "agine": 6488,
      "Ġcreators": 6489,
      "duino": 6490,
      "Ġfunny": 6491,
      "Ġunderstood": 6492,
      "Ġinterview": 6493,
      "Ġrare": 6494,
      "Ġadvoc": 6495,
      "Ġdefines": 6496,
      "Ġrecovery": 6497,
      "Ġpossess": 6498,
      "Ġreferences": 6499,
      "Ġfilters": 6500,
      "Ġelif": 6501,
      "Ġedit": 6502,
      "Ġgreatest": 6503,
      "Ġbeginner": 6504,
      "Ġbeginners": 6505,
      "Ġturns": 6506,
      "Ġcards": 6507,
      "Ġperiods": 6508,
      "Process": 6509,
      "Ġsnack": 6510,
      "Ġholding": 6511,
      "model": 6512,
      "Ġstruggling": 6513,
      "Ġwalls": 6514,
      "Ġinfinite": 6515,
      "Ġmitigate": 6516,
      "Ġadvancements": 6517,
      "Ġchords": 6518,
      "Ġreplaced": 6519,
      "Ġdivided": 6520,
      "ĠLLM": 6521,
      "Ġdesktop": 6522,
      "Ġabsolute": 6523,
      "Ġversatile": 6524,
      "Ġmysterious": 6525,
      "Ġcocon": 6526,
      "35": 6527,
      "36": 6528,
      "37": 6529,
      "Day": 6530,
      "EO": 6531,
      "doc": 6532,
      "mp": 6533,
      "ping": 6534,
      "qrt": 6535,
      "uk": 6536,
      "Ġsays": 6537,
      "enn": 6538,
      "aled": 6539,
      "Ġrewrite": 6540,
      "ĠID": 6541,
      "chron": 6542,
      "Ġprove": 6543,
      "ĠCur": 6544,
      "thog": 6545,
      "Ġunf": 6546,
      "ĠDrag": 6547,
      "Ġadopt": 6548,
      "Ġcompass": 6549,
      "ĠLife": 6550,
      "duc": 6551,
      "Ġclients": 6552,
      "ĠNext": 6553,
      "Ġdates": 6554,
      "Ġjson": 6555,
      "ĠIts": 6556,
      "Ġformation": 6557,
      "Ġinformed": 6558,
      "Ġproducing": 6559,
      "Ġlists": 6560,
      "Ġsignals": 6561,
      "Ġ2021": 6562,
      "Ġelaborate": 6563,
      "ĠConnect": 6564,
      "Ġchecking": 6565,
      "Ġpreference": 6566,
      "ĠSpace": 6567,
      "Ġradar": 6568,
      "Ġbrother": 6569,
      "Ġgained": 6570,
      "Ġcompetitive": 6571,
      "ĠBlue": 6572,
      "Ġrobust": 6573,
      "Ġreaction": 6574,
      "Ġentirely": 6575,
      "Ġfighting": 6576,
      "âĸĳâĸĳâĸĳâĸĳ": 6577,
      "related": 6578,
      "build": 6579,
      "Ġinventory": 6580,
      "ĠBuilding": 6581,
      "Ġsports": 6582,
      "ĠPortal": 6583,
      "ashington": 6584,
      "Ġescape": 6585,
      "Ġratio": 6586,
      "ĠIdent": 6587,
      "Ġflavors": 6588,
      "thogonal": 6589,
      "Hub": 6590,
      "LP": 6591,
      "Message": 6592,
      "bur": 6593,
      "java": 6594,
      "pip": 6595,
      "sers": 6596,
      "tem": 6597,
      "uke": 6598,
      "uum": 6599,
      "vision": 6600,
      "Ðµ": 6601,
      "Ġq": 6602,
      "Ġtensor": 6603,
      "Ġsamples": 6604,
      "Ġcas": 6605,
      "Ġcodes": 6606,
      "itarian": 6607,
      "Ġfox": 6608,
      "Ġmerg": 6609,
      "Ġboy": 6610,
      "Ġbond": 6611,
      "Ġbanks": 6612,
      "Ġdumb": 6613,
      "asion": 6614,
      "rab": 6615,
      "ĠAB": 6616,
      "Ġorange": 6617,
      "ĠSoviet": 6618,
      "ĠCode": 6619,
      "Ġali": 6620,
      "eren": 6621,
      "ĠPi": 6622,
      "Ġchopped": 6623,
      "ĠMus": 6624,
      "Ġnotable": 6625,
      "Ġnotice": 6626,
      "ĠEas": 6627,
      "ĠEvery": 6628,
      "ĠEven": 6629,
      "Ġkitchen": 6630,
      "anged": 6631,
      "angers": 6632,
      "Ġwheels": 6633,
      "ĠOd": 6634,
      "Ġ21": 6635,
      "Ġdiffusion": 6636,
      "aph": 6637,
      "ĠUI": 6638,
      "Ġupper": 6639,
      "Ġprev": 6640,
      "Ġprepared": 6641,
      "Ġdisrupt": 6642,
      "Ġtheme": 6643,
      "Ġperm": 6644,
      "Ġspending": 6645,
      "ĠJack": 6646,
      "version": 6647,
      "Ġbucket": 6648,
      "ternatively": 6649,
      "Ġfiber": 6650,
      "Ġbelong": 6651,
      "odynam": 6652,
      "Ġextreme": 6653,
      "Ġcarro": 6654,
      "Ġconsideration": 6655,
      "Ġfocusing": 6656,
      "Ġlikelihood": 6657,
      "Ġcalculus": 6658,
      "ĠCommun": 6659,
      "Ġinteraction": 6660,
      "Ġsentences": 6661,
      "Ġoptimal": 6662,
      "Ġbegins": 6663,
      "Ġimmune": 6664,
      "Ġfalling": 6665,
      "ĠHTTP": 6666,
      "Ġanalyzing": 6667,
      "Ġcontinuous": 6668,
      "Ġdomain": 6669,
      "Ġclosely": 6670,
      "Ġmatching": 6671,
      "Ġchatbot": 6672,
      "Ġinjuries": 6673,
      "Ġdecline": 6674,
      "ĠLike": 6675,
      "Ġtransportation": 6676,
      "ambda": 6677,
      "Ġmistakes": 6678,
      "Ġopinion": 6679,
      "Ġdialog": 6680,
      "Ġsocieties": 6681,
      "clusive": 6682,
      "ĠService": 6683,
      "Ġgarden": 6684,
      "directory": 6685,
      "Ġscratch": 6686,
      "Ġtongue": 6687,
      "([": 6688,
      "CH": 6689,
      "EY": 6690,
      "WS": 6691,
      "boh": 6692,
      "gov": 6693,
      "iest": 6694,
      "txt": 6695,
      "Ġwing": 6696,
      "Ġwife": 6697,
      "Ġpap": 6698,
      "Ġduration": 6699,
      "arah": 6700,
      "icle": 6701,
      "Ġlen": 6702,
      "Ġnone": 6703,
      "ĠTre": 6704,
      "eless": 6705,
      "state": 6706,
      "Ġstunning": 6707,
      "oday": 6708,
      "ĠSSD": 6709,
      "Ġselection": 6710,
      "Ġmaps": 6711,
      "udo": 6712,
      "ĠBen": 6713,
      "ĠFire": 6714,
      "ĠGl": 6715,
      "close": 6716,
      "agers": 6717,
      "Ġscope": 6718,
      "Ġwouldn": 6719,
      "comfort": 6720,
      "Ġattend": 6721,
      "Ġcomputation": 6722,
      "Ġagre": 6723,
      "Ġlightning": 6724,
      "Ġincreases": 6725,
      "Ġsurve": 6726,
      "Ġaccident": 6727,
      "Ġedges": 6728,
      "forward": 6729,
      "Ġwarri": 6730,
      "ometric": 6731,
      "Ġsunlight": 6732,
      "Ġautomated": 6733,
      "Ġpreviously": 6734,
      "Ġcyl": 6735,
      "Ġformatting": 6736,
      "Ġalternatives": 6737,
      "Ġstaying": 6738,
      "Ġlabels": 6739,
      "Ġincorrect": 6740,
      "Ġcolumns": 6741,
      "Ġdivide": 6742,
      "aspberry": 6743,
      "Ġmotivated": 6744,
      "Ġultimate": 6745,
      "Ġwatching": 6746,
      "Ġmonitoring": 6747,
      "Ġbreathing": 6748,
      "Ġarticles": 6749,
      "::::::::": 6750,
      "itcoin": 6751,
      "Ġinequality": 6752,
      "Ġclarify": 6753,
      "ĠAfrica": 6754,
      "Ġvibrant": 6755,
      "ĠDiscord": 6756,
      "Ġdisadvantages": 6757,
      "Ġrhythm": 6758,
      "Ġinsects": 6759,
      "Element": 6760,
      "bohydr": 6761,
      "03": 6762,
      "29": 6763,
      "Te": 6764,
      "bow": 6765,
      "bru": 6766,
      "hab": 6767,
      "tra": 6768,
      "then": 6769,
      "ÑĤ": 6770,
      "Ġsac": 6771,
      "Ġcache": 6772,
      "orking": 6773,
      "Ġmeth": 6774,
      "Ġinherent": 6775,
      "rote": 6776,
      "img": 6777,
      "Ġforg": 6778,
      "Ġstuff": 6779,
      "urs": 6780,
      "Ġexhib": 6781,
      "uming": 6782,
      "ĠHuman": 6783,
      "ptic": 6784,
      "ĠMove": 6785,
      "Ġintake": 6786,
      "Ġatoms": 6787,
      "Ġcomposition": 6788,
      "formance": 6789,
      "Ġspect": 6790,
      "Ġcluster": 6791,
      "Ġproven": 6792,
      "ensus": 6793,
      "config": 6794,
      "orders": 6795,
      "Ġinstant": 6796,
      "Ġinstances": 6797,
      "Ġassert": 6798,
      "Ġtexts": 6799,
      "Ġsubmit": 6800,
      "Ġmeditation": 6801,
      "Ġconsiderations": 6802,
      "ĠProt": 6803,
      "Ġpassing": 6804,
      "Ġstreaming": 6805,
      "Ġfriendly": 6806,
      "Ġinstalling": 6807,
      "Ġportion": 6808,
      "Ġcrim": 6809,
      "iki": 6810,
      "Ġforever": 6811,
      "Ġframeworks": 6812,
      "OST": 6813,
      "Ġfaced": 6814,
      "ĠIntelligence": 6815,
      "Ġintroduction": 6816,
      "Ġinspiration": 6817,
      "Ġverify": 6818,
      "Ġgravitational": 6819,
      "Comp": 6820,
      "Ġprecise": 6821,
      "Ġdedicated": 6822,
      "Ġdelivery": 6823,
      "ĠGitHub": 6824,
      "Ġauthentic": 6825,
      "SCII": 6826,
      "Ġrepeated": 6827,
      "Ġmolec": 6828,
      "Ġmanufacture": 6829,
      "Ġmoist": 6830,
      "abetes": 6831,
      "ĠComputer": 6832,
      "Ġaffordable": 6833,
      "Ġcubic": 6834,
      "Ġhesitate": 6835,
      "abulary": 6836,
      "Ġhypothetical": 6837,
      "79": 6838,
      "Ac": 6839,
      "Frame": 6840,
      "Sub": 6841,
      "URL": 6842,
      "aws": 6843,
      "bar": 6844,
      "files": 6845,
      "git": 6846,
      "len": 6847,
      "rine": 6848,
      "tage": 6849,
      "uge": 6850,
      "Ġtal": 6851,
      "Ġsix": 6852,
      "Ġcaught": 6853,
      "iture": 6854,
      "Ġpipe": 6855,
      "Ġbaby": 6856,
      "Ġinner": 6857,
      "Ġdram": 6858,
      "Ġrecur": 6859,
      "ĠType": 6860,
      "username": 6861,
      "abling": 6862,
      "this": 6863,
      "ighter": 6864,
      "ĠWest": 6865,
      "ĠWord": 6866,
      "ĠPost": 6867,
      "Ġrice": 6868,
      "agement": 6869,
      "rome": 6870,
      "Ġunw": 6871,
      "Ġship": 6872,
      "Ġintense": 6873,
      "result": 6874,
      "ĠRick": 6875,
      "bled": 6876,
      "Ġclone": 6877,
      "igned": 6878,
      "Ġarri": 6879,
      "iented": 6880,
      "Ġgenerates": 6881,
      "ĠStable": 6882,
      "phone": 6883,
      "Ġformed": 6884,
      "Ġwants": 6885,
      "Ġdepict": 6886,
      "Ġ011": 6887,
      "plicated": 6888,
      "Ġmostly": 6889,
      "Ġcalend": 6890,
      "Ġtransmit": 6891,
      "Ġeveryday": 6892,
      "Ġdiversity": 6893,
      "Ġoperate": 6894,
      "ĠProcess": 6895,
      "ĠExper": 6896,
      "ĠAlthough": 6897,
      "ĠArduino": 6898,
      "Ġincent": 6899,
      "Ġinches": 6900,
      "Ġachieving": 6901,
      "ugment": 6902,
      "Ġoptimized": 6903,
      "ĠMySQL": 6904,
      "Ġloops": 6905,
      "urable": 6906,
      "Ġexpectations": 6907,
      "Ġmixed": 6908,
      "ipped": 6909,
      "paren": 6910,
      "Ġevalu": 6911,
      "Ġholds": 6912,
      "objects": 6913,
      "Ġreferred": 6914,
      "Ġmelody": 6915,
      "layer": 6916,
      "Ġvertical": 6917,
      "Ġsegment": 6918,
      "Ġestimated": 6919,
      "agonist": 6920,
      "Ġdespite": 6921,
      "Ġscholars": 6922,
      "bohydrates": 6923,
      "82": 6924,
      "Ap": 6925,
      "Dis": 6926,
      "Des": 6927,
      "Ob": 6928,
      "awn": 6929,
      "how": 6930,
      "iences": 6931,
      "kit": 6932,
      "public": 6933,
      "random": 6934,
      "screen": 6935,
      "aten": 6936,
      "Ġwat": 6937,
      "Ġflying": 6938,
      "Ġmig": 6939,
      "Ġmold": 6940,
      "Ġmask": 6941,
      "ala": 6942,
      "Ġinject": 6943,
      "lets": 6944,
      "aser": 6945,
      "ented": 6946,
      "imal": 6947,
      "istory": 6948,
      "stack": 6949,
      "oles": 6950,
      "utch": 6951,
      "iform": 6952,
      "ifts": 6953,
      "Ġconqu": 6954,
      "Ġconcrete": 6955,
      "ĠASCII": 6956,
      "umes": 6957,
      "pling": 6958,
      "oping": 6959,
      "cks": 6960,
      "ĠWhether": 6961,
      "ĠPot": 6962,
      "ĠDec": 6963,
      "ĠBi": 6964,
      "ĠBob": 6965,
      "ĠBecause": 6966,
      "ĠBitcoin": 6967,
      "Ġkm": 6968,
      "apse": 6969,
      "Ġhumor": 6970,
      "Ġdepression": 6971,
      "Ġprogrammers": 6972,
      "Ġcurrency": 6973,
      "ĠCanada": 6974,
      "Ġdependencies": 6975,
      "Ġmarked": 6976,
      "Ġcontrolled": 6977,
      "Ġmoved": 6978,
      "Ġsearching": 6979,
      "Ġstructured": 6980,
      "aze": 6981,
      "ĠâĢĶ": 6982,
      "Ġsensors": 6983,
      "Ġdatabases": 6984,
      "Ġrocket": 6985,
      "reshold": 6986,
      "Ġsteel": 6987,
      "steroid": 6988,
      "Ġcommitment": 6989,
      "Ġflexibility": 6990,
      "Ġencrypted": 6991,
      "Ġelectrons": 6992,
      "Ġspiritual": 6993,
      "Ġkeywords": 6994,
      "Ġrestaurant": 6995,
      "ĠCalculate": 6996,
      "Ġcabin": 6997,
      "ĠKorea": 6998,
      "Ġnutrients": 6999,
      "Ġintellectual": 7000,
      "parency": 7001,
      "FF": 7002,
      "Feed": 7003,
      "ION": 7004,
      "Map": 7005,
      "Type": 7006,
      "math": 7007,
      "pes": 7008,
      "rum": 7009,
      "sl": 7010,
      "Ġtiny": 7011,
      "Ġwrote": 7012,
      "Ġpd": 7013,
      "Ġfro": 7014,
      "Ġmission": 7015,
      "Ġhtml": 7016,
      "Ġlies": 7017,
      "entle": 7018,
      "Ġrect": 7019,
      "Ġnull": 7020,
      "ollow": 7021,
      "rapy": 7022,
      "Ġaren": 7023,
      "ĠServer": 7024,
      "quare": 7025,
      "ores": 7026,
      "Ġsuited": 7027,
      "ĠWolf": 7028,
      "ĠPerson": 7029,
      "ĠMoon": 7030,
      "Ġunknown": 7031,
      "Ġshoes": 7032,
      "ocial": 7033,
      "ĠDNA": 7034,
      "active": 7035,
      "arts": 7036,
      "ĠForm": 7037,
      "ogether": 7038,
      "ĠGre": 7039,
      "ĠGUI": 7040,
      "Ġatomic": 7041,
      "Ġ26": 7042,
      "Ġmaybe": 7043,
      "Ġroles": 7044,
      "Ġarms": 7045,
      "Ġperception": 7046,
      "Ġembed": 7047,
      "Ġapplying": 7048,
      "Ġindeed": 7049,
      "ĠStand": 7050,
      "create": 7051,
      "Ġflag": 7052,
      "Ġ<<": 7053,
      "Ġrecover": 7054,
      "Ġrecently": 7055,
      "Ġdesigning": 7056,
      "Ġleadership": 7057,
      "Ġ2020": 7058,
      "Ġfinance": 7059,
      "Ġvisited": 7060,
      "Ġbelieves": 7061,
      "ĠAddress": 7062,
      "ĠExcel": 7063,
      "Ġmetric": 7064,
      "Ġswallow": 7065,
      "Ġeconomics": 7066,
      "urthermore": 7067,
      "ĠShould": 7068,
      "Ġdrinking": 7069,
      "Ġpresident": 7070,
      "Ġmeasured": 7071,
      "mittent": 7072,
      "ĠColl": 7073,
      "Ġnearby": 7074,
      "Ġheavily": 7075,
      "ipping": 7076,
      "Ġtimeline": 7077,
      "party": 7078,
      "spec": 7079,
      "Ġmountain": 7080,
      "Ġchannels": 7081,
      "Ġhydrogen": 7082,
      "cosystem": 7083,
      "ĠDepending": 7084,
      "True": 7085,
      "Ġvocabulary": 7086,
      "Ġsummarize": 7087,
      "ĠOutput": 7088,
      "Ġcryptocurrency": 7089,
      "Ġtitles": 7090,
      "39": 7091,
      "86": 7092,
      "LI": 7093,
      "Py": 7094,
      "bin": 7095,
      "draw": 7096,
      "fil": 7097,
      "gent": 7098,
      "gans": 7099,
      "ira": 7100,
      "padd": 7101,
      "Ã¡": 7102,
      "Ġsight": 7103,
      "Ġslic": 7104,
      "Ġcable": 7105,
      "Ġpix": 7106,
      "Ġfo": 7107,
      "Ġfurn": 7108,
      "Ġfusion": 7109,
      "Ġolive": 7110,
      "Ġborder": 7111,
      "Ġdust": 7112,
      "Ġdoll": 7113,
      "Ġecosystem": 7114,
      "Ġgap": 7115,
      "std": 7116,
      "iden": 7117,
      "otics": 7118,
      "uto": 7119,
      "uns": 7120,
      "Ġassem": 7121,
      "ĠCity": 7122,
      "Ġalthough": 7123,
      "ĠPark": 7124,
      "ĠPresident": 7125,
      "Ġride": 7126,
      "Ġ\"\"\"": 7127,
      "Ġchuck": 7128,
      "Ġends": 7129,
      "Ġplaced": 7130,
      "ĠBas": 7131,
      "ĠBay": 7132,
      "ĠLAION": 7133,
      "asts": 7134,
      "Ġconsensus": 7135,
      "They": 7136,
      "Ġknowing": 7137,
      "ftware": 7138,
      "Ġ32": 7139,
      "Ġrepet": 7140,
      "ĠChange": 7141,
      "Ġbuildings": 7142,
      "Ġexpansion": 7143,
      "Ġinvolving": 7144,
      "Ġdiscovery": 7145,
      "Ġmetrics": 7146,
      "Ġmultiplication": 7147,
      "airs": 7148,
      "Ġsites": 7149,
      "Ġresponsibility": 7150,
      "Ġrepresented": 7151,
      "ĠEns": 7152,
      "Ġvoltage": 7153,
      "ĠImage": 7154,
      "Ġaccounts": 7155,
      "Ġconversations": 7156,
      "Ġanti": 7157,
      "Ġwaiting": 7158,
      "Ġbatteries": 7159,
      "Ġadventures": 7160,
      "ĠQuantum": 7161,
      "Ġholid": 7162,
      "Ġassumes": 7163,
      "Ġvacc": 7164,
      "Ġvacuum": 7165,
      "Ġweapon": 7166,
      "Ġvulnerabilities": 7167,
      "Ġsusp": 7168,
      "Ġreinforcement": 7169,
      "Ġsexual": 7170,
      "Ġpicture": 7171,
      "Ġreputation": 7172,
      "Ġliquid": 7173,
      "Ġcomedy": 7174,
      "Ġantibi": 7175,
      "Ġcoconut": 7176,
      "({": 7177,
      "DP": 7178,
      "Val": 7179,
      "]:": 7180,
      "aware": 7181,
      "bage": 7182,
      "gi": 7183,
      "javascript": 7184,
      "mail": 7185,
      "mount": 7186,
      "oj": 7187,
      "pan": 7188,
      "rin": 7189,
      "}$": 7190,
      "Ġ×": 7191,
      "Ġsod": 7192,
      "Ġodd": 7193,
      "Ġbass": 7194,
      "Ġbath": 7195,
      "Ġreb": 7196,
      "Ġreject": 7197,
      "Ġisland": 7198,
      "Ġglu": 7199,
      "Ġghost": 7200,
      "ĠTra": 7201,
      "igen": 7202,
      "ĠSur": 7203,
      "ria": 7204,
      "ĠWashington": 7205,
      "ĠMc": 7206,
      "ĠMorty": 7207,
      "Ġshopping": 7208,
      "Ġintric": 7209,
      "ĠFound": 7210,
      "Ġweeks": 7211,
      "Ġotherwise": 7212,
      "Ġtea": 7213,
      "Ġ27": 7214,
      "Ġsole": 7215,
      "appe": 7216,
      "ĠIncre": 7217,
      "Ġarise": 7218,
      "Ġprem": 7219,
      "Ġspark": 7220,
      "Ġrelativity": 7221,
      "Ġobj": 7222,
      "tainer": 7223,
      "Ġcompleted": 7224,
      "Ġcomputations": 7225,
      "Ġcooperation": 7226,
      "Ġagric": 7227,
      "iances": 7228,
      "Ġ2022": 7229,
      "Ġdecades": 7230,
      "Ġcorpor": 7231,
      "Ġartist": 7232,
      "Ġensures": 7233,
      "Ġ});": 7234,
      "ĠConsole": 7235,
      "ĠAny": 7236,
      "Ġproductivity": 7237,
      "Ġlesson": 7238,
      "Ġ70": 7239,
      "rade": 7240,
      "ometimes": 7241,
      "ĠSpain": 7242,
      "ĠImagine": 7243,
      "Ġactivation": 7244,
      "Ġethics": 7245,
      "Ġsnipp": 7246,
      "Ġutility": 7247,
      "Ġspecifies": 7248,
      "solving": 7249,
      "Ġtheoretical": 7250,
      "ĠWebSocket": 7251,
      "Ġkilometers": 7252,
      "ĠKingdom": 7253,
      "Ġharvest": 7254,
      "Ġawait": 7255,
      "Ġdemocratic": 7256,
      "Ġsavings": 7257,
      "Ġmillions": 7258,
      "ĠMarty": 7259,
      "Ġexperiments": 7260,
      "bruary": 7261,
      "CC": 7262,
      "Despite": 7263,
      "Hey": 7264,
      "Of": 7265,
      "Person": 7266,
      "VID": 7267,
      "Write": 7268,
      "bucket": 7269,
      "css": 7270,
      "gers": 7271,
      "lor": 7272,
      "rich": 7273,
      "worth": 7274,
      "à®": 7275,
      "Ġtension": 7276,
      "Ġasteroid": 7277,
      "hem": 7278,
      "reak": 7279,
      "erator": 7280,
      "Ġsen": 7281,
      "Ġsister": 7282,
      "ato": 7283,
      "Ġpars": 7284,
      "Ġfed": 7285,
      "Ġtoys": 7286,
      "Ġrenew": 7287,
      "Ġforget": 7288,
      "child": 7289,
      "ama": 7290,
      "olds": 7291,
      "ifact": 7292,
      "Ġexit": 7293,
      "erent": 7294,
      "plt": 7295,
      "ements": 7296,
      "ĠPat": 7297,
      "izable": 7298,
      "Ġunp": 7299,
      "ĠDark": 7300,
      "ĠDocker": 7301,
      "ĠGal": 7302,
      "Ġweigh": 7303,
      "cloud": 7304,
      "Ġ255": 7305,
      "Ġspeaking": 7306,
      "Ġmanual": 7307,
      "Ġanywhere": 7308,
      "acle": 7309,
      "ipher": 7310,
      "Ġoutdo": 7311,
      "Ġknows": 7312,
      "aker": 7313,
      "Ġwhose": 7314,
      "ĠStay": 7315,
      "Ġwhereas": 7316,
      "Ġcurious": 7317,
      "Ġsubt": 7318,
      "Ġextend": 7319,
      "Ġauto": 7320,
      "Ġartifact": 7321,
      "Ġdiabetes": 7322,
      "exic": 7323,
      "Ġmemories": 7324,
      "Ġfeels": 7325,
      "oxide": 7326,
      "Ġdirected": 7327,
      "Start": 7328,
      "Ġcultiv": 7329,
      "Ġsuggested": 7330,
      "Ġdrivers": 7331,
      "Ġhydr": 7332,
      "Ġengineer": 7333,
      "apping": 7334,
      "Ġclearly": 7335,
      "ĠEnter": 7336,
      "Ġtraveling": 7337,
      "Ġradiation": 7338,
      "Ġexecution": 7339,
      "Ġstatistics": 7340,
      "Ġstatistical": 7341,
      "Ġrobots": 7342,
      "IDTH": 7343,
      "Ġdivision": 7344,
      "Ġdistributions": 7345,
      "Ġshaping": 7346,
      "Ġreliability": 7347,
      "Ġlinked": 7348,
      "kyo": 7349,
      "partial": 7350,
      "Ġdedication": 7351,
      "ĠModel": 7352,
      "Ġlicens": 7353,
      "Ġincorporate": 7354,
      "Ġrepeat": 7355,
      "Ġnucle": 7356,
      "Ġmistake": 7357,
      "Ġfingers": 7358,
      "Ġuniversal": 7359,
      "Ġintegrated": 7360,
      "ĠVisual": 7361,
      "ĠOkay": 7362,
      "Ġphilosopher": 7363,
      "Ġincredible": 7364,
      "Orthogonal": 7365,
      "Ġhorizont": 7366,
      "Ġpyram": 7367,
      "Ġdimension": 7368,
      "Ġneutral": 7369,
      "ĠNetwork": 7370,
      "ĠEastern": 7371,
      "94": 7372,
      "AA": 7373,
      "Bl": 7374,
      "GI": 7375,
      "Go": 7376,
      "John": 7377,
      "Using": 7378,
      "big": 7379,
      "bly": 7380,
      "float": 7381,
      "mm": 7382,
      "pi": 7383,
      "sion": 7384,
      "ynt": 7385,
      "ÑĢ": 7386,
      "Ġ^": 7387,
      "ĠÃ": 7388,
      "Ġtu": 7389,
      "ini": 7390,
      "onents": 7391,
      "Ġsoph": 7392,
      "atter": 7393,
      "ora": 7394,
      "oral": 7395,
      "Ġwal": 7396,
      "Ġpir": 7397,
      "Ġfits": 7398,
      "Ġfirm": 7399,
      "Ġmesh": 7400,
      "Ġborrow": 7401,
      "Ġtoler": 7402,
      "Ġdied": 7403,
      "Ġrent": 7404,
      "igating": 7405,
      "ifies": 7406,
      "iforn": 7407,
      "Ġasks": 7408,
      "ods": 7409,
      "security": 7410,
      "ĠSS": 7411,
      "ĠCir": 7412,
      "ĠTheir": 7413,
      "Ġring": 7414,
      "ĠMore": 7415,
      "ĠMount": 7416,
      "ĠMexic": 7417,
      "perty": 7418,
      "ĠFre": 7419,
      "icha": 7420,
      "ĠNether": 7421,
      "Ġtraits": 7422,
      "aria": 7423,
      "fully": 7424,
      "ĠSte": 7425,
      "plicity": 7426,
      "Ġtwist": 7427,
      "Ġinflam": 7428,
      "Ġminor": 7429,
      "Ġ45": 7430,
      "ĠAsia": 7431,
      "Ġeffectiveness": 7432,
      "Ġentity": 7433,
      "Ġmusical": 7434,
      "Ġchecks": 7435,
      "Ġzone": 7436,
      "azing": 7437,
      "Ġpawn": 7438,
      "Ġdigit": 7439,
      "Ġbatt": 7440,
      "backs": 7441,
      "Ġsalad": 7442,
      "ĠSecurity": 7443,
      "Ġdefinitive": 7444,
      "Ġtransformation": 7445,
      "ographic": 7446,
      "Ġmajority": 7447,
      "Ġreactor": 7448,
      "Button": 7449,
      "ervation": 7450,
      "Ġdynamics": 7451,
      "Ġaims": 7452,
      "Ġterrit": 7453,
      "Ġindependence": 7454,
      "Ġsatisfact": 7455,
      "Ġmythology": 7456,
      "ĠUpdate": 7457,
      "Ġsoul": 7458,
      "Ġtrouble": 7459,
      "Ġrapidly": 7460,
      "Ġconventions": 7461,
      "Ġvehicles": 7462,
      "Ġthousands": 7463,
      "Ġconvenient": 7464,
      "ifornia": 7465,
      "'.": 7466,
      ")`": 7467,
      "Act": 7468,
      "Bu": 7469,
      "DC": 7470,
      "Dear": 7471,
      "Def": 7472,
      "TX": 7473,
      "WIDTH": 7474,
      "cose": 7475,
      "gue": 7476,
      "gely": 7477,
      "rat": 7478,
      "sal": 7479,
      "wall": 7480,
      "wood": 7481,
      "Ġtiss": 7482,
      "information": 7483,
      "react": 7484,
      "oub": 7485,
      "itis": 7486,
      "itical": 7487,
      "Ġwindows": 7488,
      "Ġwizard": 7489,
      "Ġpil": 7490,
      "Ġpine": 7491,
      "Ġpenc": 7492,
      "Ġpointer": 7493,
      "Ġfont": 7494,
      "Ġod": 7495,
      "Ġtokens": 7496,
      "Ġdot": 7497,
      "roph": 7498,
      "rooms": 7499,
      "Ġthin": 7500,
      "imals": 7501,
      "amin": 7502,
      "igma": 7503,
      "Ġstrain": 7504,
      "search": 7505,
      "ĠCat": 7506,
      "Ġcomplicated": 7507,
      "ĠHel": 7508,
      "ptember": 7509,
      "ĠWater": 7510,
      "osph": 7511,
      "Ġlean": 7512,
      "plex": 7513,
      "Ġunne": 7514,
      "Ġsharp": 7515,
      "ĠDem": 7516,
      "ĠBro": 7517,
      "ĠBased": 7518,
      "Ġadminist": 7519,
      "ĠRPG": 7520,
      "Ġlie": 7521,
      "ango": 7522,
      "ĠOF": 7523,
      "Ġmodules": 7524,
      "Ġsocket": 7525,
      "Ġdisk": 7526,
      "ĠJim": 7527,
      "Ġoverfitting": 7528,
      "aka": 7529,
      "Ġ300": 7530,
      "Ġappoint": 7531,
      "Ġpron": 7532,
      "Ġsimulate": 7533,
      "Ġacts": 7534,
      "crets": 7535,
      "Ġformer": 7536,
      "Ġasset": 7537,
      "Ġexplo": 7538,
      "cury": 7539,
      "Ġregulate": 7540,
      "Ġtransparent": 7541,
      "Ġraises": 7542,
      "Ġlargely": 7543,
      "Ġblog": 7544,
      "Ġmemor": 7545,
      "server": 7546,
      "Ġreaders": 7547,
      "Ġmuse": 7548,
      "Ġsword": 7549,
      "radius": 7550,
      "Ġtrial": 7551,
      "ĠAdv": 7552,
      "Ġtransformer": 7553,
      "ĠPhot": 7554,
      "Ġhappening": 7555,
      "Ġregards": 7556,
      "Ġcollected": 7557,
      "ĠJohnson": 7558,
      "Ġnutr": 7559,
      "Ġnuts": 7560,
      "---|": 7561,
      "Ġevolving": 7562,
      "Ġproposed": 7563,
      "Ġvulnerable": 7564,
      "Ġcompatibility": 7565,
      "ĠInternational": 7566,
      "Ġsegments": 7567,
      "Ġpollution": 7568,
      "gypt": 7569,
      "Ġdictionary": 7570,
      "Ġrevenue": 7571,
      "API": 7572,
      "Not": 7573,
      "Pol": 7574,
      "Path": 7575,
      "Read": 7576,
      "`:": 7577,
      "aos": 7578,
      "fess": 7579,
      "natural": 7580,
      "there": 7581,
      "Ġ@": 7582,
      "iner": 7583,
      "Ġske": 7584,
      "Ġcoun": 7585,
      "Ġwrap": 7586,
      "Ġpark": 7587,
      "Ġfa": 7588,
      "Ġfats": 7589,
      "Ġbind": 7590,
      "Ġbatch": 7591,
      "Ġell": 7592,
      "ĠTop": 7593,
      "char": 7594,
      "chuck": 7595,
      "Ġonions": 7596,
      "ifically": 7597,
      "ayer": 7598,
      "ĠSarah": 7599,
      "hern": 7600,
      "Ġvot": 7601,
      "ĠPI": 7602,
      "ĠEp": 7603,
      "ĠEu": 7604,
      "ĠDay": 7605,
      "ĠFile": 7606,
      "ĠThrough": 7607,
      "Ġwearing": 7608,
      "Ġcontem": 7609,
      "ĠLua": 7610,
      "Ġresolution": 7611,
      "Ġmyst": 7612,
      "Ġtrick": 7613,
      "Ġhumidity": 7614,
      "ribe": 7615,
      "Ġprocessor": 7616,
      "ownload": 7617,
      "Ġremind": 7618,
      "Ġdistances": 7619,
      "Ġmainly": 7620,
      "Ġreferring": 7621,
      "Ġdecor": 7622,
      "Ġapplicable": 7623,
      "ĠHey": 7624,
      "Ġsurf": 7625,
      "Ġconfidence": 7626,
      "Ġprotot": 7627,
      "Ġprotagonist": 7628,
      "scill": 7629,
      "Ġcharacterized": 7630,
      "Ġcalculation": 7631,
      "Ġlegacy": 7632,
      "Ġlogo": 7633,
      "ameters": 7634,
      "Ġsubjects": 7635,
      "Ġconcerned": 7636,
      "Ġcleaning": 7637,
      "Ġnormalization": 7638,
      "Ġhosting": 7639,
      "Ġcutting": 7640,
      "ALL": 7641,
      "Ġspeaker": 7642,
      "Ġmotivation": 7643,
      "ENT": 7644,
      "Ġthreats": 7645,
      "Ġphrases": 7646,
      "âĸĪâĸĪâĸĪâĸĪâĸĪâĸĪâĸĪâĸĪ": 7647,
      "Ġpipeline": 7648,
      "Ġchoosing": 7649,
      "ĠInternet": 7650,
      "Ġtomato": 7651,
      "Ġdeployment": 7652,
      "Ġsuffering": 7653,
      "Ġphilosophers": 7654,
      "Ġmagnetic": 7655,
      "ĠFacebook": 7656,
      "Ġbridge": 7657,
      "Ġjuice": 7658,
      "Ġcylinder": 7659,
      "Ġglucose": 7660,
      "IP": 7661,
      "PM": 7662,
      "Pipe": 7663,
      "Torch": 7664,
      "github": 7665,
      "mic": 7666,
      "mation": 7667,
      "oom": 7668,
      "pair": 7669,
      "vol": 7670,
      "vised": 7671,
      "water": 7672,
      "Ã¶": 7673,
      "ãĢ": 7674,
      "Ġtort": 7675,
      "Ġsaving": 7676,
      "Ġcrow": 7677,
      "Ġpound": 7678,
      "Ġindu": 7679,
      "Ġincon": 7680,
      "Ġhole": 7681,
      "omal": 7682,
      "Ġlift": 7683,
      "Ġretain": 7684,
      "illet": 7685,
      "Ġgit": 7686,
      "Ġglow": 7687,
      "Ġgone": 7688,
      "stab": 7689,
      "amm": 7690,
      "Ġbeings": 7691,
      "unte": 7692,
      "atever": 7693,
      "ĠCut": 7694,
      "ĠCustom": 7695,
      "Ġalert": 7696,
      "query": 7697,
      "Ġvaries": 7698,
      "rip": 7699,
      "cker": 7700,
      "Ġhaven": 7701,
      "plete": 7702,
      "ĠFlu": 7703,
      "ĠFTP": 7704,
      "ĠGold": 7705,
      "Ġadj": 7706,
      "ĠRL": 7707,
      "ĠRest": 7708,
      "socket": 7709,
      "Ġhello": 7710,
      "Ġtraditions": 7711,
      "acent": 7712,
      "ipitation": 7713,
      "Ġpret": 7714,
      "Ġconsume": 7715,
      "aked": 7716,
      "Ġprison": 7717,
      "ĠState": 7718,
      "Ġinvention": 7719,
      "-----": 7720,
      "Ġsmell": 7721,
      "curl": 7722,
      "(),": 7723,
      "Ġcharge": 7724,
      "Ġbackend": 7725,
      "Ġfewer": 7726,
      "Ġenth": 7727,
      "Ġconfident": 7728,
      "Ġreduces": 7729,
      "rencies": 7730,
      "Ġorganisms": 7731,
      "Ġcontexts": 7732,
      "Ġdigits": 7733,
      "ĠEngland": 7734,
      "ĠUSA": 7735,
      "ĠImport": 7736,
      "Ġgovernments": 7737,
      "Ġdescribes": 7738,
      "Ġexplored": 7739,
      "Ġscreens": 7740,
      "Ġgenres": 7741,
      "Ġsensory": 7742,
      "Ġ180": 7743,
      "Ġpayment": 7744,
      "ĠNewton": 7745,
      "Ġactively": 7746,
      "Ġdiscussion": 7747,
      "Ġinspire": 7748,
      "Ġdescriptions": 7749,
      "ĠCalifornia": 7750,
      "Ġbuying": 7751,
      "attered": 7752,
      "Ġemphasis": 7753,
      "Ġcores": 7754,
      "Ġmountains": 7755,
      "ĠTransform": 7756,
      "solved": 7757,
      "Ġmutual": 7758,
      "Ġclaims": 7759,
      "Ġpublish": 7760,
      "Ġalgebraic": 7761,
      "Ã¼r": 7762,
      "Content": 7763,
      "haust": 7764,
      "Ġhonest": 7765,
      "Ġconcentration": 7766,
      "66": 7767,
      "83": 7768,
      "Best": 7769,
      "DB": 7770,
      "Date": 7771,
      "Man": 7772,
      "aul": 7773,
      "hoot": 7774,
      "lers": 7775,
      "names": 7776,
      "uct": 7777,
      "vo": 7778,
      "erts": 7779,
      "Ġspl": 7780,
      "Ġwit": 7781,
      "Ġpi": 7782,
      "Ġoscill": 7783,
      "Ġmouse": 7784,
      "Ġdin": 7785,
      "icrow": 7786,
      "Ġhunt": 7787,
      "Ġnation": 7788,
      "istor": 7789,
      "Ġbear": 7790,
      "ola": 7791,
      "unar": 7792,
      "iratory": 7793,
      "ado": 7794,
      "ĠCa": 7795,
      "ĠCour": 7796,
      "Ġsufficient": 7797,
      "ema": 7798,
      "ĠPeter": 7799,
      "ector": 7800,
      "ĠMult": 7801,
      "Ġenables": 7802,
      "ours": 7803,
      "ĠEast": 7804,
      "ĠEgypt": 7805,
      "ĠBig": 7806,
      "ĠFunction": 7807,
      "Ġcompiled": 7808,
      "ĠLord": 7809,
      "arding": 7810,
      "ago": 7811,
      "cessary": 7812,
      "Ġscar": 7813,
      "Ġgobl": 7814,
      "Ġmanaged": 7815,
      "Ġdisappe": 7816,
      "lose": 7817,
      "ĠJu": 7818,
      "Ġ35": 7819,
      "Ġinterval": 7820,
      "Ġintersection": 7821,
      "Ġemp": 7822,
      "Ġempath": 7823,
      "Ġprogression": 7824,
      "Ġprocessed": 7825,
      "Ġsmile": 7826,
      "Ġtransparency": 7827,
      "Ġ||": 7828,
      "Ġstartup": 7829,
      "Ġsolved": 7830,
      "Ġflash": 7831,
      "Ġ<=": 7832,
      "Ġinfections": 7833,
      "Ġ500": 7834,
      "Ġlongest": 7835,
      "Ġleaders": 7836,
      "Ġauton": 7837,
      "ĠTokyo": 7838,
      "Ġcarbohydrates": 7839,
      "ĠExample": 7840,
      "ĠExamples": 7841,
      "Ġprofound": 7842,
      "Ġelected": 7843,
      "Ġfamil": 7844,
      "elsius": 7845,
      "Ġstanding": 7846,
      "Ġengineers": 7847,
      "ĠQue": 7848,
      "Ġpaint": 7849,
      "Ġavoiding": 7850,
      "Ġstrategic": 7851,
      "Ġautomation": 7852,
      "Ġsupercon": 7853,
      "Ġdefinitely": 7854,
      "Ġrecognized": 7855,
      "Ġfrequent": 7856,
      "Ġancest": 7857,
      "ĠInteg": 7858,
      "Ġopponent": 7859,
      "ĠExplore": 7860,
      "Ġauthorities": 7861,
      "Ġassistants": 7862,
      "Therefore": 7863,
      "ĠPrint": 7864,
      "Ġvegetable": 7865,
      "trans": 7866,
      "Ġrecords": 7867,
      "Ġteaching": 7868,
      "connected": 7869,
      "Client": 7870,
      "ĠPyTorch": 7871,
      "install": 7872,
      "ĠAfrican": 7873,
      "Ġcrops": 7874,
      "Ġadults": 7875,
      "Prime": 7876,
      "Ġdwarves": 7877,
      "Ġgalaxies": 7878,
      "Ġtransactions": 7879,
      "Ġcarrots": 7880,
      "Ġcriminal": 7881,
      "specific": 7882,
      "Ġfurniture": 7883,
      "ichael": 7884,
      "41": 7885,
      "47": 7886,
      "97": 7887,
      "App": 7888,
      "CO": 7889,
      "Each": 7890,
      "Hz": 7891,
      "Key": 7892,
      "effect": 7893,
      "fi": 7894,
      "fn": 7895,
      "fare": 7896,
      "lim": 7897,
      "lang": 7898,
      "tune": 7899,
      "zure": 7900,
      "Ġera": 7901,
      "Ġtag": 7902,
      "Ġath": 7903,
      "Ġaugment": 7904,
      "erves": 7905,
      "Ġcere": 7906,
      "oriented": 7907,
      "anit": 7908,
      "oust": 7909,
      "Ġfrag": 7910,
      "alian": 7911,
      "Ġinqu": 7912,
      "lev": 7913,
      "Ġdict": 7914,
      "Ġdiced": 7915,
      "usi": 7916,
      "Ġhttp": 7917,
      "Ġbeat": 7918,
      "ĠAWS": 7919,
      "ading": 7920,
      "ĠCor": 7921,
      "ĠClean": 7922,
      "peg": 7923,
      "plane": 7924,
      "opol": 7925,
      "ĠExt": 7926,
      "ĠEdit": 7927,
      "ĠBI": 7928,
      "ĠBar": 7929,
      "ĠBack": 7930,
      "ĠBERT": 7931,
      "Ġkill": 7932,
      "velength": 7933,
      "Ġ2000": 7934,
      "Ġquad": 7935,
      "Ġfees": 7936,
      "Ġrogue": 7937,
      "Ġspr": 7938,
      "Ġinterrupt": 7939,
      "Ġapologies": 7940,
      "âĢľ": 7941,
      "Ġvariations": 7942,
      "Ġcurves": 7943,
      "obj": 7944,
      "Ġmatplotlib": 7945,
      "Ġinfring": 7946,
      "Ġseeing": 7947,
      "Ġextr": 7948,
      "Ġequality": 7949,
      "Ġinsight": 7950,
      "Ġdiameter": 7951,
      "Ġpatent": 7952,
      "Ġoperates": 7953,
      "Ġimprovements": 7954,
      "Ġdiscipl": 7955,
      "Ġreduction": 7956,
      "Ġstreet": 7957,
      "Ġgrows": 7958,
      "Ġtradition": 7959,
      "ĠDeep": 7960,
      "Ġgrew": 7961,
      "ashion": 7962,
      "Ġcertainly": 7963,
      "Ġuniversity": 7964,
      "Ġpreventing": 7965,
      "ĠShow": 7966,
      "author": 7967,
      "Ġdeeply": 7968,
      "Ġtreasure": 7969,
      "Ġautomate": 7970,
      "Ġpaths": 7971,
      "Ġtracking": 7972,
      "++)": 7973,
      "Ġexcited": 7974,
      "Ġdisplayed": 7975,
      "Ġphoto": 7976,
      "Ġselecting": 7977,
      "Ġ>=": 7978,
      "what": 7979,
      "Ġcommitted": 7980,
      "ĠBritain": 7981,
      "Ġmotivations": 7982,
      "Ġassuming": 7983,
      "ĠMathemat": 7984,
      "Ġscalable": 7985,
      "ĠFlask": 7986,
      "ĠRussian": 7987,
      "Ġinstruments": 7988,
      "ugging": 7989,
      "ĠFebruary": 7990,
      "Ġseeds": 7991,
      "Ġbullet": 7992,
      "Ġsocietal": 7993,
      "Ġorders": 7994,
      "Ġrestaurants": 7995,
      "Ġpleasure": 7996,
      "Ġmedicine": 7997,
      "Ġcredentials": 7998,
      "Ġincoming": 7999,
      "ĠReturn": 8000,
      "Ġiconic": 8001,
      "Ð¾Ð": 8002,
      "ĠAustralia": 8003,
      "Ġfascinating": 8004,
      "Ġbubble": 8005,
      "Ingredients": 8006,
      "ĠIdentify": 8007,
      "Ġintricate": 8008,
      "Ġunpredict": 8009,
      ")?": 8010,
      "*.": 8011,
      "DR": 8012,
      "Dr": 8013,
      "EM": 8014,
      "Gener": 8015,
      "Other": 8016,
      "UN": 8017,
      "User": 8018,
      "ded": 8019,
      "fu": 8020,
      "ji": 8021,
      "node": 8022,
      "rations": 8023,
      "sudo": 8024,
      "zero": 8025,
      "Ġtags": 8026,
      "orph": 8027,
      "ena": 8028,
      "itzer": 8029,
      "Ġfis": 8030,
      "Ġtoward": 8031,
      "icip": 8032,
      "Ġhund": 8033,
      "omething": 8034,
      "Ġgases": 8035,
      "Ġgene": 8036,
      "status": 8037,
      "utely": 8038,
      "Ġorb": 8039,
      "ĠSal": 8040,
      "ĠCy": 8041,
      "Ġheap": 8042,
      "ĠHung": 8043,
      "ĠPress": 8044,
      "Ġrust": 8045,
      "Ġchances": 8046,
      "Ġchapter": 8047,
      "Ġnoticed": 8048,
      "ĠDist": 8049,
      "Ġplt": 8050,
      "acter": 8051,
      "ĠRemember": 8052,
      "ĠRaspberry": 8053,
      "Ġcomposed": 8054,
      "ĠNFT": 8055,
      "apple": 8056,
      "Then": 8057,
      "ĠJoin": 8058,
      "Ġkept": 8059,
      "Ġpartner": 8060,
      "ysics": 8061,
      "Ġcovers": 8062,
      "Ġgameplay": 8063,
      "Ġconfirm": 8064,
      "ĠUnfortunately": 8065,
      "Ġmeanings": 8066,
      "Ġpurs": 8067,
      "Ġconnecting": 8068,
      "Ġbasics": 8069,
      "Ġorganized": 8070,
      "Ġcalculations": 8071,
      "Ġcalculates": 8072,
      "Ġdriven": 8073,
      "Ġfreely": 8074,
      "Ġsucceed": 8075,
      "ximity": 8076,
      "Ġcontributing": 8077,
      "ĠSeptember": 8078,
      "Ġcollapse": 8079,
      "ĠClass": 8080,
      "Ġvalidate": 8081,
      "Ġfarming": 8082,
      "Ġemotion": 8083,
      "Ġconsistency": 8084,
      "Ġputting": 8085,
      "ependent": 8086,
      "Ġlabeled": 8087,
      "Ġexpressed": 8088,
      "Ġshaped": 8089,
      "Ġsymbols": 8090,
      "Ġsatell": 8091,
      "Ġkeyboards": 8092,
      "Ġproteins": 8093,
      "ĠControl": 8094,
      "ĠManagement": 8095,
      "content": 8096,
      "ĠDescribe": 8097,
      "Ġcasting": 8098,
      "ĠMarx": 8099,
      "ypes": 8100,
      "Ġurban": 8101,
      "JJJJ": 8102,
      "Ġapartment": 8103,
      "ĠGPUs": 8104,
      "Ġgods": 8105,
      "Ġdecrease": 8106,
      "Ġincredibly": 8107,
      "inguish": 8108,
      "ĠElectron": 8109,
      "Ġearthquake": 8110,
      "Ġcontroversial": 8111,
      "Ġtoxic": 8112,
      "Ġunnecessary": 8113,
      "Ġenthusi": 8114,
      "68": 8115,
      "<!": 8116,
      "ELE": 8117,
      "Link": 8118,
      "Next": 8119,
      "New": 8120,
      "Options": 8121,
      "Sp": 8122,
      "bo": 8123,
      "dat": 8124,
      "late": 8125,
      "mand": 8126,
      "mos": 8127,
      "night": 8128,
      "oan": 8129,
      "pg": 8130,
      "ui": 8131,
      "uing": 8132,
      "void": 8133,
      "};": 8134,
      "Ġ;": 8135,
      "inator": 8136,
      "heat": 8137,
      "heet": 8138,
      "Ġca": 8139,
      "ouds": 8140,
      "itable": 8141,
      "Ġmort": 8142,
      "Ġduck": 8143,
      "aration": 8144,
      "Ġreverse": 8145,
      "Ġnpm": 8146,
      "ett": 8147,
      "Ġgentle": 8148,
      "ĠIron": 8149,
      "Ġbeach": 8150,
      "Ġstorm": 8151,
      "Ġstages": 8152,
      "Ġproximity": 8153,
      "ĠAir": 8154,
      "seg": 8155,
      "select": 8156,
      "ĠSir": 8157,
      "ĠSometimes": 8158,
      "Ġalive": 8159,
      "Ġheating": 8160,
      "riers": 8161,
      "ĠHouse": 8162,
      "ested": 8163,
      "ĠPut": 8164,
      "Ġrating": 8165,
      "Ġ\"<": 8166,
      "ourced": 8167,
      "ĠBel": 8168,
      "ĠFort": 8169,
      "ĠRel": 8170,
      "Ġcomparing": 8171,
      "Ġcompelling": 8172,
      "ĠLoad": 8173,
      "Ġcreature": 8174,
      "aste": 8175,
      "ĠNight": 8176,
      "Ġdatetime": 8177,
      "Ġroast": 8178,
      "Ġarm": 8179,
      "context": 8180,
      "ĠJew": 8181,
      "comp": 8182,
      "Ġgenerations": 8183,
      "ĠViet": 8184,
      "Ġregist": 8185,
      "Ġregul": 8186,
      "Ġtransmission": 8187,
      "Ġproduces": 8188,
      "Ġcurv": 8189,
      "Ġadvis": 8190,
      "Ġrecording": 8191
    },
    "merges": [
      [
        "Ġ",
        "t"
      ],
      [
        "Ġ",
        "a"
      ],
      [
        "i",
        "n"
      ],
      [
        "h",
        "e"
      ],
      [
        "r",
        "e"
      ],
      [
        "o",
        "n"
      ],
      [
        "e",
        "r"
      ],
      [
        "Ġt",
        "he"
      ],
      [
        "Ġ",
        "s"
      ],
      [
        "a",
        "t"
      ],
      [
        "Ġ",
        "c"
      ],
      [
        "o",
        "r"
      ],
      [
        "a",
        "n"
      ],
      [
        "i",
        "s"
      ],
      [
        "e",
        "n"
      ],
      [
        "o",
        "u"
      ],
      [
        "Ġa",
        "n"
      ],
      [
        "e",
        "s"
      ],
      [
        "i",
        "t"
      ],
      [
        "Ġ",
        "w"
      ],
      [
        "Ġ",
        "p"
      ],
      [
        "in",
        "g"
      ],
      [
        "Ġ",
        "f"
      ],
      [
        "Ġ",
        "o"
      ],
      [
        "Ġ",
        "m"
      ],
      [
        "Ġan",
        "d"
      ],
      [
        "Ġ",
        "b"
      ],
      [
        "a",
        "l"
      ],
      [
        "Ġt",
        "o"
      ],
      [
        "Ġ",
        "in"
      ],
      [
        "l",
        "e"
      ],
      [
        "Ġ",
        "d"
      ],
      [
        "a",
        "r"
      ],
      [
        "Ġo",
        "f"
      ],
      [
        "i",
        "on"
      ],
      [
        "i",
        "c"
      ],
      [
        "e",
        "d"
      ],
      [
        "a",
        "s"
      ],
      [
        "u",
        "s"
      ],
      [
        "r",
        "o"
      ],
      [
        "Ġt",
        "h"
      ],
      [
        "Ġ",
        "h"
      ],
      [
        "Ġ",
        "y"
      ],
      [
        "Ġ",
        "e"
      ],
      [
        "c",
        "t"
      ],
      [
        "o",
        "m"
      ],
      [
        "Ġy",
        "ou"
      ],
      [
        "Ġ",
        "l"
      ],
      [
        "en",
        "t"
      ],
      [
        "Ġ",
        "re"
      ],
      [
        "v",
        "e"
      ],
      [
        "Ġ",
        "n"
      ],
      [
        "e",
        "t"
      ],
      [
        "Ġ",
        "is"
      ],
      [
        "i",
        "l"
      ],
      [
        "i",
        "m"
      ],
      [
        "Ġ",
        "g"
      ],
      [
        "Ġ",
        "I"
      ],
      [
        "o",
        "w"
      ],
      [
        "Ġ",
        "T"
      ],
      [
        "e",
        "l"
      ],
      [
        "is",
        "t"
      ],
      [
        ">",
        ":"
      ],
      [
        "s",
        "t"
      ],
      [
        "Ġf",
        "or"
      ],
      [
        "c",
        "h"
      ],
      [
        "an",
        "t"
      ],
      [
        "a",
        "m"
      ],
      [
        "i",
        "d"
      ],
      [
        "Ġth",
        "at"
      ],
      [
        "c",
        "e"
      ],
      [
        "Ġb",
        "e"
      ],
      [
        "o",
        "l"
      ],
      [
        "at",
        "ion"
      ],
      [
        "o",
        "t"
      ],
      [
        "u",
        "t"
      ],
      [
        "i",
        "g"
      ],
      [
        "u",
        "n"
      ],
      [
        "l",
        "y"
      ],
      [
        "Ġ",
        "on"
      ],
      [
        "Ġs",
        "t"
      ],
      [
        "i",
        "f"
      ],
      [
        "a",
        "y"
      ],
      [
        "Ġ",
        "it"
      ],
      [
        "it",
        "h"
      ],
      [
        "Ġp",
        "ro"
      ],
      [
        "Ġa",
        "s"
      ],
      [
        "v",
        "er"
      ],
      [
        "Ġc",
        "an"
      ],
      [
        "o",
        "d"
      ],
      [
        "r",
        "a"
      ],
      [
        "u",
        "l"
      ],
      [
        "Ġc",
        "on"
      ],
      [
        "Ġ",
        "A"
      ],
      [
        "u",
        "r"
      ],
      [
        "Ġw",
        "ith"
      ],
      [
        "as",
        "s"
      ],
      [
        "Ġ",
        "or"
      ],
      [
        "Ġa",
        "re"
      ],
      [
        "s",
        "e"
      ],
      [
        "Ġ",
        "us"
      ],
      [
        "g",
        "e"
      ],
      [
        "i",
        "r"
      ],
      [
        "Ġ",
        "S"
      ],
      [
        "at",
        "e"
      ],
      [
        "l",
        "d"
      ],
      [
        "Ġe",
        "x"
      ],
      [
        "a",
        "d"
      ],
      [
        "Ġ",
        "C"
      ],
      [
        "k",
        "e"
      ],
      [
        "Ġc",
        "om"
      ],
      [
        "u",
        "m"
      ],
      [
        "Ġw",
        "h"
      ],
      [
        "Ġa",
        "l"
      ],
      [
        "he",
        "r"
      ],
      [
        "q",
        "u"
      ],
      [
        "er",
        "s"
      ],
      [
        "u",
        "re"
      ],
      [
        "ist",
        "ant"
      ],
      [
        "es",
        "s"
      ],
      [
        "Ġyou",
        "r"
      ],
      [
        "Ġd",
        "e"
      ],
      [
        "us",
        "er"
      ],
      [
        "p",
        "e"
      ],
      [
        "t",
        "er"
      ],
      [
        "a",
        "b"
      ],
      [
        "ĠT",
        "he"
      ],
      [
        "ass",
        "istant"
      ],
      [
        "Ġ",
        "v"
      ],
      [
        "Ġ",
        "he"
      ],
      [
        "r",
        "i"
      ],
      [
        "o",
        "re"
      ],
      [
        "e",
        "re"
      ],
      [
        "ou",
        "ld"
      ],
      [
        "Ġs",
        "u"
      ],
      [
        "p",
        "l"
      ],
      [
        "t",
        "h"
      ],
      [
        "it",
        "y"
      ],
      [
        "'",
        "s"
      ],
      [
        "e",
        "m"
      ],
      [
        "o",
        "p"
      ],
      [
        "Ġ",
        "H"
      ],
      [
        "es",
        "t"
      ],
      [
        "c",
        "k"
      ],
      [
        "ou",
        "t"
      ],
      [
        "ig",
        "h"
      ],
      [
        "Ġn",
        "e"
      ],
      [
        "m",
        "ent"
      ],
      [
        "p",
        "t"
      ],
      [
        "a",
        "in"
      ],
      [
        "or",
        "t"
      ],
      [
        "Ġh",
        "a"
      ],
      [
        "Ġ",
        "W"
      ],
      [
        "Ġ",
        "P"
      ],
      [
        "i",
        "ve"
      ],
      [
        "an",
        "d"
      ],
      [
        "il",
        "l"
      ],
      [
        "e",
        "ct"
      ],
      [
        "Ġ",
        "r"
      ],
      [
        "o",
        "s"
      ],
      [
        "i",
        "es"
      ],
      [
        "Ġ",
        "im"
      ],
      [
        "n",
        "t"
      ],
      [
        "Ġ",
        "le"
      ],
      [
        "Ġ",
        "\""
      ],
      [
        "Ġc",
        "h"
      ],
      [
        "Ġ",
        "M"
      ],
      [
        "Ġ",
        "en"
      ],
      [
        "p",
        "le"
      ],
      [
        "om",
        "e"
      ],
      [
        "Ġha",
        "ve"
      ],
      [
        "ion",
        "s"
      ],
      [
        "Ġ",
        "("
      ],
      [
        "a",
        "ge"
      ],
      [
        "igh",
        "t"
      ],
      [
        "ro",
        "m"
      ],
      [
        "i",
        "z"
      ],
      [
        "Ġ",
        "un"
      ],
      [
        "Ġs",
        "e"
      ],
      [
        "Ġm",
        "e"
      ],
      [
        "p",
        "er"
      ],
      [
        "Ġb",
        "y"
      ],
      [
        "Ġn",
        "ot"
      ],
      [
        "in",
        "e"
      ],
      [
        "i",
        "al"
      ],
      [
        "Ġm",
        "a"
      ],
      [
        "i",
        "v"
      ],
      [
        "Ġs",
        "h"
      ],
      [
        "Ġw",
        "or"
      ],
      [
        "p",
        "p"
      ],
      [
        "en",
        "d"
      ],
      [
        "o",
        "c"
      ],
      [
        "ou",
        "r"
      ],
      [
        "ic",
        "al"
      ],
      [
        "u",
        "d"
      ],
      [
        "Ġ",
        "E"
      ],
      [
        "Ġ",
        "1"
      ],
      [
        "id",
        "e"
      ],
      [
        "Ġ",
        "D"
      ],
      [
        "Ġp",
        "l"
      ],
      [
        "t",
        "her"
      ],
      [
        "Ġa",
        "b"
      ],
      [
        "al",
        "l"
      ],
      [
        "Ġ",
        "B"
      ],
      [
        "Ġin",
        "t"
      ],
      [
        "re",
        "s"
      ],
      [
        "Ġf",
        "rom"
      ],
      [
        "am",
        "e"
      ],
      [
        "a",
        "ct"
      ],
      [
        "ar",
        "t"
      ],
      [
        "n",
        "d"
      ],
      [
        "Ġ",
        "F"
      ],
      [
        "ĠT",
        "h"
      ],
      [
        "o",
        "g"
      ],
      [
        "el",
        "l"
      ],
      [
        "Ġ",
        "="
      ],
      [
        "i",
        "le"
      ],
      [
        "Ġ",
        "G"
      ],
      [
        "Ġa",
        "d"
      ],
      [
        "or",
        "m"
      ],
      [
        "`",
        "`"
      ],
      [
        "Ġw",
        "e"
      ],
      [
        "us",
        "t"
      ],
      [
        "Ġ",
        "R"
      ],
      [
        "Ġth",
        "is"
      ],
      [
        "ic",
        "h"
      ],
      [
        "Ġa",
        "t"
      ],
      [
        "a",
        "re"
      ],
      [
        "ab",
        "le"
      ],
      [
        "Ġm",
        "ore"
      ],
      [
        "c",
        "l"
      ],
      [
        "-",
        "-"
      ],
      [
        "Ġd",
        "o"
      ],
      [
        "Ġim",
        "p"
      ],
      [
        "Ġ",
        "k"
      ],
      [
        "Ġcom",
        "p"
      ],
      [
        "Ġcon",
        "t"
      ],
      [
        "Ġ",
        "L"
      ],
      [
        "ul",
        "t"
      ],
      [
        "Ġl",
        "i"
      ],
      [
        "e",
        "p"
      ],
      [
        "Ġo",
        "ther"
      ],
      [
        "ar",
        "d"
      ],
      [
        "ation",
        "s"
      ],
      [
        "a",
        "g"
      ],
      [
        "r",
        "y"
      ],
      [
        "Ġre",
        "s"
      ],
      [
        "r",
        "ou"
      ],
      [
        "f",
        "orm"
      ],
      [
        "an",
        "g"
      ],
      [
        "c",
        "ess"
      ],
      [
        "Ġthe",
        "ir"
      ],
      [
        "Ġwh",
        "ich"
      ],
      [
        "in",
        "d"
      ],
      [
        "f",
        "f"
      ],
      [
        "ve",
        "l"
      ],
      [
        "Ġt",
        "e"
      ],
      [
        "u",
        "p"
      ],
      [
        "as",
        "e"
      ],
      [
        "k",
        "ing"
      ],
      [
        "u",
        "e"
      ],
      [
        "Ġus",
        "e"
      ],
      [
        "ct",
        "ion"
      ],
      [
        "a",
        "ck"
      ],
      [
        "Ġs",
        "ome"
      ],
      [
        "i",
        "re"
      ],
      [
        "s",
        "o"
      ],
      [
        "Ġc",
        "re"
      ],
      [
        "i",
        "e"
      ],
      [
        "Ġw",
        "he"
      ],
      [
        "Ġ",
        "O"
      ],
      [
        "Ġw",
        "as"
      ],
      [
        "Ġw",
        "ill"
      ],
      [
        "Ġ",
        "2"
      ],
      [
        "an",
        "ce"
      ],
      [
        "Ġhe",
        "l"
      ],
      [
        "ĠTh",
        "is"
      ],
      [
        "Ġ",
        "qu"
      ],
      [
        "l",
        "ow"
      ],
      [
        "im",
        "e"
      ],
      [
        "Ġs",
        "c"
      ],
      [
        "g",
        "h"
      ],
      [
        "an",
        "s"
      ],
      [
        "en",
        "ce"
      ],
      [
        "Ġsu",
        "ch"
      ],
      [
        "b",
        "le"
      ],
      [
        "c",
        "es"
      ],
      [
        "Ġhel",
        "p"
      ],
      [
        "d",
        "er"
      ],
      [
        "Ġg",
        "o"
      ],
      [
        "if",
        "f"
      ],
      [
        "o",
        "st"
      ],
      [
        "Ġs",
        "pe"
      ],
      [
        "as",
        "t"
      ],
      [
        "Ġm",
        "od"
      ],
      [
        "d",
        "u"
      ],
      [
        "ou",
        "s"
      ],
      [
        "a",
        "ch"
      ],
      [
        "at",
        "ed"
      ],
      [
        "Ġ",
        "Y"
      ],
      [
        "Ġc",
        "l"
      ],
      [
        "Ġh",
        "as"
      ],
      [
        "Ġb",
        "ut"
      ],
      [
        "Ġf",
        "e"
      ],
      [
        "Ġ",
        "N"
      ],
      [
        "Ġ",
        "-"
      ],
      [
        "Ġ",
        "if"
      ],
      [
        "Ġs",
        "o"
      ],
      [
        "Ġd",
        "at"
      ],
      [
        "it",
        "e"
      ],
      [
        "Ġm",
        "an"
      ],
      [
        "Ġw",
        "ould"
      ],
      [
        "ic",
        "e"
      ],
      [
        "o",
        "o"
      ],
      [
        "k",
        "s"
      ],
      [
        "Ġan",
        "y"
      ],
      [
        "Ġ",
        "j"
      ],
      [
        "on",
        "g"
      ],
      [
        "or",
        "y"
      ],
      [
        "Ġa",
        "c"
      ],
      [
        "Ġs",
        "y"
      ],
      [
        "ig",
        "n"
      ],
      [
        "Ġm",
        "ay"
      ],
      [
        "Ġd",
        "iff"
      ],
      [
        "Ġt",
        "ra"
      ],
      [
        "ĠW",
        "h"
      ],
      [
        "if",
        "ic"
      ],
      [
        "x",
        "t"
      ],
      [
        "a",
        "v"
      ],
      [
        "a",
        "p"
      ],
      [
        "ar",
        "y"
      ],
      [
        "Ġ",
        "U"
      ],
      [
        "0",
        "0"
      ],
      [
        "Ġthe",
        "y"
      ],
      [
        "u",
        "al"
      ],
      [
        "Ġal",
        "so"
      ],
      [
        "in",
        "t"
      ],
      [
        "Ġab",
        "out"
      ],
      [
        "ĠI",
        "t"
      ],
      [
        "cl",
        "ud"
      ],
      [
        "a",
        "ce"
      ],
      [
        "it",
        "ion"
      ],
      [
        "j",
        "ect"
      ],
      [
        "n",
        "ow"
      ],
      [
        "a",
        "c"
      ],
      [
        "Ġcom",
        "m"
      ],
      [
        "i",
        "p"
      ],
      [
        "od",
        "e"
      ],
      [
        "Ġli",
        "ke"
      ],
      [
        "Ġne",
        "ed"
      ],
      [
        "Ġ",
        "out"
      ],
      [
        "Ġ",
        "up"
      ],
      [
        "r",
        "u"
      ],
      [
        "Ġm",
        "y"
      ],
      [
        "b",
        "er"
      ],
      [
        "Ġ",
        "ro"
      ],
      [
        "ĠI",
        "n"
      ],
      [
        "Ġa",
        "r"
      ],
      [
        "Ġpro",
        "v"
      ],
      [
        "Ġf",
        "un"
      ],
      [
        "Ġin",
        "clud"
      ],
      [
        "Ġp",
        "re"
      ],
      [
        "Ġh",
        "ow"
      ],
      [
        "Ġcon",
        "s"
      ],
      [
        "Ġd",
        "is"
      ],
      [
        "on",
        "e"
      ],
      [
        "Ġex",
        "am"
      ],
      [
        "st",
        "em"
      ],
      [
        "Ġit",
        "s"
      ],
      [
        "Ġdat",
        "a"
      ],
      [
        "or",
        "s"
      ],
      [
        "en",
        "s"
      ],
      [
        "Ġthe",
        "re"
      ],
      [
        "Ġus",
        "ed"
      ],
      [
        "Ġe",
        "v"
      ],
      [
        "i",
        "ent"
      ],
      [
        "Ġt",
        "ime"
      ],
      [
        "T",
        "he"
      ],
      [
        "Ġc",
        "ould"
      ],
      [
        "Ġthe",
        "m"
      ],
      [
        "Ġp",
        "er"
      ],
      [
        "Ġk",
        "now"
      ],
      [
        "Ġs",
        "p"
      ],
      [
        "l",
        "o"
      ],
      [
        "res",
        "s"
      ],
      [
        "Ġspe",
        "c"
      ],
      [
        "ĠH",
        "ow"
      ],
      [
        "Ġus",
        "ing"
      ],
      [
        "et",
        "w"
      ],
      [
        "a",
        "il"
      ],
      [
        "Ġd",
        "es"
      ],
      [
        "Ġal",
        "l"
      ],
      [
        "c",
        "on"
      ],
      [
        "f",
        "t"
      ],
      [
        "Ġon",
        "e"
      ],
      [
        "``",
        "`"
      ],
      [
        "Ġt",
        "r"
      ],
      [
        "Ġdiff",
        "ere"
      ],
      [
        "at",
        "ing"
      ],
      [
        "n",
        "ing"
      ],
      [
        "ar",
        "i"
      ],
      [
        "Ġ",
        "J"
      ],
      [
        "Ġo",
        "ver"
      ],
      [
        "Ġsy",
        "stem"
      ],
      [
        "ou",
        "nt"
      ],
      [
        "r",
        "am"
      ],
      [
        "p",
        "ut"
      ],
      [
        "Ġint",
        "o"
      ],
      [
        "en",
        "er"
      ],
      [
        "el",
        "y"
      ],
      [
        "Ġimp",
        "ort"
      ],
      [
        "Ġs",
        "er"
      ],
      [
        "Ġma",
        "ke"
      ],
      [
        "at",
        "er"
      ],
      [
        "Ġc",
        "ol"
      ],
      [
        "a",
        "ke"
      ],
      [
        "Ġne",
        "w"
      ],
      [
        "c",
        "om"
      ],
      [
        "ĠY",
        "ou"
      ],
      [
        "Ġwh",
        "at"
      ],
      [
        "ic",
        "s"
      ],
      [
        "iz",
        "e"
      ],
      [
        "a",
        "k"
      ],
      [
        "ul",
        "ar"
      ],
      [
        "at",
        "ure"
      ],
      [
        "Ġc",
        "ode"
      ],
      [
        "Ġad",
        "d"
      ],
      [
        "Ġun",
        "der"
      ],
      [
        "Ġ",
        "3"
      ],
      [
        "le",
        "d"
      ],
      [
        "f",
        "ul"
      ],
      [
        "Ġin",
        "ter"
      ],
      [
        "Ġa",
        "m"
      ],
      [
        "ang",
        "u"
      ],
      [
        "Ġw",
        "ay"
      ],
      [
        "vel",
        "op"
      ],
      [
        "u",
        "b"
      ],
      [
        "Ġ",
        "ke"
      ],
      [
        "Ġmod",
        "el"
      ],
      [
        "ĠWh",
        "at"
      ],
      [
        "Ġthe",
        "se"
      ],
      [
        "Ġa",
        "p"
      ],
      [
        "al",
        "ly"
      ],
      [
        "'",
        "t"
      ],
      [
        "i",
        "ble"
      ],
      [
        "or",
        "d"
      ],
      [
        "ing",
        "s"
      ],
      [
        "il",
        "d"
      ],
      [
        "â",
        "Ģ"
      ],
      [
        "Ġh",
        "is"
      ],
      [
        "ol",
        "og"
      ],
      [
        "Ġe",
        "m"
      ],
      [
        "at",
        "es"
      ],
      [
        "Ġl",
        "angu"
      ],
      [
        "er",
        "m"
      ],
      [
        "Ġp",
        "os"
      ],
      [
        "Ġexam",
        "ple"
      ],
      [
        "o",
        "ve"
      ],
      [
        "Ġa",
        "pp"
      ],
      [
        "as",
        "ed"
      ],
      [
        "Ġs",
        "et"
      ],
      [
        "Ġwh",
        "o"
      ],
      [
        "p",
        "en"
      ],
      [
        "a",
        "us"
      ],
      [
        "ver",
        "s"
      ],
      [
        "il",
        "ity"
      ],
      [
        "Ġp",
        "r"
      ],
      [
        "Ġs",
        "im"
      ],
      [
        "Ġp",
        "art"
      ],
      [
        "ver",
        "y"
      ],
      [
        "Ġsh",
        "ould"
      ],
      [
        "Ġt",
        "y"
      ],
      [
        "Ġdiffere",
        "nt"
      ],
      [
        "on",
        "s"
      ],
      [
        "Ġn",
        "um"
      ],
      [
        "et",
        "h"
      ],
      [
        "ment",
        "s"
      ],
      [
        "ent",
        "s"
      ],
      [
        "Ġre",
        "l"
      ],
      [
        "ic",
        "k"
      ],
      [
        "Ġin",
        "d"
      ],
      [
        "Ġg",
        "ener"
      ],
      [
        "ĠS",
        "t"
      ],
      [
        "Ġpro",
        "g"
      ],
      [
        "Ġre",
        "qu"
      ],
      [
        "Ġp",
        "h"
      ],
      [
        "Ġh",
        "um"
      ],
      [
        "el",
        "f"
      ],
      [
        "Ġe",
        "ff"
      ],
      [
        "Ġwor",
        "k"
      ],
      [
        "Ġe",
        "ach"
      ],
      [
        "Ġv",
        "al"
      ],
      [
        "ou",
        "nd"
      ],
      [
        "Ġo",
        "b"
      ],
      [
        "ĠI",
        "f"
      ],
      [
        "Ġde",
        "velop"
      ],
      [
        "re",
        "e"
      ],
      [
        "Ġin",
        "st"
      ],
      [
        "an",
        "ge"
      ],
      [
        "â",
        "ĸ"
      ],
      [
        "l",
        "l"
      ],
      [
        "is",
        "h"
      ],
      [
        "Ġle",
        "ar"
      ],
      [
        "o",
        "se"
      ],
      [
        "Ġp",
        "e"
      ],
      [
        "le",
        "ct"
      ],
      [
        "Ġfun",
        "ction"
      ],
      [
        "p",
        "h"
      ],
      [
        "Ġa",
        "ct"
      ],
      [
        "Ġin",
        "v"
      ],
      [
        "Ċ",
        "Ċ"
      ],
      [
        "Ġimport",
        "ant"
[...]
