{
  "version": "1.0",
  "truncation": null,
  "padding": null,
  "added_tokens": [
    {
      "id": 0,
      "content": "<pad>",
      "single_word": false,
      "lstrip": false,
      "rstrip": false,
      "normalized": false,
      "special": true
    },
    {
      "id": 1,
      "content": "<unk>",
      "single_word": false,
      "lstrip": false,
      "rstrip": false,
      "normalized": false,
      "special": true
    },
    {
      "id": 2,
      "content": "<bos>",
      "single_word": false,
      "lstrip": false,
      "rstrip": false,
      "normalized": false,
      "special": true
    },
    {
      "id": 3,
      "content": "<eos>",
      "single_word": false,
      "lstrip": false,
      "rstrip": false,
      "normalized": false,
      "special": true
    },
    {
      "id": 4,
      "content": "<user>",
      "single_word": false,
      "lstrip": false,
      "rstrip": false,
      "normalized": false,
      "special": true
    },
    {
      "id": 5,
      "content": "<assistant>",
      "single_word": false,
      "lstrip": false,
      "rstrip": false,
      "normalized": false,
      "special": true
    },
    {
      "id": 6,
      "content": "<system>",
      "single_word": false,
      "lstrip": false,
      "rstrip": false,
      "normalized": false,
      "special": true
    }
  ],
  "normalizer": null,
  "pre_tokenizer": {
    "type": "ByteLevel",
    "add_prefix_space": false,
    "trim_offsets": true,
    "use_regex": true
  },
  "post_processor": null,
  "decoder": {
    "type": "ByteLevel",
    "add_prefix_space": true,
    "trim_offsets": true,
    "use_regex": true
  },
  "model": {
    "type": "BPE",
    "dropout": null,
    "unk_token": "<unk>",
    "continuing_subword_prefix": null,
    "end_of_word_suffix": null,
    "fuse_unk": false,
    "byte_fallback": false,
    "ignore_merges": false,
    "vocab": {
      "<pad>": 0,
      "<unk>": 1,
      "<bos>": 2,
      "<eos>": 3,
      "<user>": 4,
      "<assistant>": 5,
      "<system>": 6,
      "!": 7,
      "\"": 8,
      "#": 9,
      "%": 10,
      "'": 11,
      "(": 12,
      ")": 13,
      "*": 14,
      "+": 15,
      ",": 16,
      "-": 17,
      ".": 18,
      "/": 19,
      "0": 20,
      "1": 21,
      "2": 22,
      "3": 23,
      "4": 24,
      "5": 25,
      "6": 26,
      "7": 27,
      "8": 28,
      "9": 29,
      ":": 30,
      ";": 31,
      "<": 32,
      "=": 33,
      ">": 34,
      "?": 35,
      "A": 36,
      "B": 37,
      "C": 38,
      "D": 39,
      "E": 40,
      "F": 41,
      "G": 42,
      "H": 43,
      "I": 44,
      "J": 45,
      "K": 46,
      "L": 47,
      "M": 48,
      "N": 49,
      "O": 50,
      "P": 51,
      "Q": 52,
      "R": 53,
      "S": 54,
      "T": 55,
      "U": 56,
      "V": 57,
      "W": 58,
      "Y": 59,
      "Z": 60,
      "[": 61,
      "\\": 62,
      "]": 63,
      "_": 64,
      "`": 65,
      "a": 66,
      "b": 67,
      "c": 68,
      "d": 69,
      "e": 70,
      "f": 71,
      "g": 72,
      "h": 73,
      "i": 74,
      "j": 75,
      "k": 76,
      "l": 77,
      "m": 78,
      "n": 79,
      "o": 80,
      "p": 81,
      "q": 82,
      "r": 83,
      "s": 84,
      "t": 85,
      "u": 86,
      "v": 87,
      "w": 88,
      "x": 89,
      "y": 90,
      "z": 91,
      "{": 92,
      "}": 93,
      "·": 94,
      "Ã": 95,
      "â": 96,
      "ð": 97,
      "Ċ": 98,
      "Ġ": 99,
      "Ģ": 100,
      "Ĵ": 101,
      "Ķ": 102,
      "Ĺ": 103,
      "Ł": 104,
      "Ń": 105,
      "Ġa": 106,
      "nt": 107,
      "st": 108,
      "er": 109,
      ">:": 110,
      "si": 111,
      "sta": 112,
      "ssi": 113,
      "stant": 114,
      "ssistant": 115,
      "ou": 116,
      "re": 117,
      "al": 118,
      "he": 119,
      "me": 120,
      "ĠC": 121,
      "li": 122,
      "Ġe": 123,
      "Ġi": 124,
      "hu": 125,
      "hud": 126,
      "GP": 127,
      "GPT": 128,
      "ĠChud": 129,
      "ĠChudGPT": 130,
      "Ġt": 131,
      "us": 132,
      "Ġare": 133,
      "xp": 134,
      "on": 135,
      "ĠA": 136,
      "ul": 137,
      "em": 138,
      "Ġexp": 139,
      "eri": 140,
      "lic": 141,
      "ub": 142,
      "ublic": 143,
      "Ġexperi": 144,
      "Public": 145,
      "ment": 146,
      "Ġhe": 147,
      "ĠY": 148,
      "ful": 149,
      "Ġexperiment": 150,
      "lp": 151,
      "Ġexperimental": 152,
      "ĠYou": 153,
      "Ġhelp": 154,
      "yst": 155,
      "ĠAI": 156,
      "Ġassistant": 157,
      "ystem": 158,
      "system": 159,
      "Ġhelpful": 160,
      "user": 161,
      "assistant": 162,
      "at": 163,
      "Ġc": 164,
      "in": 165,
      "Ġo": 166,
      "nd": 167,
      "ĠI": 168,
      "Ġs": 169,
      "``": 170,
      "ri": 171,
      "hat": 172,
      "Ġm": 173,
      "Ġp": 174,
      "le": 175,
      "ĠW": 176,
      "Ġf": 177,
      "th": 178,
      "Ġw": 179,
      "Ġis": 180,
      "de": 181,
      "an": 182,
      "or": 183,
      "Ġ1": 184,
      "Ġn": 185,
      "Ġb": 186,
      "Ġthe": 187,
      "Ġd": 188,
      "ed": 189,
      "Ġit": 190,
      "la": 191,
      "es": 192,
      "ion": 193,
      "Ġand": 194,
      "Ġ=": 195,
      "Ġ2": 196,
      "mb": 197,
      "ar": 198,
      "mber": 199,
      "```": 200,
      "umber": 201,
      "Ġto": 202,
      "Ġof": 203,
      "ĠP": 204,
      "se": 205,
      "ro": 206,
      "you": 207,
      "Ġre": 208,
      "ing": 209,
      "Ġyou": 210,
      "yth": 211,
      "ython": 212,
      "ĠWhat": 213,
      "el": 214,
      "hi": 215,
      "Ġco": 216,
      "Ġin": 217,
      "Ġg": 218,
      "ct": 219,
      "lo": 220,
      "as": 221,
      "Ġme": 222,
      "ce": 223,
      "ly": 224,
      "en": 225,
      "Ġthat": 226,
      "av": 227,
      "Ġh": 228,
      "Ġmo": 229,
      "te": 230,
      "Ġ-": 231,
      "Ġan": 232,
      "Ġ3": 233,
      "mp": 234,
      "Ġnumber": 235,
      "pt": 236,
      "Ġli": 237,
      "Ġbe": 238,
      "ver": 239,
      "ot": 240,
      "ĠT": 241,
      "rite": 242,
      "ex": 243,
      "ĠPython": 244,
      "ra": 245,
      "Ġ4": 246,
      "Ġon": 247,
      "ow": 248,
      "ĠÃ": 249,
      "ic": 250,
      "Ġdo": 251,
      "Ġ```": 252,
      "ge": 253,
      "ĠWrite": 254,
      "Ġma": 255,
      "ue": 256,
      "iv": 257,
      "Ġor": 258,
      "Ġcan": 259,
      "Ġwi": 260,
      "Ġam": 261,
      "rint": 262,
      "ĠH": 263,
      "Ġfor": 264,
      "ke": 265,
      "del": 266,
      "un": 267,
      "ore": 268,
      "rou": 269,
      "ate": 270,
      "Ġint": 271,
      "Ġ5": 272,
      "ĠÃ·": 273,
      "it": 274,
      "Ġmodel": 275,
      "number": 276,
      "con": 277,
      "hy": 278,
      "gh": 279,
      "ch": 280,
      "Ġ6": 281,
      "ĠM": 282,
      "Ġcon": 283,
      "Ġpro": 284,
      "out": 285,
      "Ġst": 286,
      "ĠG": 287,
      "ĠS": 288,
      "cri": 289,
      "Ġla": 290,
      "ur": 291,
      "Ġus": 292,
      "Ġwith": 293,
      "ft": 294,
      "ndex": 295,
      "ho": 296,
      "ort": 297,
      "python": 298,
      ");": 299,
      "Ġflo": 300,
      "ere": 301,
      "Ġitem": 302,
      "lain": 303,
      "Ġfloat": 304,
      "Ġcla": 305,
      "ap": 306,
      "Ġitems": 307,
      "00": 308,
      "Ġab": 309,
      "Ġdi": 310,
      "ame": 311,
      "ep": 312,
      "ng": 313,
      "Ġ7": 314,
      "cript": 315,
      "ation": 316,
      "ld": 317,
      "ĠU": 318,
      "ĠE": 319,
      "Ġsp": 320,
      "Ġgrou": 321,
      "ally": 322,
      "ption": 323,
      "Ġsh": 324,
      "bel": 325,
      "Ġlabel": 326,
      "Ġgroup": 327,
      "Ġoption": 328,
      "int": 329,
      "lan": 330,
      "ell": 331,
      "Ġso": 332,
      "ght": 333,
      "age": 334,
      "Ġv": 335,
      "his": 336,
      "Ġde": 337,
      "ble": 338,
      "Ġdoes": 339,
      "ĠIn": 340,
      "Ġclamp": 341,
      "Ġabout": 342,
      "const": 343,
      "ll": 344,
      "hift": 345,
      "ction": 346,
      "Ġthis": 347,
      "ive": 348,
      "fse": 349,
      "Ġoffse": 350,
      "Ġcode": 351,
      "hifted": 352,
      "Ġoffset": 353,
      "Ġindex": 354,
      "Ġfa": 355,
      "Ġsi": 356,
      "Ġth": 357,
      "Ġne": 358,
      "Ġ+": 359,
      "ran": 360,
      "Ġits": 361,
      "Ġshort": 362,
      "ant": 363,
      "ĠTell": 364,
      "Ġar": 365,
      "Ġmin": 366,
      "Ġ8": 367,
      "Ġ*": 368,
      "alue": 369,
      "ĠMy": 370,
      "print": 371,
      "wer": 372,
      "Ġprint": 373,
      "qu": 374,
      "ĠF": 375,
      "so": 376,
      "oint": 377,
      "swer": 378,
      "mple": 379,
      "vers": 380,
      "kes": 381,
      "co": 382,
      "lang": 383,
      "mal": 384,
      "Ġconvers": 385,
      "Ġconversation": 386,
      "ĠJ": 387,
      "ĠWhy": 388,
      "Ġone": 389,
      "Ġdou": 390,
      "ext": 391,
      "'s": 392,
      "ence": 393,
      "Ġinto": 394,
      "et": 395,
      "uage": 396,
      "lear": 397,
      "ity": 398,
      "language": 399,
      "Ġat": 400,
      "Ġlanguage": 401,
      "ave": 402,
      "we": 403,
      "ould": 404,
      "Ġ15": 405,
      "Ġanswer": 406,
      "ve": 407,
      "ect": 408,
      "Ġhow": 409,
      "urn": 410,
      "Ġwhat": 411,
      "Ġ10": 412,
      "very": 413,
      "Ġmake": 414,
      "ck": 415,
      "Ġ9": 416,
      "Ġby": 417,
      "Ġstore": 418,
      "Ġlist": 419,
      "Ġad": 420,
      "ĠHow": 421,
      "core": 422,
      "ide": 423,
      "ls": 424,
      "âĢ": 425,
      "Ġdouble": 426,
      "âĢĶ": 427,
      "Ġ`": 428,
      "ure": 429,
      "alk": 430,
      "Ġstores": 431,
      "Ġas": 432,
      "rie": 433,
      "Ġret": 434,
      "Ġyour": 435,
      "ĠThe": 436,
      "ach": 437,
      "Ġtalk": 438,
      "Ġhas": 439,
      "Ġreturn": 440,
      "log": 441,
      "Ġnot": 442,
      "Ġ16": 443,
      "Ġprints": 444,
      "ss": 445,
      "use": 446,
      "Ġfun": 447,
      "Ġwant": 448,
      "sole": 449,
      "ds": 450,
      "Ġwe": 451,
      "Ġcont": 452,
      "Ġhave": 453,
      "ĠK": 454,
      "ous": 455,
      "Ġman": 456,
      "oo": 457,
      "ter": 458,
      "Ġ13": 459,
      "ava": 460,
      "lit": 461,
      "Ġse": 462,
      "ĠGive": 463,
      "Script": 464,
      "ĠJava": 465,
      "Ġ0": 466,
      "Ġsimple": 467,
      "Ġper": 468,
      "ĠKe": 469,
      "20": 470,
      "du": 471,
      "ĠJavaScript": 472,
      "Ġevery": 473,
      "Ġeach": 474,
      "Ġmany": 475,
      "ject": 476,
      "ĠIf": 477,
      "def": 478,
      "80": 479,
      "Ġfunction": 480,
      "arth": 481,
      "rain": 482,
      "40": 483,
      "ile": 484,
      "Ġide": 485,
      "Ġnumbers": 486,
      "Ġnew": 487,
      "ase": 488,
      "Ġlikes": 489,
      "ĠKeep": 490,
      "ause": 491,
      "Ġgroups": 492,
      "ine": 493,
      "ĠEarth": 494,
      "Ġpla": 495,
      "Ġ11": 496,
      "di": 497,
      "Ġplain": 498,
      "Ġcol": 499,
      "Ġadds": 500,
      "value": 501,
      "Ġuse": 502,
      "ay": 503,
      "Ġro": 504,
      "Ġcho": 505,
      "Ġbet": 506,
      "Ġlo": 507,
      "nds": 508,
      "Ġsmal": 509,
      "Ġequ": 510,
      "orm": 511,
      "Ġsplit": 512,
      "Ġequally": 513,
      "ater": 514,
      "ween": 515,
      "Ġbetween": 516,
      "Ġ->": 517,
      "ray": 518,
      "Ġarray": 519,
      "Ġ17": 520,
      "Ġmax": 521,
      "cul": 522,
      "Ġ=>": 523,
      "Ġop": 524,
      "point": 525,
      "sp": 526,
      "ĠN": 527,
      "Ġch": 528,
      "ĠB": 529,
      "cent": 530,
      "console": 531,
      "))": 532,
      "ased": 533,
      "Ġclamps": 534,
      "eed": 535,
      "jav": 536,
      "mi": 537,
      "Ġwould": 538,
      "ascript": 539,
      "javascript": 540,
      "Ġhu": 541,
      "ĠCal": 542,
      "Ġname": 543,
      "Ġsmall": 544,
      "map": 545,
      "shifted": 546,
      "Ġshifted": 547,
      "Ġclear": 548,
      "cause": 549,
      "Ġ20": 550,
      "Ġtop": 551,
      "Ġbecause": 552,
      "Ġtopic": 553,
      "ĠCo": 554,
      "ard": 555,
      "ick": 556,
      "Ġpar": 557,
      "lease": 558,
      "Ġwhy": 559,
      "ĠPlease": 560,
      "Ġ12": 561,
      "Ġ19": 562,
      "ĠD": 563,
      "Ġwater": 564,
      "Ġ14": 565,
      "rom": 566,
      "Ġfami": 567,
      "ose": 568,
      "Ġdiv": 569,
      "ided": 570,
      "Ġdivided": 571,
      "lus": 572,
      "ĠPlus": 573,
      "king": 574,
      "inion": 575,
      "Ġopinion": 576,
      "60": 577,
      "ime": 578,
      "heck": 579,
      "Ġuses": 580,
      "ĠGot": 581,
      "Ġplay": 582,
      "Ġfamily": 583,
      "Ġr": 584,
      "Ġmean": 585,
      "Ġprof": 586,
      "gn": 587,
      "Ġle": 588,
      "Ġprofile": 589,
      "pp": 590,
      "Ġif": 591,
      "culate": 592,
      "ĠCalculate": 593,
      "ci": 594,
      "lue": 595,
      "rans": 596,
      "ils": 597,
      "ut": 598,
      "range": 599,
      "form": 600,
      "Ġu": 601,
      "ram": 602,
      "Ġcolor": 603,
      "Ġscore": 604,
      "ĠHe": 605,
      "Ġ18": 606,
      "are": 607,
      "ĠUn": 608,
      "based": 609,
      "xed": 610,
      "ory": 611,
      "Ġ21": 612,
      "ust": 613,
      "Ġhi": 614,
      "Ġchose": 615,
      "que": 616,
      "sic": 617,
      "Ġintere": 618,
      "quest": 619,
      "Ġinterest": 620,
      "ol": 621,
      "ĠCho": 622,
      "Ġcheck": 623,
      "Ġwill": 624,
      "ĠChoose": 625,
      "Ġcontext": 626,
      "62": 627,
      "Ġrep": 628,
      "tal": 629,
      "ĠPublic": 630,
      "sing": 631,
      "xplain": 632,
      "Ġ24": 633,
      "Ġ25": 634,
      "ĠPro": 635,
      "ĠExplain": 636,
      "Ġplayful": 637,
      "Ġhist": 638,
      "ath": 639,
      "30": 640,
      "ving": 641,
      "ĠR": 642,
      "Ġex": 643,
      "Ġhuh": 644,
      "Ġpart": 645,
      "ĠL": 646,
      "Ġout": 647,
      "Ġfrie": 648,
      "Ġ67": 649,
      "Ġpercent": 650,
      "ĠDo": 651,
      "ug": 652,
      "Ġz": 653,
      "ero": 654,
      "ĠÃĹ": 655,
      "ĠFor": 656,
      "Ġplainer": 657,
      "ad": 658,
      "atter": 659,
      "ĠUse": 660,
      "Ġzero": 661,
      "Ġmi": 662,
      "`.": 663,
      "Ġfrom": 664,
      "ins": 665,
      "ward": 666,
      "Ġ30": 667,
      "cus": 668,
      "Ġke": 669,
      "Ġrange": 670,
      "ount": 671,
      "Ġends": 672,
      "ĠIndex": 673,
      "hich": 674,
      "Ġgame": 675,
      "Ġindexes": 676,
      "Ġfails": 677,
      "12": 678,
      "ms": 679,
      "ĠWe": 680,
      "Ġuseful": 681,
      "able": 682,
      "Ġpoint": 683,
      "Ġmind": 684,
      "Ġun": 685,
      "ĠCan": 686,
      "Ġspeed": 687,
      "Ġcheckpoint": 688,
      "Ġexperience": 689,
      "ĠUnity": 690,
      "lt": 691,
      "nder": 692,
      "Ġbrie": 693,
      "Ġprog": 694,
      "Ġbrief": 695,
      "ff": 696,
      "ken": 697,
      "Ġj": 698,
      "Ġvalue": 699,
      "date": 700,
      "mo": 701,
      "ron": 702,
      "Ġtrans": 703,
      "Ġ22": 704,
      "Ġtotal": 705,
      "Ġcome": 706,
      "ood": 707,
      "nce": 708,
      "Ġdis": 709,
      "ĠNo": 710,
      "Ġser": 711,
      "Ġfriend": 712,
      "Ġquest": 713,
      "Ġquestion": 714,
      "32": 715,
      "stand": 716,
      "Ġpre": 717,
      "Ġexa": 718,
      "ved": 719,
      "Ġtrain": 720,
      "ener": 721,
      "Ġ40": 722,
      "36": 723,
      "bject": 724,
      "Ġgener": 725,
      "Ġprogram": 726,
      "score": 727,
      "Ġproject": 728,
      "Ġideas": 729,
      "Ġserving": 730,
      "gy": 731,
      "Ġkeep": 732,
      "'m": 733,
      "18": 734,
      "42": 735,
      "ual": 736,
      "ntence": 737,
      "ern": 738,
      "Ġexplain": 739,
      "cean": 740,
      "Ġsentence": 741,
      "Ġhistory": 742,
      "Ġcas": 743,
      "50": 744,
      "70": 745,
      "and": 746,
      "bot": 747,
      "alth": 748,
      "here": 749,
      "Ġblue": 750,
      "erent": 751,
      "duc": 752,
      "fferent": 753,
      "99": 754,
      "id": 755,
      "Ġlear": 756,
      "Ġdifferent": 757,
      "Ġlearn": 758,
      "66": 759,
      "meth": 760,
      "mething": 761,
      "stance": 762,
      "Ġpublic": 763,
      "ther": 764,
      "Ġmost": 765,
      "Ġtransform": 766,
      "im": 767,
      "sh": 768,
      "ives": 769,
      "Ġclearly": 770,
      "ĠCode": 771,
      "be": 772,
      "Ġcal": 773,
      "Ġcap": 774,
      "avi": 775,
      "chi": 776,
      "ent": 777,
      "pdate": 778,
      "Ġ50": 779,
      "Ġva": 780,
      "duce": 781,
      "Ġunder": 782,
      "..": 783,
      "havi": 784,
      "Ġen": 785,
      "Ġ29": 786,
      "Ġlight": 787,
      "44": 788,
      "ye": 789,
      "Ġac": 790,
      "Ġtext": 791,
      "Ġwor": 792,
      "Ġunderstand": 793,
      "37": 794,
      "rav": 795,
      "Ġk": 796,
      "Ġmore": 797,
      "10": 798,
      "38": 799,
      "om": 800,
      "Ġsta": 801,
      "ĠWhich": 802,
      "Ġarchi": 803,
      "Ġmista": 804,
      "22": 805,
      "only": 806,
      "Ġsa": 807,
      "Ġmy": 808,
      "58": 809,
      "our": 810,
      "Ġcu": 811,
      "Ġdid": 812,
      "aot": 813,
      "Ġ27": 814,
      "aotic": 815,
      "90": 816,
      "is": 817,
      "Ġno": 818,
      "Ġdro": 819,
      "Ġrela": 820,
      "Ġthan": 821,
      "ir": 822,
      "Ġocean": 823,
      "rious": 824,
      "ĠSure": 825,
      "Ġrobot": 826,
      "Ġcurious": 827,
      "16": 828,
      "Ġreduc": 829,
      "ks": 830,
      "Ġcar": 831,
      "ind": 832,
      "Ġsu": 833,
      "den": 834,
      "Ġ75": 835,
      "Ġloo": 836,
      "17": 837,
      "iz": 838,
      "nse": 839,
      "Ġsun": 840,
      "Ġresp": 841,
      "ello": 842,
      "cuss": 843,
      "Ġdiscuss": 844,
      "Ġrespon": 845,
      "vi": 846,
      "Ġplan": 847,
      "Ġba": 848,
      "Ġ37": 849,
      "Ġinterests": 850,
      "Ġpredi": 851,
      "Ġcasual": 852,
      "Ġrespond": 853,
      "ry": 854,
      "ts": 855,
      "ĠO": 856,
      "Ġchat": 857,
      "lent": 858,
      "Ġbrou": 859,
      "Ġ28": 860,
      "Ġgives": 861,
      "cribe": 862,
      "Ġmistakes": 863,
      "Ġrelaxed": 864,
      "Ġbrought": 865,
      "34": 866,
      "der": 867,
      "vel": 868,
      "Ġplent": 869,
      "Ġ60": 870,
      "ngth": 871,
      "Ġopinions": 872,
      "Ġkn": 873,
      "Ġplenty": 874,
      "Ġpick": 875,
      "Ġsomething": 876,
      "Ġdes": 877,
      "oon": 878,
      "led": 879,
      "Ġlike": 880,
      "Ġknow": 881,
      "Ġdescribe": 882,
      "od": 883,
      "sul": 884,
      "Ġph": 885,
      "35": 886,
      "Ġref": 887,
      "14": 888,
      "92": 889,
      "ne": 890,
      "Ġover": 891,
      "ĠWho": 892,
      "Ġcoo": 893,
      "Ġchan": 894,
      "light": 895,
      "Ġthin": 896,
      "Ġcalled": 897,
      "rent": 898,
      "ĠAn": 899,
      "Ġcur": 900,
      "Ġ26": 901,
      "Ġgive": 902,
      "ĠUlt": 903,
      "Ġneed": 904,
      "Ġchaotic": 905,
      "Ġtopics": 906,
      "ĠHelp": 907,
      "imate": 908,
      "Ġcurrent": 909,
      "ĠUltimate": 910,
      "ill": 911,
      "Ġter": 912,
      "cture": 913,
      "ĠBug": 914,
      "Ġtraining": 915,
      "Ġthinking": 916,
      "ĠBuggy": 917,
      "54": 918,
      "55": 919,
      "Ġri": 920,
      "erious": 921,
      "Ġgre": 922,
      "Ġstill": 923,
      "Ġvari": 924,
      "Ġapp": 925,
      "ĠThat": 926,
      "rough": 927,
      "ital": 928,
      "coins": 929,
      "Ġcapital": 930,
      "Ġreduced": 931,
      "ces": 932,
      "all": 933,
      "Ġnon": 934,
      "ary": 935,
      "cts": 936,
      "low": 937,
      "Ġonly": 938,
      "Ġproduce": 939,
      "Ġidea": 940,
      "ox": 941,
      "ple": 942,
      "tot": 943,
      "Ġobject": 944,
      "Ġreco": 945,
      "Ġ48": 946,
      "ĠHey": 947,
      "total": 948,
      "Ġmess": 949,
      "Ġtransformer": 950,
      "Ġarchived": 951,
      "ice": 952,
      "one": 953,
      "Ġbut": 954,
      "Ġ42": 955,
      "ĠLet": 956,
      "ag": 957,
      "br": 958,
      "imal": 959,
      "Ġ{": 960,
      "ĠSol": 961,
      "Ġdeco": 962,
      "Ġsee": 963,
      "ĠSolve": 964,
      "Ġdecoder": 965,
      "ain": 966,
      "count": 967,
      "Ġqu": 968,
      "Ġ47": 969,
      "ĠMon": 970,
      "Ġconversational": 971,
      "distance": 972,
      "ually": 973,
      "using": 974,
      "Ġrea": 975,
      "Ġmove": 976,
      "Ġcheckpoints": 977,
      "Ġterms": 978,
      "other": 979,
      "son": 980,
      "health": 981,
      "ernet": 982,
      "sult": 983,
      "97": 984,
      "ixed": 985,
      "orite": 986,
      "ru": 987,
      "wit": 988,
      "ware": 989,
      "lect": 990,
      "Ġfav": 991,
      "ftware": 992,
      "Ġsoftware": 993,
      "ĠFind": 994,
      "Ġperson": 995,
      "Ġnonse": 996,
      "witch": 997,
      "Ġfavorite": 998,
      "ound": 999,
      "hen": 1000,
      "Ġtoken": 1001,
      "ass": 1002,
      "Ġanimal": 1003,
      "Ġ34": 1004,
      "Ġlive": 1005,
      "Ġbeen": 1006,
      "Ġgenerate": 1007,
      "Ġprogramm": 1008,
      "Ġsunlight": 1009,
      "Ġnonsense": 1010,
      "Ġtokens": 1011,
      "51": 1012,
      "cal": 1013,
      "ves": 1014,
      "riv": 1015,
      "ĠSwitch": 1016,
      "88": 1017,
      "Ġox": 1018,
      "Ġbro": 1019,
      "Ġresult": 1020,
      "Ġbeing": 1021,
      "ĠHi": 1022,
      "Ġthrough": 1023,
      "sics": 1024,
      "Ġinteresting": 1025,
      "ize": 1026,
      "Ġver": 1027,
      "Ġye": 1028,
      "lies": 1029,
      "Ġold": 1030,
      "ars": 1031,
      "ĠHello": 1032,
      "come": 1033,
      "Ġreplies": 1034,
      "94": 1035,
      "Be": 1036,
      "oBe": 1037,
      "ĠYour": 1038,
      "Ġmu": 1039,
      "arden": 1040,
      "ely": 1041,
      "Ġ32": 1042,
      "orts": 1043,
      "Ġsimp": 1044,
      "Ġexample": 1045,
      "haviour": 1046,
      "Ġsaw": 1047,
      "ĠMonoBe": 1048,
      "ĠMonoBehaviour": 1049,
      "57": 1050,
      "pe": 1051,
      "ling": 1052,
      "Ġsc": 1053,
      "Ġsk": 1054,
      "les": 1055,
      "your": 1056,
      "Ġmeme": 1057,
      "Ġ36": 1058,
      "rong": 1059,
      "Ġsimply": 1060,
      "11": 1061,
      "sci": 1062,
      "ĠYes": 1063,
      "Ġnat": 1064,
      "Ġcom": 1065,
      "Ġforms": 1066,
      "Ġconsci": 1067,
      "ngine": 1068,
      "speed": 1069,
      "Ġconscious": 1070,
      "'t": 1071,
      "96": 1072,
      "csh": 1073,
      "Ġra": 1074,
      "nts": 1075,
      "erence": 1076,
      "atic": 1077,
      "Ġpriv": 1078,
      "Ġday": 1079,
      "arp": 1080,
      "Ġgo": 1081,
      "ases": 1082,
      "Ġmessage": 1083,
      "csharp": 1084,
      "Ġprivate": 1085,
      "ssing": 1086,
      "Ġhere": 1087,
      "Ġintent": 1088,
      "Ġunre": 1089,
      "Ġintention": 1090,
      "33": 1091,
      "am": 1092,
      "op": 1093,
      "sion": 1094,
      "Ġrecent": 1095,
      "Ġdoing": 1096,
      "hysics": 1097,
      "ĠGood": 1098,
      "ĠSun": 1099,
      "Ġvi": 1100,
      "Ġvariable": 1101,
      "Ġintentionally": 1102,
      "()": 1103,
      "Ġact": 1104,
      "ough": 1105,
      "roll": 1106,
      "Ġread": 1107,
      "Ġexact": 1108,
      "Ġlearned": 1109,
      "ravel": 1110,
      "ngths": 1111,
      "95": 1112,
      "98": 1113,
      "air": 1114,
      "ta": 1115,
      "Ġ[": 1116,
      "ata": 1117,
      "Ġwhere": 1118,
      "Ġdata": 1119,
      "Ġclass": 1120,
      "Ġrole": 1121,
      "46": 1122,
      "Update": 1123,
      "ew": 1124,
      "Ġrain": 1125,
      "Ġcre": 1126,
      "hip": 1127,
      "ical": 1128,
      "Ġmodels": 1129,
      "ĠMoon": 1130,
      "Ġmovement": 1131,
      "Ġversion": 1132,
      "Ġsky": 1133,
      "PI": 1134,
      "Ġtin": 1135,
      "ĠAPI": 1136,
      "ĠIs": 1137,
      "Ġpatter": 1138,
      "Ġinternet": 1139,
      "ameter": 1140,
      "Ġtalking": 1141,
      "Ġtiny": 1142,
      "Ġpattern": 1143,
      "82": 1144,
      "86": 1145,
      "day": 1146,
      "Ġtravel": 1147,
      "Ġfox": 1148,
      "Ġred": 1149,
      "Ġroll": 1150,
      "pped": 1151,
      "Ġdrople": 1152,
      "Ġgreen": 1153,
      "Ġdroplets": 1154,
      "bl": 1155,
      "cke": 1156,
      "inn": 1157,
      "Ġwhen": 1158,
      "Ġnow": 1159,
      "Ġremo": 1160,
      "Ġcomp": 1161,
      "cting": 1162,
      "Ġconf": 1163,
      "Ġprobl": 1164,
      "ĠUpdate": 1165,
      "Ġrun": 1166,
      "cise": 1167,
      "Ġjo": 1168,
      "Ġchang": 1169,
      "Ġright": 1170,
      "Ġproblem": 1171,
      "iel": 1172,
      "ong": 1173,
      "Ġfol": 1174,
      "Ġstru": 1175,
      "ĠSh": 1176,
      "Ġspa": 1177,
      "ather": 1178,
      "...": 1179,
      "Ġpredicting": 1180,
      "Ġpicked": 1181,
      "Ġprogramming": 1182,
      "ield": 1183,
      "Ġfollow": 1184,
      "Ġstructure": 1185,
      "(\"": 1186,
      "27": 1187,
      "31": 1188,
      "56": 1189,
      "74": 1190,
      "ack": 1191,
      "ding": 1192,
      "eo": 1193,
      "gen": 1194,
      "um": 1195,
      "yb": 1196,
      "ygen": 1197,
      "Ġ\"": 1198,
      "alize": 1199,
      "line": 1200,
      "Ġwave": 1201,
      "ody": 1202,
      "Ġappe": 1203,
      "cess": 1204,
      "Ġoxygen": 1205,
      "26": 1206,
      "84": 1207,
      "body": 1208,
      "fy": 1209,
      "if": 1210,
      "lse": 1211,
      "Ġelse": 1212,
      "level": 1213,
      "lengths": 1214,
      "Ġtoward": 1215,
      "ason": 1216,
      "Ġ46": 1217,
      "Ġonline": 1218,
      "Ġshould": 1219,
      "Ġdef": 1220,
      "Ġside": 1221,
      "Ġchoice": 1222,
      "Ġpoints": 1223,
      "Ġaccess": 1224,
      "Ġjoke": 1225,
      "Ġwavelengths": 1226,
      "HU": 1227,
      "Ġag": 1228,
      "ĠCHU": 1229,
      "Ġev": 1230,
      "Ġlibr": 1231,
      "ĠSt": 1232,
      "ĠFrom": 1233,
      "Ġru": 1234,
      "view": 1235,
      "Ġquick": 1236,
      "ĠCHUD": 1237,
      "Ġlibrary": 1238,
      "\",": 1239,
      "Qu": 1240,
      "for": 1241,
      "ilt": 1242,
      "oid": 1243,
      "Ġ}": 1244,
      "Ġsound": 1245,
      "ries": 1246,
      "Ġmatter": 1247,
      "Ġhap": 1248,
      "oto": 1249,
      "ravity": 1250,
      "Ġoverview": 1251,
      "Ġobjects": 1252,
      "ixedUpdate": 1253,
      "Ġscatter": 1254,
      "Ġhapp": 1255,
      "lu": 1256,
      "liable": 1257,
      "Ġtime": 1258,
      "Ġcount": 1259,
      "Ġwas": 1260,
      "Ġbu": 1261,
      "Ġbased": 1262,
      "mpare": 1263,
      "ĠME": 1264,
      "Ġ1600": 1265,
      "ĠCompare": 1266,
      "ramatic": 1267,
      "Ġener": 1268,
      "Ġbasic": 1269,
      "52": 1270,
      "76": 1271,
      "GA": 1272,
      "cle": 1273,
      "ntime": 1274,
      "ysterious": 1275,
      "Ġmysterious": 1276,
      "leep": 1277,
      "Ġwho": 1278,
      "orth": 1279,
      "row": 1280,
      "avy": 1281,
      "Ġanother": 1282,
      "Ġbecome": 1283,
      "Ġstrong": 1284,
      "Ġ700": 1285,
      "Ġruntime": 1286,
      "ĠMEGA": 1287,
      "ight": 1288,
      "not": 1289,
      "ocus": 1290,
      "Ġl": 1291,
      "Ġmath": 1292,
      "Ġgue": 1293,
      "Ġdeli": 1294,
      "Ġconversations": 1295,
      "vent": 1296,
      "ides": 1297,
      "Ġcomm": 1298,
      "Ġguessing": 1299,
      "47": 1300,
      "59": 1301,
      "Ġlog": 1302,
      "Ġtell": 1303,
      "Ġhear": 1304,
      "lay": 1305,
      "Ġgarden": 1306,
      "Ġbend": 1307,
      "Ġbehavi": 1308,
      "Ġ41": 1309,
      "Ġmade": 1310,
      "Ġ57": 1311,
      "sol": 1312,
      "Ġ1500": 1313,
      "Ġ1300": 1314,
      "sphere": 1315,
      "Ġlevel": 1316,
      "Ġbehavior": 1317,
      "nap": 1318,
      "erat": 1319,
      "hed": 1320,
      "Ġtw": 1321,
      "Ġcould": 1322,
      "Ġsnap": 1323,
      "Ġphysics": 1324,
      "Ġfall": 1325,
      "Ġcoins": 1326,
      "ened": 1327,
      "ots": 1328,
      "rap": 1329,
      "ĠGame": 1330,
      "Ġveri": 1331,
      "Ġdesi": 1332,
      "Ġdough": 1333,
      "ool": 1334,
      "gned": 1335,
      "Ġusing": 1336,
      "shots": 1337,
      "Ġenough": 1338,
      "Ġplanet": 1339,
      "Ġmusic": 1340,
      "Ġpatterns": 1341,
      "Ġspace": 1342,
      "Ġstrongly": 1343,
      "Ġsnapshots": 1344,
      "Ġal": 1345,
      "Ġfe": 1346,
      "ĠSo": 1347,
      "Ġlar": 1348,
      "Ġback": 1349,
      "Ġbroken": 1350,
      "Ġnatur": 1351,
      "!!": 1352,
      "02": 1353,
      "fore": 1354,
      "ning": 1355,
      "ori": 1356,
      "public": 1357,
      "Ġ:": 1358,
      "alf": 1359,
      "Ġtra": 1360,
      "Ġexpand": 1361,
      "Ġtoday": 1362,
      "Ġgravity": 1363,
      "Ġmay": 1364,
      "Ġvoid": 1365,
      "Ġloc": 1366,
      "Ġlost": 1367,
      "Ġreply": 1368,
      "Ġgeneral": 1369,
      "Ġrecovery": 1370,
      "Ġolder": 1371,
      "ocused": 1372,
      "Ġverify": 1373,
      "Ġlarge": 1374,
      "Ġexpanded": 1375,
      "\")": 1376,
      "87": 1377,
      "ML": 1378,
      "TML": 1379,
      "ast": 1380,
      "focused": 1381,
      "ses": 1382,
      "ty": 1383,
      "ĠQu": 1384,
      "nter": 1385,
      "era": 1386,
      "met": 1387,
      "Ġenter": 1388,
      "Ġhealth": 1389,
      "Ġfine": 1390,
      "Ġbrain": 1391,
      "mport": 1392,
      "ĠHTML": 1393,
      "Ġstory": 1394,
      "urp": 1395,
      "Ġdistance": 1396,
      "ĠBlue": 1397,
      "Ġparameter": 1398,
      "Ġprofiles": 1399,
      "Ġsupp": 1400,
      "Ġoverall": 1401,
      "Ġagain": 1402,
      "Ġlocally": 1403,
      "91": 1404,
      "acke": 1405,
      "fic": 1406,
      "lor": 1407,
      "Ġsystem": 1408,
      "Ġear": 1409,
      "Ġthem": 1410,
      "Ġ44": 1411,
      "ition": 1412,
      "chool": 1413,
      "Ġthing": 1414,
      "ook": 1415,
      "cific": 1416,
      "Ġhistori": 1417,
      "Ġjacke": 1418,
      "Ġdropped": 1419,
      "vies": 1420,
      "Ġrecogn": 1421,
      "Ġgoing": 1422,
      "Ġeven": 1423,
      "Ġenergy": 1424,
      "Ġearly": 1425,
      "Ġhistorical": 1426,
      "Ġjacket": 1427,
      "81": 1428,
      "Object": 1429,
      "SS": 1430,
      "book": 1431,
      "dy": 1432,
      "pack": 1433,
      "ycle": 1434,
      "rect": 1435,
      "ĠCSS": 1436,
      "Ġoils": 1437,
      "Ġsleep": 1438,
      "Ġpage": 1439,
      "Ġnext": 1440,
      "Ġbre": 1441,
      "Ġbic": 1442,
      "Ġrequest": 1443,
      "tebook": 1444,
      "Ġmam": 1445,
      "its": 1446,
      "Ġsoap": 1447,
      "Ġdepe": 1448,
      "Ġcontroll": 1449,
      "Ġseason": 1450,
      "Ġnotebook": 1451,
      "Ġcarry": 1452,
      "Ġlook": 1453,
      "Ġneeds": 1454,
      "Ġunreliable": 1455,
      "ĠGameObject": 1456,
      "Ġentered": 1457,
      "Ġsupports": 1458,
      "Ġbicycle": 1459,
      "Ġcontroller": 1460,
      "Ġseasons": 1461,
      "Engine": 1462,
      "Field": 1463,
      "Seri": 1464,
      "Time": 1465,
      "bits": 1466,
      "cu": 1467,
      "ntity": 1468,
      "Ġice": 1469,
      "Ġiron": 1470,
      "Ġfile": 1471,
      "Ġfood": 1472,
      "ord": 1473,
      "ĠTime": 1474,
      "Ġmagn": 1475,
      "Ġorbits": 1476,
      "Ġcannot": 1477,
      "delta": 1478,
      "Ġabs": 1479,
      "Ġidentity": 1480,
      "ĠUnityEngine": 1481,
      "Ġphases": 1482,
      "Ġphoto": 1483,
      "Ġreflect": 1484,
      "alizeField": 1485,
      "SerializeField": 1486,
      "deltaTime": 1487,
      "39": 1488,
      "clu": 1489,
      "ror": 1490,
      "side": 1491,
      "real": 1492,
      "Ġimport": 1493,
      "Ġte": 1494,
      "Ġcity": 1495,
      "rib": 1496,
      "Ġmug": 1497,
      "Ġpath": 1498,
      "lecul": 1499,
      "Ġwhich": 1500,
      "ions": 1501,
      "Ġtold": 1502,
      "ĠPick": 1503,
      "Ġmoves": 1504,
      "Ġmolecul": 1505,
      "Ġbefore": 1506,
      "Ġ52": 1507,
      "ĠSystem": 1508,
      "Ġatmo": 1509,
      "Ġhuge": 1510,
      "Ġlength": 1511,
      "ĠUnreal": 1512,
      "usts": 1513,
      "Ġstar": 1514,
      "Ġoceans": 1515,
      "Ġreference": 1516,
      "Ġchange": 1517,
      "ĠAnswer": 1518,
      "inner": 1519,
      "Ġchanges": 1520,
      "Ġmagnet": 1521,
      "Ġimportant": 1522,
      "Ġmolecules": 1523,
      "Ġatmosphere": 1524,
      "ig": 1525,
      "ny": 1526,
      "Ġaft": 1527,
      "Ġcat": 1528,
      "Ġschool": 1529,
      "Ġwhi": 1530,
      "Ġrele": 1531,
      "Ġhalf": 1532,
      "Ġmoving": 1533,
      "Ġmovies": 1534,
      "Ġ64": 1535,
      "Ġstep": 1536,
      "Ġ78": 1537,
      "Ġfacts": 1538,
      "Ġthere": 1539,
      "ĠJust": 1540,
      "Ġplants": 1541,
      "Ġless": 1542,
      "Ġgames": 1543,
      "Ġnaturally": 1544,
      "Ġwhile": 1545,
      "72": 1546,
      "FixedUpdate": 1547,
      "bor": 1548,
      "grap": 1549,
      "il": 1550,
      "Ġer": 1551,
      "ative": 1552,
      "ross": 1553,
      "tecture": 1554,
      "Ġ65": 1555,
      "Ġused": 1556,
      "ations": 1557,
      "ector": 1558,
      "ĠRo": 1559,
      "Ġlearning": 1560,
      "Ġacross": 1561,
      "Ġdesigned": 1562,
      "Ġbackpack": 1563,
      "ĠBlueprint": 1564,
      "graphy": 1565,
      "Ġerror": 1566,
      "'re": 1567,
      "77": 1568,
      "Con": 1569,
      "Line": 1570,
      "Mo": 1571,
      "Trans": 1572,
      "Vector": 1573,
      "Write": 1574,
      "late": 1575,
      "ĊĊ": 1576,
      "Ġ>": 1577,
      "Ġ100": 1578,
      "Ġboo": 1579,
      "Ġinclu": 1580,
      "ivity": 1581,
      "Ġform": 1582,
      "Ġforward": 1583,
      "Ġ70": 1584,
      "Ġ74": 1585,
      "Ġask": 1586,
      "Ġweb": 1587,
      "ĠForward": 1588,
      "Ġtrained": 1589,
      "Ġanimals": 1590,
      "forward": 1591,
      "Ġreplying": 1592,
      "Console": 1593,
      "Mover": 1594,
      "Translate": 1595,
      "WriteLine": 1596,
      "ĠForwardMover": 1597,
      "!\")": 1598,
      "78": 1599,
      "bye": 1600,
      "ost": 1601,
      "Ġelect": 1602,
      "ĠAre": 1603,
      "Ġcor": 1604,
      "Ġdon": 1605,
      "Ġ39": 1606,
      "ctions": 1607,
      "ndship": 1608,
      "ĠBe": 1609,
      "Ġjust": 1610,
      "Ġyear": 1611,
      "Ġactivity": 1612,
      "Ġhappened": 1613,
      "Ġlargest": 1614,
      "15": 1615,
      "ference": 1616,
      "mag": 1617,
      "tion": 1618,
      "ten": 1619,
      "Ġaw": 1620,
      "ree": 1621,
      "member": 1622,
      "ance": 1623,
      "Ġoften": 1624,
      "Ġ38": 1625,
      "Ġbeg": 1626,
      "Ġ66": 1627,
      "Ġ80": 1628,
      "Ġ84": 1629,
      "ĠDramatic": 1630,
      "Ġreaction": 1631,
      "amera": 1632,
      "ĠGoodbye": 1633,
      "Ġready": 1634,
      "ĠQuick": 1635,
      "Ġtest": 1636,
      "'ll": 1637,
      "68": 1638,
      "`,": 1639,
      "ak": 1640,
      "bow": 1641,
      "dition": 1642,
      "gs": 1643,
      "kle": 1644,
      "tter": 1645,
      "xis": 1646,
      "Ġaxis": 1647,
      "sius": 1648,
      "ĠCel": 1649,
      "Ġtilt": 1650,
      "Ġtries": 1651,
      "Ġheavy": 1652,
      "inkle": 1653,
      "Ġotter": 1654,
      "ĠIt": 1655,
      "Ġmar": 1656,
      "Ġbo": 1657,
      "Ġrece": 1658,
      "Ġgla": 1659,
      "Ġang": 1660,
      "Ġcondition": 1661,
      "apor": 1662,
      "Ġdirect": 1663,
      "Ġ77": 1664,
      "Ġ79": 1665,
      "Ġspe": 1666,
      "Ġart": 1667,
      "Ġ89": 1668,
      "Ġpartic": 1669,
      "Ġcomedy": 1670,
      "Ġvacu": 1671,
      "Ġarchitecture": 1672,
      "Ġnobody": 1673,
      "ized": 1674,
      "Ġprediction": 1675,
      "Ġcools": 1676,
      "Ġcooking": 1677,
      "ĠAnother": 1678,
      "Ġgrease": 1679,
      "Ġrainbow": 1680,
      "Ġremoves": 1681,
      "Ġconfide": 1682,
      "Ġwhose": 1683,
      "Ġdelib": 1684,
      "Ġcommonly": 1685,
      "Ġtwinkle": 1686,
      "Ġmammal": 1687,
      "Ġphotography": 1688,
      "Ġbeginner": 1689,
      "ĠCelsius": 1690,
      "Ġtilted": 1691,
      "Ġvacuum": 1692,
      "ai": 1693,
      "bug": 1694,
      "ild": 1695,
      "iling": 1696,
      "kay": 1697,
      "lver": 1698,
      "oard": 1699,
      "play": 1700,
      "ring": 1701,
      "ton": 1702,
      "stal": 1703,
      "ssign": 1704,
      "alty": 1705,
      "Ġtides": 1706,
      "Ġcry": 1707,
      "ĠImag": 1708,
      "Ġslow": 1709,
      "Ġsalty": 1710,
      "right": 1711,
      "Ġport": 1712,
      "Ġfin": 1713,
      "Ġwrite": 1714,
      "yout": 1715,
      "Ġredi": 1716,
      "Ġliqu": 1717,
      "Ġ54": 1718,
      "Ġconsole": 1719,
      "Ġlayout": 1720,
      "Ġsports": 1721,
      "Ġdense": 1722,
      "Ġdebug": 1723,
      "Ġsilver": 1724,
      "Ġatt": 1725,
      "Ġ130": 1726,
      "Ġ116": 1727,
      "Ġopen": 1728,
      "ĠNice": 1729,
      "Ġsmaller": 1730,
      "Ġ187": 1731,
      "Ġrepair": 1732,
      "Ġwork": 1733,
      "Ġworks": 1734,
      "Ġloop": 1735,
      "Ġlooking": 1736,
      "Ġsunlit": 1737,
      "yboard": 1738,
      "Ġappears": 1739,
      "Ġbuild": 1740,
      "solved": 1741,
      "erately": 1742,
      "oster": 1743,
      "Ġcoral": 1744,
      "Ġspecific": 1745,
      "Ġdeliberately": 1746,
      "Ġcrystal": 1747,
      "ĠImagine": 1748,
      "Ġportions": 1749,
      "Ġliquid": 1750,
      "29": 1751,
      "300": 1752,
      "bon": 1753,
      "pre": 1754,
      "ting": 1755,
      "time": 1756,
      "wor": 1757,
      "zz": 1758,
      "ntion": 1759,
      "ermo": 1760,
      "ercise": 1761,
      "ĠCheck": 1762,
      "like": 1763,
      "Ġtur": 1764,
      "ull": 1765,
      "ulls": 1766,
      "lph": 1767,
      "ates": 1768,
      "Ġcause": 1769,
      "Ġcrow": 1770,
      "Ġoct": 1771,
      "Ġother": 1772,
      "Ġsep": 1773,
      "Ġpulls": 1774,
      "Ġfi": 1775,
      "Ġnorth": 1776,
      "Ġblo": 1777,
      "Ġinvent": 1778,
      "aves": 1779,
      "tention": 1780,
      "Ġdolph": 1781,
      "round": 1782,
      "ĠSp": 1783,
      "ĠSerious": 1784,
      "Ġfloats": 1785,
      "Ġdiox": 1786,
      "ĠEx": 1787,
      "ĠEngine": 1788,
      "Ġfact": 1789,
      "Ġthermo": 1790,
      "Ġattention": 1791,
      "Ġadd": 1792,
      "Ġ162": 1793,
      "ssure": 1794,
      "Ġweather": 1795,
      "Ġrate": 1796,
      "Ġrusts": 1797,
      "Ġfriendship": 1798,
      "Ġmight": 1799,
      "rons": 1800,
      "Ġ227": 1801,
      "Ġcapyb": 1802,
      "ises": 1803,
      "Ġrobots": 1804,
      "Ġcars": 1805,
      "Ġcarbon": 1806,
      "Ġcooling": 1807,
      "Ġrises": 1808,
      "Ġraises": 1809,
      "opus": 1810,
      "Ġcreate": 1811,
      "Ġcreative": 1812,
      "Ġcompass": 1813,
      "Ġruns": 1814,
      "Ġappear": 1815,
      "Ġdefin": 1816,
      "Ġlogic": 1817,
      "Ġheart": 1818,
      "Ġgardening": 1819,
      "Ġslows": 1820,
      "work": 1821,
      "Ġturt": 1822,
      "Ġoctopus": 1823,
      "Ġsepar": 1824,
      "Ġdioxide": 1825,
      "Ġthermos": 1826,
      "Ġcapybar": 1827,
      "Hello": 1828,
      "Ġau": 1829,
      "Ġcust": 1830,
      "Ġow": 1831,
      "Ġfixed": 1832,
      "ora": 1833,
      "Ġnull": 1834,
      "arbor": 1835,
      "ĠThis": 1836,
      "ĠHarbor": 1837,
      "Ġcondu": 1838,
      "antern": 1839,
      "iley": 1840,
      "aya": 1841,
      "ĠCalm": 1842,
      "ared": 1843,
      "ĠLantern": 1844,
      "Ġcasually": 1845,
      "Ġmuch": 1846,
      "Ġdefine": 1847,
      "ordan": 1848,
      "Ġcustom": 1849,
      "48": 1850,
      "Next": 1851,
      "Sh": 1852,
      "dden": 1853,
      "lat": 1854,
      "uzz": 1855,
      "rend": 1856,
      "Ġtrend": 1857,
      "Ġsay": 1858,
      "Ġsurp": 1859,
      "rising": 1860,
      "less": 1861,
      "Ġtheir": 1862,
      "rase": 1863,
      "Ġdogs": 1864,
      "Ġmach": 1865,
      "ung": 1866,
      "Ġ51": 1867,
      "Ġ53": 1868,
      "Ġ62": 1869,
      "ĠGarden": 1870,
      "Ġdie": 1871,
      "Ġnear": 1872,
      "Ġ90": 1873,
      "Ġcolle": 1874,
      "Ġ147": 1875,
      "ĠRand": 1876,
      "Ġunless": 1877,
      "idbody": 1878,
      "ished": 1879,
      "Ġsudden": 1880,
      "Ġvariant": 1881,
      "onest": 1882,
      "Ġnature": 1883,
      "Ġfoxs": 1884,
      "ĠSomething": 1885,
      "Ġdepend": 1886,
      "sided": 1887,
      "igidbody": 1888,
      "Ġcats": 1889,
      "Ġbooks": 1890,
      "Ġotters": 1891,
      "Ġseparate": 1892,
      "Shared": 1893,
      "uzzle": 1894,
      "Ġsurprising": 1895,
      "Ġmachine": 1896,
      "ĠRandom": 1897,
      "Ġsuddenly": 1898,
      "45": 1899,
      "Zo": 1900,
      "ake": 1901,
      "han": 1902,
      "ith": 1903,
      "mit": 1904,
      "ype": 1905,
      "ers": 1906,
      "Ġpass": 1907,
      "Ġwel": 1908,
      "Ġrest": 1909,
      "ĠThan": 1910,
      "Ġmain": 1911,
      "Ġunc": 1912,
      "Ġworse": 1913,
      "Ġvariants": 1914,
      "Zoe": 1915,
      "Ġwelcome": 1916,
      "120": 1917,
      "25": 1918,
      "28": 1919,
      "64": 1920,
      "OO": 1921,
      "ras": 1922,
      "zy": 1923,
      "Ġy": 1924,
      "Ġamber": 1925,
      "reen": 1926,
      "als": 1927,
      "ĠAll": 1928,
      "ature": 1929,
      "ndom": 1930,
      "Ġsqu": 1931,
      "ric": 1932,
      "let": 1933,
      "Ġfr": 1934,
      "Ġway": 1935,
      "Ġ23": 1936,
      "Ġ238": 1937,
      "ĠPa": 1938,
      "elli": 1939,
      "Ġget": 1940,
      "Ġlime": 1941,
      "Ġmaking": 1942,
      "Ġconcise": 1943,
      "Ġ76": 1944,
      "Ġshorth": 1945,
      "Ġsome": 1946,
      "Ġ87": 1947,
      "Ġnews": 1948,
      "Ġ110": 1949,
      "Ġlol": 1950,
      "Ġ201": 1951,
      "Ġrather": 1952,
      "Ġsuch": 1953,
      "ĠOcean": 1954,
      "Ġrandom": 1955,
      "ĠShort": 1956,
      "Ġbuilt": 1957,
      "Ġlong": 1958,
      "Ġparameters": 1959,
      "Ġmaroon": 1960,
      "Ġcrows": 1961,
      "Ġdolphins": 1962,
      "Ġturtles": 1963,
      "Ġoctopuss": 1964,
      "Ġcapybaras": 1965,
      "Ġowls": 1966,
      "Ġsquare": 1967,
      "Ġshorthand": 1968,
      "19": 1969,
      "380": 1970,
      "53": 1971,
      "bs": 1972,
      "oken": 1973,
      "olet": 1974,
      "put": 1975,
      "tle": 1976,
      "token": 1977,
      "Ġali": 1978,
      "ounds": 1979,
      "Ġind": 1980,
      "ĠAr": 1981,
      "ering": 1982,
      "Ġca": 1983,
      "Ġsy": 1984,
      "Ġslang": 1985,
      "Ġsounds": 1986,
      "ried": 1987,
      "Ġmor": 1988,
      "Ġwrong": 1989,
      "Ġnorm": 1990,
      "Ġbra": 1991,
      "Ġ262": 1992,
      "ark": 1993,
      "Ġinform": 1994,
      "Ġinput": 1995,
      "Ġhad": 1996,
      "Ġ31": 1997,
      "ĠTrain": 1998,
      "Ġ86": 1999,
      "Ġ152": 2000,
      "Ġ156": 2001,
      "Ġ157": 2002,
      "Ġ102": 2003,
      "Ġ97": 2004,
      "Ġadj": 2005,
      "ĠCont": 2006,
      "Ġ183": 2007,
      "Ġ244": 2008,
      "184": 2009,
      "Ġreads": 2010,
      "Ġviolet": 2011,
      "Ġchanging": 2012,
      "Ġafter": 2013,
      "Ġconfident": 2014,
      "Ġuncer": 2015,
      "Ġmorning": 2016,
      "Ġnormally": 2017,
      "Ġinformation": 2018,
      "ĠTraining": 2019,
      "\":": 2020,
      "#?": 2021,
      "):": 2022,
      "13": 2023,
      "800": 2024,
      "??": 2025,
      "ON": 2026,
      "SON": 2027,
      "fer": 2028,
      "gin": 2029,
      "mical": 2030,
      "twork": 2031,
      "yan": 2032,
      "yers": 2033,
      "ðŁ": 2034,
      "Ġ<": 2035,
      "Ġstand": 2036,
      "ĠðŁ": 2037,
      "ĴĢ": 2038,
      "Ġactions": 2039,
      "sis": 2040,
      "read": 2041,
      "hemical": 2042,
      "ĠCh": 2043,
      "ĠCamera": 2044,
      "lidate": 2045,
      "Ġevent": 2046,
      "Ġtas": 2047,
      "Ġtung": 2048,
      "Ġhel": 2049,
      "Ġhelps": 2050,
      "Ġcyan": 2051,
      "Ġchemical": 2052,
      "inue": 2053,
      "Ġsame": 2054,
      "Ġscript": 2055,
      "Ġpure": 2056,
      "Ġnavy": 2057,
      "Ġdur": 2058,
      "Ġdramatic": 2059,
      "Ġdark": 2060,
      "mbine": 2061,
      "mbol": 2062,
      "rols": 2063,
      "Ġcombine": 2064,
      "Ġinst": 2065,
      "Ġinference": 2066,
      "Ġgood": 2067,
      "Ġgrow": 2068,
      "cted": 2069,
      "Ġmemo": 2070,
      "Ġhonest": 2071,
      "tected": 2072,
      "Ġ312": 2073,
      "Ġ311": 2074,
      "Ġline": 2075,
      "ract": 2076,
      "Ġamount": 2077,
      "unny": 2078,
      "Ġ56": 2079,
      "Ġ58": 2080,
      "Ġconso": 2081,
      "Ġproduc": 2082,
      "Ġlayers": 2083,
      "urd": 2084,
      "Ġdiction": 2085,
      "Ġvapor": 2086,
      "Ġnetwork": 2087,
      "rance": 2088,
      "ĠFunny": 2089,
      "ĠFrance": 2090,
      "ĠJSON": 2091,
      "eturn": 2092,
      "Ġatom": 2093,
      "Ġ151": 2094,
      "Ġ106": 2095,
      "Ġweight": 2096,
      "Ġcontrols": 2097,
      "Ġperform": 2098,
      "Ġcolon": 2099,
      "Ġ175": 2100,
      "Ġhum": 2101,
      "Ġ206": 2102,
      "Ġ197": 2103,
      "Ġcolors": 2104,
      "Ġ246": 2105,
      "Ġ248": 2106,
      "ĠRep": 2107,
      "ĠReturn": 2108,
      "Ġ224": 2109,
      "Ġpressure": 2110,
      "999": 2111,
      "Ġstate": 2112,
      "Ġstation": 2113,
      "Ġsaf": 2114,
      "Ġphrase": 2115,
      "Ġrefract": 2116,
      "brations": 2117,
      "Ġprogrammer": 2118,
      "Ġyears": 2119,
      "Ġvibrations": 2120,
      "Ġrolls": 2121,
      "ĠShow": 2122,
      "ĠStrange": 2123,
      "Ġbecomes": 2124,
      "Ġlogo": 2125,
      "Ġalong": 2126,
      "Ġabsurd": 2127,
      "Ġstars": 2128,
      "Ġaway": 2129,
      "Ġboth": 2130,
      "Ġreceives": 2131,
      "Ġangle": 2132,
      "Ġparticles": 2133,
      "Ġattach": 2134,
      "Ġrestore": 2135,
      "ĠThanks": 2136,
      "Ġlonger": 2137,
      "Ġalign": 2138,
      "Ġsymbol": 2139,
      "Ġstandard": 2140,
      "ĠðŁĴĢ": 2141,
      "Ġeventually": 2142,
      "Ġduring": 2143,
      "Ġdarker": 2144,
      "Ġmemories": 2145,
      "Ġamounts": 2146,
      "Ġconsolidate": 2147,
      "Ġdictionary": 2148,
      "Ġweights": 2149,
      "79": 2150,
      "93": 2151,
      "ample": 2152,
      "ands": 2153,
      "cles": 2154,
      "ging": 2155,
      "par": 2156,
      "then": 2157,
      "ute": 2158,
      "Ġour": 2159,
      "Ġaround": 2160,
      "nternet": 2161,
      "strib": 2162,
      "erpre": 2163,
      "erals": 2164,
      "alls": 2165,
      "list": 2166,
      "uscles": 2167,
      "ones": 2168,
      "ĠAssign": 2169,
      "Ġexpands": 2170,
      "Ġheat": 2171,
      "ating": 2172,
      "Ġcell": 2173,
      "Ġori": 2174,
      "ĠIts": 2175,
      "ĠInternet": 2176,
      "Ġmuscles": 2177,
      "lest": 2178,
      "Ġfield": 2179,
      "Ġwast": 2180,
      "ords": 2181,
      "orbs": 2182,
      "Ġ230": 2183,
      "Ġ237": 2184,
      "Ġtoo": 2185,
      "ĠPoster": 2186,
      "Ġremember": 2187,
      "Ġinsul": 2188,
      "Ġgeo": 2189,
      "Ġmetal": 2190,
      "Ġhorm": 2191,
      "Ġ300": 2192,
      "Ġ399": 2193,
      "Ġ400": 2194,
      "Ġ462": 2195,
      "Ġonce": 2196,
      "Ġinterpre": 2197,
      "iti": 2198,
      "hyll": 2199,
      "Ġconve": 2200,
      "Ġlast": 2201,
      "Ġusually": 2202,
      "Ġwithout": 2203,
      "ngthen": 2204,
      "inty": 2205,
      "Ġval": 2206,
      "Ġvis": 2207,
      "Ġdetected": 2208,
      "Ġfailing": 2209,
      "Ġminerals": 2210,
      "Ġanswers": 2211,
      "Ġ`=": 2212,
      "logical": 2213,
      "Ġ161": 2214,
      "Ġweath": 2215,
      "Ġcontrib": 2216,
      "Ġ131": 2217,
      "diation": 2218,
      "Ġcolla": 2219,
      "Ġlocal": 2220,
      "Ġsmallest": 2221,
      "ĠNone": 2222,
      "Ġchlor": 2223,
      "ĠBright": 2224,
      "Ġ194": 2225,
      "Ġ199": 2226,
      "Ġleaves": 2227,
      "Ġlengthen": 2228,
      "ution": 2229,
      "Ġ243": 2230,
      "Ġexercise": 2231,
      "Ġ302": 2232,
      "Ġgameplay": 2233,
      "Ġtransfer": 2234,
      "Ġdissolved": 2235,
      "Ġworking": 2236,
      "Ġreduces": 2237,
      "ĠOn": 2238,
      "Ġneedle": 2239,
      "ceship": 2240,
      "ages": 2241,
      "Ġreacts": 2242,
      "Ġoxides": 2243,
      "Ġyeast": 2244,
      "Ġradiation": 2245,
      "ophyll": 2246,
      "Ġactive": 2247,
      "tainty": 2248,
      "Ġremove": 2249,
      "Ġlater": 2250,
      "Ġdeliver": 2251,
      "Ġcommun": 2252,
      "Ġfeature": 2253,
      "Ġtrapped": 2254,
      "Ġrecognize": 2255,
      "Ġevening": 2256,
      "Ġbread": 2257,
      "Ġbreak": 2258,
      "Ġabsorbs": 2259,
      "Ġreflecting": 2260,
      "Ġmagnetic": 2261,
      "Ġmagnetized": 2262,
      "Ġreleases": 2263,
      "ĠRobot": 2264,
      "Ġincluding": 2265,
      "Ġredistrib": 2266,
      "Ġdebugging": 2267,
      "Ġrepairing": 2268,
      "Ġblood": 2269,
      "ĠExample": 2270,
      "Ġappearance": 2271,
      "Ġconduction": 2272,
      "Ġuncertainty": 2273,
      "ĠChaotic": 2274,
      "Ġgrowth": 2275,
      "Ġaligns": 2276,
      "parameter": 2277,
      "Ġcells": 2278,
      "Ġorigin": 2279,
      "Ġwaste": 2280,
      "Ġinsulation": 2281,
      "Ġgeological": 2282,
      "Ġhormones": 2283,
      "Ġinterpret": 2284,
      "Ġconvection": 2285,
      "Ġvisual": 2286,
      "Ġweathering": 2287,
      "Ġcontribution": 2288,
      "Ġchlorophyll": 2289,
      "Ġfeatures": 2290,
      "Ġredistribute": 2291,
      "\"]": 2292,
      "24": 2293,
      ";`": 2294,
      "ah": 2295,
      "blue": 2296,
      "cel": 2297,
      "ked": 2298,
      "nable": 2299,
      "sy": 2300,
      "va": 2301,
      "Ġaut": 2302,
      "Ġair": 2303,
      "nthe": 2304,
      "storm": 2305,
      "red": 2306,
      "Ġtone": 2307,
      "Ġcras": 2308,
      "Ġpurp": 2309,
      "Ġwell": 2310,
      "Ġ120": 2311,
      "lar": 2312,
      "ĠPuzzle": 2313,
      "roduce": 2314,
      "elmet": 2315,
      "Ġho": 2316,
      "Ġ392": 2317,
      "Ġ43": 2318,
      "get": 2319,
      "ĠHelmet": 2320,
      "Ġstrange": 2321,
      "ĠGit": 2322,
      "ĠIniti": 2323,
      "Ġthough": 2324,
      "Ġthree": 2325,
      "Ġshorter": 2326,
      "Ġ83": 2327,
      "ĠFixedUpdate": 2328,
      "color": 2329,
      "Ġ103": 2330,
      "Ġ108": 2331,
      "Ġadmit": 2332,
      "Ġ167": 2333,
      "ĠKeyboard": 2334,
      "Ġ112": 2335,
      "Ġ118": 2336,
      "Ġ174": 2337,
      "Ġ123": 2338,
      "Ġ144": 2339,
      "ransform": 2340,
      "Ġ215": 2341,
      "Ġ217": 2342,
      "368": 2343,
      "omatic": 2344,
      "Ġ272": 2345,
      "Ġnode": 2346,
      "indow": 2347,
      "ĠOne": 2348,
      "Ġdaytime": 2349,
      "Ġunrelat": 2350,
      "ĠSunlight": 2351,
      "Ġvibe": 2352,
      "Ġ[\"": 2353,
      "ckets": 2354,
      "Ġconfusing": 2355,
      "Ġrunnable": 2356,
      "erates": 2357,
      "Ġbrainstorm": 2358,
      "Ġelectrons": 2359,
      "Ġfix": 2360,
      "Ġcollection": 2361,
      "Ġbrackets": 2362,
      "Ġscripting": 2363,
      "ĠReproduce": 2364,
      "Ġ`=`.": 2365,
      "Ġcommunity": 2366,
      "\"]`.": 2367,
      "synthe": 2368,
      "Ġautomatic": 2369,
      "Ġcrash": 2370,
      "Ġpurpose": 2371,
      "ĠInitialize": 2372,
      "colors": 2373,
      "Ġunrelated": 2374,
      "synthesis": 2375,
      "Ġautomatically": 2376,
      "500": 2377,
      "75": 2378,
      "name": 2379,
      "ĠChat": 2380,
      "Ġexplan": 2381,
      "Ġcent": 2382,
      "Ġokay": 2383,
      "Ġsure": 2384,
      "Ġfive": 2385,
      "Ġ140": 2386,
      "Ġ235": 2387,
      "Ġrec": 2388,
      "Ġcomple": 2389,
      "Ġ33": 2390,
      "Ġ362": 2391,
      "Ġ337": 2392,
      "Ġ49": 2393,
      "Ġmap": 2394,
      "ĠHere": 2395,
      "Ġ69": 2396,
      "Ġ622": 2397,
      "Ġ81": 2398,
      "Ġ82": 2399,
      "Ġ88": 2400,
      "Ġ91": 2401,
      "Ġ92": 2402,
      "Ġ98": 2403,
      "Ġfunny": 2404,
      "Ġ209": 2405,
      "Ġ190": 2406,
      "Ġ196": 2407,
      "Ġ141": 2408,
      "Ġmeaning": 2409,
      "Ġ211": 2410,
      "ustr": 2411,
      "Ġ294": 2412,
      "Ġaccel": 2413,
      "Ġ267": 2414,
      "Ġmessages": 2415,
      "024": 2416,
      "!\")`.": 2417,
      "ĠArt": 2418,
      "ĠChatGPT": 2419,
      "Ġcenter": 2420,
      "Ġaccelerates": 2421,
      "920": 2422,
      "fort": 2423,
      "ln": 2424,
      "rass": 2425,
      "xt": 2426,
      "Ġrough": 2427,
      "Ġari": 2428,
      "hether": 2429,
      "liar": 2430,
      "Ġsor": 2431,
      "Ġfound": 2432,
      "thmet": 2433,
      "Ġwindow": 2434,
      "Ġ180": 2435,
      "Ġbel": 2436,
      "Ġ240": 2437,
      "Ġ232": 2438,
      "Ġreason": 2439,
      "Ġcover": 2440,
      "Ġgrass": 2441,
      "cept": 2442,
      "Ġany": 2443,
      "Ġ35": 2444,
      "Ġ340": 2445,
      "Ġ317": 2446,
      "Ġ351": 2447,
      "ĠTo": 2448,
      "Ġ422": 2449,
      "Ġ417": 2450,
      "ored": 2451,
      "Ġ61": 2452,
      "ĠSmal": 2453,
      "ĠUnder": 2454,
      "ĠFair": 2455,
      "Ġ154": 2456,
      "Ġ159": 2457,
      "Ġ168": 2458,
      "Ġ137": 2459,
      "Ġ138": 2460,
      "Ġ115": 2461,
      "Ġchoose": 2462,
      "Ġ170": 2463,
      "Ġ205": 2464,
      "Ġ124": 2465,
      "Ġ125": 2466,
      "Ġ128": 2467,
      "Ġ192": 2468,
      "Ġ142": 2469,
      "Ġ149": 2470,
      "Ġfamiliar": 2471,
      "Ġup": 2472,
      "Ġ188": 2473,
      "Ġ212": 2474,
      "Ġ213": 2475,
      "Ġ214": 2476,
      "Ġ216": 2477,
      "Ġ245": 2478,
      "ĠRigidbody": 2479,
      "Ġcomes": 2480,
      "Ġ407": 2481,
      "ernoon": 2482,
      "Ġsum": 2483,
      "Ġpredicts": 2484,
      "Ġcomfort": 2485,
      "Ġscatters": 2486,
      "Ġtwo": 2487,
      "Ġthings": 2488,
      "Ġdepends": 2489,
      "Ġafternoon": 2490,
      "ĠRome": 2491,
      "Ġinclude": 2492,
      "Ġformat": 2493,
      "Ġelectric": 2494,
      "Ġfinished": 2495,
      "Ġhuman": 2496,
      "Ġarithmet": 2497,
      "Ġsorry": 2498,
      "Ġbelong": 2499,
      "Ġreasoning": 2500,
      "Ġcoverage": 2501,
      "ĠSmall": 2502,
      "Ġarithmetic": 2503,
      "440": 2504,
      "LM": 2505,
      "dical": 2506,
      "eg": 2507,
      "gence": 2508,
      "hoto": 2509,
      "ial": 2510,
      "ttle": 2511,
      "Ġ'": 2512,
      "stood": 2513,
      "Ġsour": 2514,
      "Ġserious": 2515,
      "ĠWith": 2516,
      "Ġbored": 2517,
      "Ġ234": 2518,
      "ĠPhoto": 2519,
      "Ġmedical": 2520,
      "Ġmoment": 2521,
      "Ġ336": 2522,
      "Ġ316": 2523,
      "Ġ397": 2524,
      "Ġ388": 2525,
      "Ġ382": 2526,
      "Ġ470": 2527,
      "Ġintelli": 2528,
      "Ġ500": 2529,
      "Ġ542": 2530,
      "Ġ642": 2531,
      "ĠMi": 2532,
      "ĠMaya": 2533,
      "Ġ72": 2534,
      "Ġ85": 2535,
      "ĠJu": 2536,
      "ĠJordan": 2537,
      "Ġ160": 2538,
      "ĠKai": 2539,
      "Ġ133": 2540,
      "Ġ136": 2541,
      "Ġseed": 2542,
      "Ġeveryday": 2543,
      "Ġ111": 2544,
      "ĠNora": 2545,
      "ĠCome": 2546,
      "ĠCozy": 2547,
      "Ġ127": 2548,
      "Ġchosen": 2549,
      "ĠRiley": 2550,
      "ĠLe": 2551,
      "ĠLeo": 2552,
      "ĠLLM": 2553,
      "Ġquestions": 2554,
      "Ġ297": 2555,
      "Ġword": 2556,
      "Ġ263": 2557,
      "Ġ487": 2558,
      "Ġ427": 2559,
      "Ġactually": 2560,
      "ĠStar": 2561,
      "Ġalso": 2562,
      "Ġfeel": 2563,
      "Ġ>=": 2564,
      "ĠSpa": 2565,
      "Ġrandomly": 2566,
      "Ġtools": 2567,
      "ĠUnderstood": 2568,
      "Ġintelligence": 2569,
      "++": 2570,
      "/`": 2571,
      "900": 2572,
      "Jordan": 2573,
      "Kai": 2574,
      "Leo": 2575,
      "Maya": 2576,
      "Nora": 2577,
      "Riley": 2578,
      "back": 2579,
      "ek": 2580,
      "emember": 2581,
      "gal": 2582,
      "ies": 2583,
      "lve": 2584,
      "po": 2585,
      "the": 2586,
      "ĠZoe": 2587,
      "ought": 2588,
      "ality": 2589,
      "Ġtry": 2590,
      "ĠYe": 2591,
      "Ġclo": 2592,
      "Ġfra": 2593,
      "Ġfeed": 2594,
      "Ġbring": 2595,
      "Ġ220": 2596,
      "Ġ280": 2597,
      "Ġ318": 2598,
      "Ġ335": 2599,
      "Ġ331": 2600,
      "Ġlittle": 2601,
      "Ġ45": 2602,
      "Ġ497": 2603,
      "icial": 2604,
      "Ġ627": 2605,
      "ĠSam": 2606,
      "Ġsolve": 2607,
      "Ġthought": 2608,
      "Ġ158": 2609,
      "Ġ107": 2610,
      "Ġ96": 2611,
      "Ġ`/": 2612,
      "Ġ163": 2613,
      "Ġ169": 2614,
      "Ġweek": 2615,
      "Ġ172": 2616,
      "Ġ176": 2617,
      "ĠBye": 2618,
      "Ġ202": 2619,
      "Ġ122": 2620,
      "Ġ126": 2621,
      "Ġ198": 2622,
      "Ġ143": 2623,
      "Ġ146": 2624,
      "Ġ148": 2625,
      "Ġmeans": 2626,
      "Ġlegal": 2627,
      "Ġ210": 2628,
      "Ġ242": 2629,
      "Ġ256": 2630,
      "ĠRemember": 2631,
      "Ġ273": 2632,
      "Ġcarried": 2633,
      "ĠOkay": 2634,
      "Ġ287": 2635,
      "Ġexamples": 2636,
      "Ġscreen": 2637,
      "Ġ367": 2638,
      "Ġrunning": 2639,
      "Ġproblems": 2640,
      "ificial": 2641,
      "Ġmatters": 2642,
      "Ġ415": 2643,
      "Ġglass": 2644,
      "ĠPacific": 2645,
      "Ġframe": 2646,
      "41": 2647,
      "460": 2648,
      "71": 2649,
      "Sam": 2650,
      "ched": 2651,
      "eat": 2652,
      "end": 2653,
      "gre": 2654,
      "ire": 2655,
      "lf": 2656,
      "nect": 2657,
      "Ġrou": 2658,
      "nted": 2659,
      "sition": 2660,
      "stakes": 2661,
      "rese": 2662,
      "rection": 2663,
      "ali": 2664,
      "ĠAvery": 2665,
      "erical": 2666,
      "Ġchud": 2667,
      "Ġcamera": 2668,
      "ĠItal": 2669,
      "Ġpo": 2670,
      "ĠWater": 2671,
      "ĠWhere": 2672,
      "Ġfree": 2673,
      "Ġwhether": 2674,
      "anci": 2675,
      "Ġnum": 2676,
      "Ġreliable": 2677,
      "Ġhard": 2678,
      "Ġ330": 2679,
      "Ġ355": 2680,
      "vered": 2681,
      "Ġ430": 2682,
      "Ġ457": 2683,
      "Ġ446": 2684,
      "Ġwild": 2685,
      "Ġintera": 2686,
      "Ġ63": 2687,
      "Ġ647": 2688,
      "Ġconnect": 2689,
      "Ġstring": 2690,
      "ural": 2691,
      "Ġclaim": 2692,
      "Ġable": 2693,
      "Ġneural": 2694,
      "ety": 2695,
      "Ġ153": 2696,
      "Ġ155": 2697,
      "Ġ101": 2698,
      "Ġcontent": 2699,
      "Ġplanted": 2700,
      "Ġ117": 2701,
      "Ġ177": 2702,
      "Ġ204": 2703,
      "Ġ191": 2704,
      "Ġscored": 2705,
      "Ġ181": 2706,
      "Ġreprese": 2707,
      "Ġ250": 2708,
      "Ġ252": 2709,
      "Ġ254": 2710,
      "Ġ677": 2711,
      "Ġkeyboard": 2712,
      "Ġ222": 2713,
      "Ġ228": 2714,
      "Ġcalm": 2715,
      "Ġkind": 2716,
      "Ġstay": 2717,
      "Ġmistake": 2718,
      "Ġsaid": 2719,
      "Ġ375": 2720,
      "Ġbutton": 2721,
      "Ġ426": 2722,
      "Ġ472": 2723,
      "ructions": 2724,
      "Ġpersonal": 2725,
      "Ġspaceship": 2726,
      "eople": 2727,
      "ĠQuinn": 2728,
      "Ġrecognition": 2729,
      "Ġrequests": 2730,
      "Ġwebsi": 2731,
      "Ġfinanci": 2732,
      "Ġadjust": 2733,
      "ĠContinue": 2734,
      "Ġ<<": 2735,
      "Ġtasks": 2736,
      "Ġhello": 2737,
      "Ġinstructions": 2738,
      "Ġsafety": 2739,
      "ĠArtificial": 2740,
      "Ġsources": 2741,
      "position": 2742,
      "Ġclose": 2743,
      "Ġthoughts": 2744,
      "Ġfreez": 2745,
      "Ġnumerical": 2746,
      "Ġinteract": 2747,
      "Ġfinancial": 2748,
      ")`": 2749,
      "43": 2750,
      "840": 2751,
      "960": 2752,
      ":`": 2753,
      ";`.": 2754,
      "=\"": 2755,
      "Avery": 2756,
      "Ava": 2757,
      "Dri": 2758,
      "Rigidbody": 2759,
      "You": 2760,
      "[]": 2761,
      "acon": 2762,
      "aint": 2763,
      "bi": 2764,
      "bsol": 2765,
      "che": 2766,
      "dge": 2767,
      "dder": 2768,
      "dating": 2769,
      "ech": 2770,
      "eling": 2771,
      "green": 2772,
      "ign": 2773,
      "kely": 2774,
      "lk": 2775,
      "lou": 2776,
      "mt": 2777,
      "mary": 2778,
      "psing": 2779,
      "physics": 2780,
      "rd": 2781,
      "shed": 2782,
      "transform": 2783,
      "txt": 2784,
      "ucle": 2785,
      "var": 2786,
      "ven": 2787,
      "wn": 2788,
      "with": 2789,
      "yle": 2790,
      "zen": 2791,
      "zil": 2792,
      "}`.": 2793,
      "Ġav": 2794,
      "Ġaction": 2795,
      "Ġaff": 2796,
      "Ġassign": 2797,
      "step": 2798,
      "ssigned": 2799,
      "ress": 2800,
      "rects": 2801,
      "alance": 2802,
      "liet": 2803,
      "lished": 2804,
      "Ġedge": 2805,
      "Ġton": 2806,
      "Ġthi": 2807,
      "Ġtype": 2808,
      "used": 2809,
      "uses": 2810,
      "oned": 2811,
      "ĠAs": 2812,
      "ĠAustr": 2813,
      "ĠAbsol": 2814,
      "ular": 2815,
      "licked": 2816,
      "Ġhemi": 2817,
      "atch": 2818,
      "Ġclou": 2819,
      "Ġclicked": 2820,
      "Ġsav": 2821,
      "ris": 2822,
      "Ġmass": 2823,
      "Ġput": 2824,
      "Ġpair": 2825,
      "Ġposter": 2826,
      "Ġpaint": 2827,
      "Ġfed": 2828,
      "Ġfit": 2829,
      "Ġfur": 2830,
      "Ġfalls": 2831,
      "thor": 2832,
      "Ġwin": 2833,
      "Ġwere": 2834,
      "ange": 2835,
      "anished": 2836,
      "Ġnight": 2837,
      "Ġnucle": 2838,
      "Ġband": 2839,
      "Ġbright": 2840,
      "Ġbalance": 2841,
      "Ġthen": 2842,
      "Ġ==": 2843,
      "Ġtown": 2844,
      "ĠPhysics": 2845,
      "ĠPlay": 2846,
      "rozen": 2847,
      "Ġrequ": 2848,
      "Ġreach": 2849,
      "Ġrender": 2850,
      "Ġreduce": 2851,
      "Ġyoung": 2852,
      "Ġcoding": 2853,
      "Ġinsp": 2854,
      "Ġinside": 2855,
      "Ġgases": 2856,
      "cessing": 2857,
      "Ġhair": 2858,
      "Ġmoon": 2859,
      "tebr": 2860,
      "Ġanim": 2861,
      "Ġ360": 2862,
      "Ġ310": 2863,
      "Ġ358": 2864,
      "Ġ357": 2865,
      "Ġlikely": 2866,
      "Ġbeacon": 2867,
      "ĠTex": 2868,
      "ĠToo": 2869,
      "razil": 2870,
      "Ġ480": 2871,
      "Ġ442": 2872,
      "Ġ458": 2873,
      "Ġorange": 2874,
      "Ġ55": 2875,
      "ĠMake": 2876,
      "Ġconden": 2877,
      "Ġproton": 2878,
      "Ġprocessing": 2879,
      "ĠSound": 2880,
      "ĠSleep": 2881,
      "ĠSign": 2882,
      "Ġladder": 2883,
      "fty": 2884,
      "Ġfloor": 2885,
      "apan": 2886,
      "Ġaband": 2887,
      "Ġdirection": 2888,
      "ĠEach": 2889,
      "Ġshow": 2890,
      "Ġsolar": 2891,
      "Ġvanished": 2892,
      "Ġdegre": 2893,
      "ĠInference": 2894,
      "Ġneut": 2895,
      "Ġ830": 2896,
      "Ġprinted": 2897,
      "ĠFrozen": 2898,
      "coding": 2899,
      "covered": 2900,
      "ĠJapan": 2901,
      "Ġ94": 2902,
      "Ġlisten": 2903,
      "Ġadding": 2904,
      "Ġdoubles": 2905,
      "Ġ165": 2906,
      "Ġcontine": 2907,
      "Ġcontain": 2908,
      "Ġmanag": 2909,
      "Ġ132": 2910,
      "Ġ119": 2911,
      "Ġ178": 2912,
      "Ġchar": 2913,
      "Ġchords": 2914,
      "ĠBrazil": 2915,
      "ĠCall": 2916,
      "Ġnamed": 2917,
      "Ġparag": 2918,
      "Ġ1254": 2919,
      "Ġ195": 2920,
      "ĠDi": 2921,
      "Ġ145": 2922,
      "Ġplayer": 2923,
      "Ġlet": 2924,
      "Ġlengths": 2925,
      "utf": 2926,
      "utely": 2927,
      "Ġ184": 2928,
      "Ġ186": 2929,
      "Ġ218": 2930,
      "628": 2931,
      "Ġrepeat": 2932,
      "Ġ247": 2933,
      "Ġ257": 2934,
      "ĠRain": 2935,
      "ĠLis": 2936,
      "ada": 2937,
      "Ġmilk": 2938,
      "Ġ305": 2939,
      "Ġkey": 2940,
      "Ġunit": 2941,
      "Ġunop": 2942,
      "ĠCanada": 2943,
      "Ġprogress": 2944,
      "Ġ225": 2945,
      "Ġdiscovered": 2946,
      "Ġ406": 2947,
      "Ġgenerates": 2948,
      "Ġprojects": 2949,
      "Ġblueprint": 2950,
      "idation": 2951,
      "ented": 2952,
      "Ġencoding": 2953,
      "Ġ295": 2954,
      "Ġstage": 2955,
      "Ġstack": 2956,
      "Ġ277": 2957,
      "Ġdrop": 2958,
      "Ġlooks": 2959,
      "Ġplanning": 2960,
      "Ġ374": 2961,
      "Ġ286": 2962,
      "Ġ264": 2963,
      "Ġterm": 2964,
      "Ġ424": 2965,
      "Ġ{\"": 2966,
      "Ġquit": 2967,
      "Ġquality": 2968,
      "ĠMona": 2969,
      "Ġreached": 2970,
      "Ġ347": 2971,
      "515": 2972,
      "Ġvertebr": 2973,
      "Ġ361": 2974,
      "Ġgold": 2975,
      "Ġunresolved": 2976,
      "()`.": 2977,
      "hips": 2978,
      "Ġremoved": 2979,
      "Ġconfused": 2980,
      "ĠShould": 2981,
      "Ġfollowed": 2982,
      "Ġstructures": 2983,
      "Ġ469": 2984,
      "Ġago": 2985,
      "Ġevapor": 2986,
      "ĠState": 2987,
      "ĠStars": 2988,
      "Quinn": 2989,
      "Ġscattered": 2990,
      "Ġhappy": 2991,
      "Ġhappen": 2992,
      "Ġtimes": 2993,
      "Ġenerget": 2994,
      "notes": 2995,
      "raph": 2996,
      "Ġdesign": 2997,
      "Ġfeeling": 2998,
      "ĠSoap": 2999,
      "Ġtrace": 3000,
      "Ġrecognized": 3001,
      "Ġmammary": 3002,
      "Ġstart": 3003,
      "Ġsteps": 3004,
      "Ġawake": 3005,
      "Ġboiling": 3006,
      "Ġreceiv": 3007,
      "Ġglands": 3008,
      "Ġangles": 3009,
      "Ġparticular": 3010,
      "Ġmammals": 3011,
      "player": 3012,
      "Ġredirects": 3013,
      "Ġfifty": 3014,
      "ĠSpain": 3015,
      "Ġdefines": 3016,
      "Ġaura": 3017,
      "Ġauthor": 3018,
      "Ġyes": 3019,
      "ĠParis": 3020,
      "ĠShorter": 3021,
      "Ġindented": 3022,
      "Ġcauses": 3023,
      "Ġadjusts": 3024,
      "???": 3025,
      "Ġproduced": 3026,
      "Ġproduces": 3027,
      "Ġstatement": 3028,
      "Ġvalidation": 3029,
      "Ġcollapsing": 3030,
      "Ġhold": 3031,
      "Ġcomplete": 3032,
      "Ġupdating": 3033,
      "ĠRomeo": 3034,
      "Ġincluded": 3035,
      "Ġbelongs": 3036,
      "ĠMistakes": 3037,
      "ĠJuliet": 3038,
      "ĠStart": 3039,
      "Ġfeedback": 3040,
      "alia": 3041,
      "ĠItaly": 3042,
      "Ġpolished": 3043,
      "Ġconnected": 3044,
      "Ġstays": 3045,
      "Ġwebsite": 3046,
      "Ġclosest": 3047,
      "Ġfreezing": 3048,
      "Ġinteractive": 3049,
      "Drift": 3050,
      "Ġaffect": 3051,
      "Ġtonight": 3052,
      "Ġthird": 3053,
      "ĠAustralia": 3054,
      "ĠAbsolutely": 3055,
      "Ġhemisphere": 3056,
      "Ġcloud": 3057,
      "Ġsaved": 3058,
      "Ġpairs": 3059,
      "Ġpainter": 3060,
      "Ġnucleus": 3061,
      "ĠPlaylist": 3062,
      "Ġrequire": 3063,
      "Ġrendered": 3064,
      "Ġinspect": 3065,
      "Ġanimation": 3066,
      "Ġbeacons": 3067,
      "ĠTexas": 3068,
      "Ġcondenses": 3069,
      "Ġprotons": 3070,
      "ĠSignal": 3071,
      "Ġabandoned": 3072,
      "Ġdegrees": 3073,
      "Ġneutrons": 3074,
      "Ġcontinents": 3075,
      "Ġcontaining": 3076,
      "Ġmanager": 3077,
      "Ġparagraph": 3078,
      "ĠLisa": 3079,
      "Ġunopened": 3080,
      "Ġvertebrate": 3081,
      "Ġevaporates": 3082,
      "Ġenergetic": 3083,
      "!\"": 3084,
      "160": 3085,
      "112": 3086,
      "320": 3087,
      "61": 3088,
      "Go": 3089,
      "None": 3090,
      "`:": 3091,
      "ao": 3092,
      "asing": 3093,
      "assigned": 3094,
      "bvi": 3095,
      "dd": 3096,
      "df": 3097,
      "ead": 3098,
      "ibi": 3099,
      "nes": 3100,
      "nical": 3101,
      "ti": 3102,
      "ues": 3103,
      "vant": 3104,
      "ze": 3105,
      "Ġ(": 3106,
      "ntro": 3107,
      "ntern": 3108,
      "erun": 3109,
      "sider": 3110,
      "ouse": 3111,
      "res": 3112,
      "lish": 3113,
      "Ġearth": 3114,
      "Ġtried": 3115,
      "ĠAdd": 3116,
      "atelli": 3117,
      "Ġcra": 3118,
      "Ġcase": 3119,
      "Ġobvi": 3120,
      "ĠIce": 3121,
      "ĠIsol": 3122,
      "Ġsug": 3123,
      "Ġships": 3124,
      "Ġsatelli": 3125,
      "rived": 3126,
      "rify": 3127,
      "Ġpeople": 3128,
      "lean": 3129,
      "thod": 3130,
      "thouse": 3131,
      "Ġwalls": 3132,
      "Ġisol": 3133,
      "Ġnah": 3134,
      "Ġbran": 3135,
      "lants": 3136,
      "Ġ236": 3137,
      "Ġ266": 3138,
      "Ġ239": 3139,
      "ĠPlants": 3140,
      "sence": 3141,
      "Ġreli": 3142,
      "Ġremi": 3143,
      "Ġcozy": 3144,
      "Ġgho": 3145,
      "Ġmethod": 3146,
      "Ġhand": 3147,
      "Ġ380": 3148,
      "Ġ344": 3149,
      "Ġ390": 3150,
      "pture": 3151,
      "Ġligh": 3152,
      "ĠTech": 3153,
      "raction": 3154,
      "Ġ440": 3155,
      "Ġ432": 3156,
      "Ġ466": 3157,
      "Ġ438": 3158,
      "Ġ454": 3159,
      "Ġ451": 3160,
      "own": 3161,
      "Ġmaze": 3162,
      "Ġ590": 3163,
      "itely": 3164,
      "Ġ630": 3165,
      "Ġ637": 3166,
      "Ġ646": 3167,
      "ĠMet": 3168,
      "Ġconsider": 3169,
      "Ġpromp": 3170,
      "Ġstyle": 3171,
      "ĠGravity": 3172,
      "Ġlantern": 3173,
      ");`.": 3174,
      "Ġclarify": 3175,
      "ape": 3176,
      "000": 3177,
      "Ġabsence": 3178,
      "Ġground": 3179,
      "Ġshape": 3180,
      "Ġsix": 3181,
      "Ġarrived": 3182,
      "Ġ860": 3183,
      "contro": 3184,
      "Ġ104": 3185,
      "Ġ900": 3186,
      "Ġ912": 3187,
      "Ġ966": 3188,
      "Ġ934": 3189,
      "Ġ1670": 3190,
      "Ġcontinue": 3191,
      "Ġsimplest": 3192,
      "404": 3193,
      "Ġlow": 3194,
      "Ġarrays": 3195,
      "Ġmaxim": 3196,
      "ĠName": 3197,
      "ĠBread": 3198,
      "Ġ121": 3199,
      "Ġplaylist": 3200,
      "Ġrerun": 3201,
      "Ġ185": 3202,
      "Ġ251": 3203,
      "ĠRight": 3204,
      "Ġ308": 3205,
      "Ġunassigned": 3206,
      "Ġbriefly": 3207,
      "Ġ223": 3208,
      "Ġ226": 3209,
      "Ġprecise": 3210,
      "Ġ402": 3211,
      "361": 3212,
      "bjects": 3213,
      "Ġprograms": 3214,
      "Ġkeeper": 3215,
      "Ġcall": 3216,
      "Ġ291": 3217,
      "Ġ292": 3218,
      "444": 3219,
      "Ġaccept": 3220,
      "Ġbasics": 3221,
      "ĠObjects": 3222,
      "Ġ283": 3223,
      "Ġ288": 3224,
      "Ġcurrently": 3225,
      "Ġ489": 3226,
      "Ġ425": 3227,
      "Ġ474": 3228,
      "976": 3229,
      "945": 3230,
      "Ġskibi": 3231,
      "Ġcompil": 3232,
      "Ġstructured": 3233,
      "Ġ}`.": 3234,
      "Ġhearing": 3235,
      "Ġnatural": 3236,
      "Ġtrack": 3237,
      "Ġphotosynthesis": 3238,
      "Ġreleasing": 3239,
      "Ġrelevant": 3240,
      "boration": 3241,
      "Ġboolean": 3242,
      "Ġasked": 3243,
      "Ġconfidence": 3244,
      "Ġattraction": 3245,
      "Ġblock": 3246,
      "ĠExercise": 3247,
      "Ġdefined": 3248,
      "Ġdefinitely": 3249,
      "Ġsays": 3250,
      "OOOO": 3251,
      "Ġcapture": 3252,
      "ĠContext": 3253,
      "Ġtask": 3254,
      "Ġhelmet": 3255,
      "Ġinstead": 3256,
      "Ġperforms": 3257,
      "Ġvalues": 3258,
      "Ġcollaboration": 3259,
      "Ġcrashing": 3260,
      "Ġexplanation": 3261,
      "Ġrecords": 3262,
      "Ġanytime": 3263,
      "ĠPhotosynthesis": 3264,
      "ĠLeaves": 3265,
      "ĠYeah": 3266,
      "Ġstrings": 3267,
      "Ġrepresents": 3268,
      "ches": 3269,
      "ĠDirect": 3270,
      "Ġreceiving": 3271,
      "!\");`.": 3272,
      "Ġobvious": 3273,
      "ĠIsolate": 3274,
      "Ġsugars": 3275,
      "Ġsatellite": 3276,
      "Ġisolate": 3277,
      "Ġbranches": 3278,
      "Ġghost": 3279,
      "Ġlighthouse": 3280,
      "ĠTechnical": 3281,
      "ĠMetal": 3282,
      "control": 3283,
      "Ġmaximum": 3284,
      "Ġaccepted": 3285,
      "Ġskibidi": 3286,
      "Ġcompiler": 3287,
      "Ġbooleans": 3288,
      "116": 3289,
      "336": 3290,
      "49": 3291,
      "980": 3292,
      "::": 3293,
      "HH": 3294,
      "ait": 3295,
      "but": 3296,
      "cout": 3297,
      "cide": 3298,
      "dks": 3299,
      "driv": 3300,
      "ee": 3301,
      "ef": 3302,
      "fun": 3303,
      "ix": 3304,
      "iet": 3305,
      "jo": 3306,
      "js": 3307,
      "kdf": 3308,
      "na": 3309,
      "no": 3310,
      "vol": 3311,
      "xag": 3312,
      "mework": 3313,
      "ĠCould": 3314,
      "hur": 3315,
      "Ġturn": 3316,
      "usable": 3317,
      "Ġarena": 3318,
      "ulti": 3319,
      "emand": 3320,
      "emies": 3321,
      "Ġhexag": 3322,
      "ĠYo": 3323,
      "Ġassistants": 3324,
      "Ġcour": 3325,
      "Ġsur": 3326,
      "Ġsho": 3327,
      "Ġshift": 3328,
      "Ġset": 3329,
      "Ġslog": 3330,
      "Ġsad": 3331,
      "Ġmulti": 3332,
      "Ġpot": 3333,
      "Ġplu": 3334,
      "Ġplat": 3335,
      "Ġpuzzle": 3336,
      "ĠWant": 3337,
      "Ġdinner": 3338,
      "Ġdemand": 3339,
      "las": 3340,
      "Ġ200": 3341,
      "Ġ299": 3342,
      "Ġ233": 3343,
      "aring": 3344,
      "Ġreusable": 3345,
      "Ġinvol": 3346,
      "Ġgent": 3347,
      "ctor": 3348,
      "ception": 3349,
      "aving": 3350,
      "Ġhop": 3351,
      "Ġhaving": 3352,
      "Ġmood": 3353,
      "Ġ320": 3354,
      "Ġ332": 3355,
      "Ġ322": 3356,
      "Ġ314": 3357,
      "Ġ354": 3358,
      "Ġ352": 3359,
      "Ġ359": 3360,
      "Ġ315": 3361,
      "verse": 3362,
      "ĠTransform": 3363,
      "Ġ450": 3364,
      "Ġ435": 3365,
      "Ġ414": 3366,
      "Ġ492": 3367,
      "Ġ411": 3368,
      "Ġ456": 3369,
      "Ġ452": 3370,
      "Ġwires": 3371,
      "ĠHalf": 3372,
      "keting": 3373,
      "Ġinteg": 3374,
      "Ġ59": 3375,
      "Ġ560": 3376,
      "Ġ562": 3377,
      "Ġ512": 3378,
      "Ġ566": 3379,
      "Ġ522": 3380,
      "Ġ558": 3381,
      "Ġ527": 3382,
      "Ġ559": 3383,
      "itive": 3384,
      "cho": 3385,
      "Ġ68": 3386,
      "Ġ632": 3387,
      "Ġ617": 3388,
      "Ġstd": 3389,
      "ĠSee": 3390,
      "Ġusual": 3391,
      "Ġflower": 3392,
      "008": 3393,
      "nglish": 3394,
      "Ġ760": 3395,
      "Ġ799": 3396,
      "Ġ790": 3397,
      "Ġ717": 3398,
      "Ġ774": 3399,
      "ĠElect": 3400,
      "ĠEnglish": 3401,
      "Ġdecide": 3402,
      "Ġfail": 3403,
      "Ġ838": 3404,
      "etitive": 3405,
      "Ġ150": 3406,
      "Ġ95": 3407,
      "Ġ977": 3408,
      "Ġnotes": 3409,
      "Ġ166": 3410,
      "tern": 3411,
      "Ġ1362": 3412,
      "Ġeveryone": 3413,
      "Ġplace": 3414,
      "Ġ113": 3415,
      "culation": 3416,
      "ĠNew": 3417,
      "Ġ203": 3418,
      "Ġ207": 3419,
      "Ġ193": 3420,
      "former": 3421,
      "ĠHealth": 3422,
      "Ġ258": 3423,
      "Ġ259": 3424,
      "304": 3425,
      "Ġ670": 3426,
      "Ġjdks": 3427,
      "Ġdiscu": 3428,
      "Ġ404": 3429,
      "188": 3430,
      "428": 3431,
      "Ġcalculation": 3432,
      "Ġ507": 3433,
      "Ġenemies": 3434,
      "Ġ296": 3435,
      "Ġstat": 3436,
      "Ġrelax": 3437,
      "Ġ377": 3438,
      "Ġ378": 3439,
      "ĠOf": 3440,
      "Ġ281": 3441,
      "356": 3442,
      "Ġ488": 3443,
      "Ġquiet": 3444,
      "Ġ477": 3445,
      "Ġ326": 3446,
      "Ġ364": 3447,
      "Ġ368": 3448,
      "Ġ369": 3449,
      "968": 3450,
      "Ġcreates": 3451,
      "Ġcomparing": 3452,
      "Ġcompetitive": 3453,
      "Ġ467": 3454,
      "Ġsides": 3455,
      "oiding": 3456,
      "ĠSolar": 3457,
      "Ġstarting": 3458,
      "Ġlesson": 3459,
      "Ġ393": 3460,
      "Ġmarketing": 3461,
      "Ġglad": 3462,
      "Ġbuilding": 3463,
      "pressure": 3464,
      "ĠSeriously": 3465,
      "Ġconductor": 3466,
      "Ġsaying": 3467,
      "Ġcollects": 3468,
      "ricity": 3469,
      "Ġsafe": 3470,
      "Ġhomework": 3471,
      "getting": 3472,
      "Ġnodes": 3473,
      "Ġrecord": 3474,
      "Ġcomfortable": 3475,
      "Ġelectricity": 3476,
      "ĠWithout": 3477,
      "ĠSpaceship": 3478,
      "lfjs": 3479,
      "Ġroute": 3480,
      "Ġavoiding": 3481,
      "Ġshower": 3482,
      "Ġcharge": 3483,
      "Ġrepeats": 3484,
      "Ġholds": 3485,
      "Ġcraft": 3486,
      "Ġrelief": 3487,
      "Ġremix": 3488,
      "Ġhandle": 3489,
      "button": 3490,
      "driven": 3491,
      "ixel": 3492,
      "Ġhexagon": 3493,
      "Ġcourse": 3494,
      "Ġshop": 3495,
      "Ġshifting": 3496,
      "Ġsettle": 3497,
      "Ġslogan": 3498,
      "Ġpotions": 3499,
      "Ġpluh": 3500,
      "Ġplatformer": 3501,
      "Ġinvolves": 3502,
      "Ġgentle": 3503,
      "Ġhoped": 3504,
      "Ġinteger": 3505,
      "ĠElectricity": 3506,
      "ĠHealthy": 3507,
      "Ġjdkslfjs": 3508,
      "Ġdiscussing": 3509,
      "Ġjdkslfjskdf": 3510,
      "192": 3511,
      "332": 3512,
      "442": 3513,
      "544": 3514,
      "ax": 3515,
      "ever": 3516,
      "ip": 3517,
      "ied": 3518,
      "ilit": 3519,
      "ma": 3520,
      "pes": 3521,
      "rust": 3522,
      "try": 3523,
      "tely": 3524,
      "usic": 3525,
      "ĠV": 3526,
      "Ġ...": 3527,
      "sit": 3528,
      "Ġtho": 3529,
      "Ġexpect": 3530,
      "eriod": 3531,
      "Ġhelping": 3532,
      "Ġcame": 3533,
      "Ġpur": 3534,
      "Ġperiod": 3535,
      "Ġfore": 3536,
      "Ġflue": 3537,
      "Ġwait": 3538,
      "Ġbus": 3539,
      "lad": 3540,
      "Ġ260": 3541,
      "Ġ270": 3542,
      "rot": 3543,
      "Ġ342": 3544,
      "Ġ366": 3545,
      "Ġ334": 3546,
      "Ġ396": 3547,
      "Ġlines": 3548,
      "Ġbest": 3549,
      "ĠTalk": 3550,
      "except": 3551,
      "Ġ420": 3552,
      "Ġ418": 3553,
      "Ġ433": 3554,
      "unip": 3555,
      "Ġ510": 3556,
      "Ġ551": 3557,
      "Ġ557": 3558,
      "Ġ582": 3559,
      "Ġ587": 3560,
      "Ġ662": 3561,
      "Ġ686": 3562,
      "Ġ684": 3563,
      "ĠMeg": 3564,
      "ĠMusic": 3565,
      "ĠGlad": 3566,
      "Ġabilit": 3567,
      "Ġ73": 3568,
      "Ġ766": 3569,
      "Ġ788": 3570,
      "Ġdeci": 3571,
      "Ġdelay": 3572,
      "Ġ*/`": 3573,
      "Ġ1510": 3574,
      "Ġwhatever": 3575,
      "Ġ1062": 3576,
      "Ġ1014": 3577,
      "Ġ93": 3578,
      "Ġ962": 3579,
      "Ġ950": 3580,
      "Ġ910": 3581,
      "Ġ917": 3582,
      "Ġ164": 3583,
      "Ġ1686": 3584,
      "ssed": 3585,
      "Ġweak": 3586,
      "Ġ135": 3587,
      "Ġ1326": 3588,
      "405": 3589,
      "408": 3590,
      "Ġ1150": 3591,
      "dience": 3592,
      "Ġbetter": 3593,
      "Ġlose": 3594,
      "Ġ173": 3595,
      "Ġ1720": 3596,
      "Ġ1758": 3597,
      "Ġchao": 3598,
      "Ġnames": 3599,
      "Ġ129": 3600,
      "Ġ1278": 3601,
      "Ġ182": 3602,
      "Ġ189": 3603,
      "Ġchecked": 3604,
      "Ġ249": 3605,
      "Ġexception": 3606,
      "ader": 3607,
      "Ġmissed": 3608,
      "Ġ301": 3609,
      "Ġ306": 3610,
      "125": 3611,
      "321": 3612,
      "366": 3613,
      "421": 3614,
      "702": 3615,
      "372": 3616,
      "374": 3617,
      "Ġsahur": 3618,
      "584": 3619,
      "Ġ275": 3620,
      "Ġ276": 3621,
      "Ġ278": 3622,
      "172": 3623,
      "174": 3624,
      "178": 3625,
      "179": 3626,
      "ellow": 3627,
      "Ġ371": 3628,
      "Ġ373": 3629,
      "Ġ602": 3630,
      "Ġ607": 3631,
      "145": 3632,
      "Ġcooked": 3633,
      "ĠAnimal": 3634,
      "Ġ268": 3635,
      "548": 3636,
      "Ġ482": 3637,
      "Ġ485": 3638,
      "Ġ421": 3639,
      "Ġ423": 3640,
      "Ġ346": 3641,
      "Ġ325": 3642,
      "Ġ3220": 3643,
      "576": 3644,
      "Ġcomment": 3645,
      "Ġgoal": 3646,
      "339": 3647,
      "Ġvisit": 3648,
      "Ġexactly": 3649,
      "989": 3650,
      "Ġfollowing": 3651,
      "315": 3652,
      "Ġ578": 3653,
      "ĠGames": 3654,
      "Ġaltern": 3655,
      "Ġtrade": 3656,
      "types": 3657,
      "Ġ441": 3658,
      "Ġ449": 3659,
      "Ġteal": 3660,
      "igo": 3661,
      "Ġcatch": 3662,
      "ĠBefore": 3663,
      "Ġ661": 3664,
      "rounding": 3665,
      "Ġaudience": 3666,
      "Ġdepending": 3667,
      "Ġyellow": 3668,
      "Ġfrustr": 3669,
      "Ġindigo": 3670,
      "Ġexplanations": 3671,
      "Ġcompletely": 3672,
      "Ġanyone": 3673,
      "ĠSpace": 3674,
      "Ġ`/*": 3675,
      "Ġ`//`": 3676,
      "Ġprompts": 3677,
      "Ġsurrounding": 3678,
      "Ġmultiple": 3679,
      "Ġpurple": 3680,
      "Ġfluent": 3681,
      "Ġwaiting": 3682,
      "uniper": 3683,
      "ĠMega": 3684,
      "Ġdeciding": 3685,
      "Ġchaos": 3686,
      "ĠAnimals": 3687,
      "Ġalternative": 3688,
      "Ġfrustrating": 3689,
      "!(\"": 3690,
      "((": 3691,
      "144": 3692,
      "134": 3693,
      "23": 3694,
      "310": 3695,
      "314": 3696,
      "392": 3697,
      "497": 3698,
      "542": 3699,
      "538": 3700,
      "65": 3701,
      "662": 3702,
      "688": 3703,
      "880": 3704,
      "850": 3705,
      "844": 3706,
      "AT": 3707,
      "Max": 3708,
      "Print": 3709,
      "Rot": 3710,
      "St": 3711,
      "Score": 3712,
      "];": 3713,
      "ac": 3714,
      "akes": 3715,
      "ber": 3716,
      "bust": 3717,
      "cur": 3718,
      "dic": 3719,
      "even": 3720,
      "fn": 3721,
      "fmt": 3722,
      "go": 3723,
      "gma": 3724,
      "hh": 3725,
      "hrase": 3726,
      "ist": 3727,
      "import": 3728,
      "java": 3729,
      "ky": 3730,
      "oking": 3731,
      "ovies": 3732,
      "sum": 3733,
      "tate": 3734,
      "tta": 3735,
      "ua": 3736,
      "uous": 3737,
      "uter": 3738,
      "uff": 3739,
      "wa": 3740,
      "word": 3741,
      "{}": 3742,
      "ÃŃ": 3743,
      "Ġ%": 3744,
      "Ġ???": 3745,
      "Ġamb": 3746,
      "nto": 3747,
      "story": 3748,
      "ercur": 3749,
      "ssion": 3750,
      "reduce": 3751,
      "ĠCla": 3752,
      "lia": 3753,
      "liam": 3754,
      "Ġemp": 3755,
      "Ġeve": 3756,
      "Ġtru": 3757,
      "onard": 3758,
      "ĠAu": 3759,
      "ĠAust": 3760,
      "ulous": 3761,
      "ator": 3762,
      "inci": 3763,
      "Ġonto": 3764,
      "rid": 3765,
      "ĠWil": 3766,
      "Ġfocus": 3767,
      "Ġflor": 3768,
      "Ġfmt": 3769,
      "Ġben": 3770,
      "Ġbru": 3771,
      "Ġbool": 3772,
      "Ġda": 3773,
      "Ġdown": 3774,
      "Ġreal": 3775,
      "Ġreverse": 3776,
      "Ġcovers": 3777,
      "Ġinsult": 3778,
      "looking": 3779,
      "Ġmeet": 3780,
      "Ġhype": 3781,
      "text": 3782,
      "Ġ350": 3783,
      "Ġ395": 3784,
      "mpling": 3785,
      "mpScore": 3786,
      "Ġlimit": 3787,
      "otator": 3788,
      "ĠTravel": 3789,
      "ĠTung": 3790,
      "ĠType": 3791,
      "Ġ412": 3792,
      "Ġ495": 3793,
      "Ġ498": 3794,
      "Ġ447": 3795,
      "Ġ453": 3796,
      "Ġones": 3797,
      "Ġdog": 3798,
      "ĠHonest": 3799,
      "Ġ520": 3800,
      "Ġ530": 3801,
      "Ġ532": 3802,
      "Ġ518": 3803,
      "Ġ570": 3804,
      "Ġ537": 3805,
      "Ġ516": 3806,
      "Ġ517": 3807,
      "Ġ592": 3808,
      "Ġ555": 3809,
      "Ġ597": 3810,
      "Ġ598": 3811,
      "Ġ526": 3812,
      "Ġ552": 3813,
      "Ġ547": 3814,
      "Ġ581": 3815,
      "gher": 3816,
      "Ġ612": 3817,
      "Ġ616": 3818,
      "Ġ694": 3819,
      "Ġ626": 3820,
      "Ġ687": 3821,
      "Ġ681": 3822,
      "Ġ6300": 3823,
      "ĠMath": 3824,
      "ĠMad": 3825,
      "ĠMain": 3826,
      "ĠMovies": 3827,
      "ĠMercur": 3828,
      "Ġstuff": 3829,
      "ĠGo": 3830,
      "ĠSchool": 3831,
      "epend": 3832,
      "Ġ780": 3833,
      "Ġ718": 3834,
      "Ġ714": 3835,
      "Ġ725": 3836,
      "lder": 3837,
      "Ġsigma": 3838,
      "Ġ+=": 3839,
      "Ġargs": 3840,
      "Ġ832": 3841,
      "Ġ822": 3842,
      "Ġ894": 3843,
      "Ġ886": 3844,
      "Ġ876": 3845,
      "Ġ859": 3846,
      "println": 3847,
      "Ġprintln": 3848,
      "ĠFrie": 3849,
      "ĠFood": 3850,
      "etter": 3851,
      "Ġ1562": 3852,
      "Ġ1518": 3853,
      "Ġ1534": 3854,
      "Ġ1526": 3855,
      "Ġ105": 3856,
      "Ġ1022": 3857,
      "Ġ99": 3858,
      "Ġ942": 3859,
      "Ġ958": 3860,
      "Ġ990": 3861,
      "Ġ995": 3862,
      "Ġ902": 3863,
      "Ġ929": 3864,
      "ĠHowdy": 3865,
      "Ġ1620": 3866,
      "Ġ1614": 3867,
      "Ġ1654": 3868,
      "Ġ1688": 3869,
      "Ġ1694": 3870,
      "ooks": 3871,
      "Ġ1320": 3872,
      "Ġ1318": 3873,
      "Ġ1350": 3874,
      "Ġ1302": 3875,
      "Ġseven": 3876,
      "402": 3877,
      "4020": 3878,
      "Ġ1190": 3879,
      "Ġ1182": 3880,
      "Ġ1174": 3881,
      "Ġroom": 3882,
      "Ġrobust": 3883,
      "Ġrotate": 3884,
      "Ġ179": 3885,
      "Ġ1766": 3886,
      "Ġ1710": 3887,
      "ĠBras": 3888,
      "ĠBetter": 3889,
      "ĠBooks": 3890,
      "Ġ208": 3891,
      "Ġ1222": 3892,
      "Ġ1987": 3893,
      "Ġ1462": 3894,
      "Ġ1455": 3895,
      "Ġ1486": 3896,
      "604": 3897,
      "Ġ1812": 3898,
      "Ġ1872": 3899,
      "Ġhigher": 3900,
      "Ġchecking": 3901,
      "622": 3902,
      "626": 3903,
      "Ġrephrase": 3904,
      "Ġ255": 3905,
      "302": 3906,
      "307": 3907,
      "ĠRust": 3908,
      "ĠRotator": 3909,
      "ĠLua": 3910,
      "Ġ678": 3911,
      "Ġ303": 3912,
      "Ġ307": 3913,
      "Ġ309": 3914,
      "124": 3915,
      "ĠWeather": 3916,
      "ĠCanber": 3917,
      "Ġ221": 3918,
      "Ġ229": 3919,
      "323": 3920,
      "324": 3921,
      "Ġ403": 3922,
      "Ġ405": 3923,
      "365": 3924,
      "182": 3925,
      "187": 3926,
      "1876": 3927,
      "425": 3928,
      "503": 3929,
      "996": 3930,
      "661": 3931,
      "664": 3932,
      "Ġcapac": 3933,
      "chitecture": 3934,
      "ently": 3935,
      "Ġ502": 3936,
      "..=": 3937,
      "Ġenjo": 3938,
      "Ġ290": 3939,
      "Ġ293": 3940,
      "449": 3941,
      "377": 3942,
      "105": 3943,
      "382": 3944,
      "389": 3945,
      "Ġsampling": 3946,
      "Ġ274": 3947,
      "Ġ27800": 3948,
      "Ġ372": 3949,
      "Ġ376": 3950,
      "ĠOtta": 3951,
      "ĠOlder": 3952,
      "Ġ282": 3953,
      "Ġ604": 3954,
      "141": 3955,
      "546": 3956,
      "Ġridic": 3957,
      "Ġappro": 3958,
      "Ġ483": 3959,
      "Ġ486": 3960,
      "Ġ479": 3961,
      "Ġ343": 3962,
      "Ġ345": 3963,
      "Ġ348": 3964,
      "Ġ34000": 3965,
      "cale": 3966,
      "Ġbroader": 3967,
      "ĠHistory": 3968,
      "Ġ327": 3969,
      "Ġ32460": 3970,
      "579": 3971,
      "peare": 3972,
      "Ġ3600": 3973,
      "3320": 3974,
      "Ġreading": 3975,
      "Ġnowhere": 3976,
      "Ġcomputer": 3977,
      "ĠShakes": 3978,
      "276": 3979,
      "267": 3980,
      "849": 3981,
      "Ġ463": 3982,
      "Ġ465": 3983,
      "Ġ468": 3984,
      "lua": 3985,
      "767": 3986,
      "Ġlatch": 3987,
      "Ġ413": 3988,
      "Ġ419": 3989,
      "Ġ572": 3990,
      "Ġ575": 3991,
      "Ġ:=": 3992,
      "875": 3993,
      "Ġbrainrot": 3994,
      "Ġ448": 3995,
      "package": 3996,
      "iguous": 3997,
      "Ġ3960": 3998,
      "Ġ383": 3999,
      "Ġ38920": 4000,
      "Ġ8940": 4001,
      "3000": 4002,
      "Ġdolphin": 4003,
      "Ġ22740": 4004,
      "Ġturtle": 4005,
      "Ġcapybara": 4006,
      "ĠGardening": 4007,
      "Ġ23800": 4008,
      "Ġ23840": 4009,
      "Ġsquares": 4010,
      "Ġindepend": 4011,
      "ĠArchitecture": 4012,
      "Ġconfidently": 4013,
      "Ġ<=": 4014,
      "Ġ567": 4015,
      "Ġ22400": 4016,
      "Ġ40000": 4017,
      "Ġlasted": 4018,
      "ĠRobots": 4019,
      "ĠToky": 4020,
      "Ġincludes": 4021,
      "Ġbelonged": 4022,
      "ĠPhotography": 4023,
      "Ġ11180": 4024,
      "ĠComedy": 4025,
      "ĠLeonard": 4026,
      "++)": 4027,
      "Ġ3306": 4028,
      "func": 4029,
      "Ġ15040": 4030,
      "Ġstatic": 4031,
      "ĠVinci": 4032,
      "Ġabilities": 4033,
      "Ġ91796": 4034,
      "Ġ57837": 4035,
      "typescript": 4036,
      "!(\"{}": 4037,
      "Println": 4038,
      "Rotate": 4039,
      "String": 4040,
      "ÃŃlia": 4041,
      "Ġambiguous": 4042,
      "ĠClampScore": 4043,
      "Ġempty": 4044,
      "Ġevents": 4045,
      "Ġtruth": 4046,
      "ĠAustin": 4047,
      "ĠWilliam": 4048,
      "Ġfocuses": 4049,
      "Ġflorp": 4050,
      "Ġbruh": 4051,
      "Ġlimited": 4052,
      "ĠTypeScript": 4053,
      "ĠHonestly": 4054,
      "ĠMadrid": 4055,
      "ĠMercury": 4056,
      "ĠFriendship": 4057,
      "ĠBrasÃŃlia": 4058,
      "ĠCanberra": 4059,
      "Ġcapacity": 4060,
      "Ġenjoy": 4061,
      "ĠOttawa": 4062,
      "Ġridiculous": 4063,
      "ĠShakespeare": 4064,
      "Ġindependently": 4065,
      "ĠTokyo": 4066,
      "ĠLeonardo": 4067,
      "!(\"{}\",": 4068,
      "!\\": 4069,
      "\";": 4070,
      "';": 4071,
      "180": 4072,
      "150": 4073,
      "195": 4074,
      "198": 4075,
      "266": 4076,
      "255": 4077,
      "287": 4078,
      "340": 4079,
      "362": 4080,
      "318": 4081,
      "370": 4082,
      "358": 4083,
      "462": 4084,
      "432": 4085,
      "550": 4086,
      "780": 4087,
      "83": 4088,
      "85": 4089,
      "939": 4090,
      "aking": 4091,
      "ced": 4092,
      "dk": 4093,
      "down": 4094,
      "eath": 4095
    },
    "merges": [
      [
        "Ġ",
        "a"
      ],
      [
        "n",
        "t"
      ],
      [
        "s",
        "t"
      ],
      [
        "e",
        "r"
      ],
      [
        ">",
        ":"
      ],
      [
        "s",
        "i"
      ],
      [
        "st",
        "a"
      ],
      [
        "s",
        "si"
      ],
      [
        "sta",
        "nt"
      ],
      [
        "ssi",
        "stant"
      ],
      [
        "o",
        "u"
      ],
      [
        "r",
        "e"
      ],
      [
        "a",
        "l"
      ],
      [
        "h",
        "e"
      ],
      [
        "m",
        "e"
      ],
      [
        "Ġ",
        "C"
      ],
      [
        "l",
        "i"
      ],
      [
        "Ġ",
        "e"
      ],
      [
        "Ġ",
        "i"
      ],
      [
        "h",
        "u"
      ],
      [
        "hu",
        "d"
      ],
      [
        "G",
        "P"
      ],
      [
        "GP",
        "T"
      ],
      [
        "ĠC",
        "hud"
      ],
      [
        "ĠChud",
        "GPT"
      ],
      [
        "Ġ",
        "t"
      ],
      [
        "u",
        "s"
      ],
      [
        "Ġa",
        "re"
      ],
      [
        "x",
        "p"
      ],
      [
        "o",
        "n"
      ],
      [
        "Ġ",
        "A"
      ],
      [
        "u",
        "l"
      ],
      [
        "e",
        "m"
      ],
      [
        "Ġe",
        "xp"
      ],
      [
        "er",
        "i"
      ],
      [
        "li",
        "c"
      ],
      [
        "u",
        "b"
      ],
      [
        "ub",
        "lic"
      ],
      [
        "Ġexp",
        "eri"
      ],
      [
        "P",
        "ublic"
      ],
      [
        "me",
        "nt"
      ],
      [
        "Ġ",
        "he"
      ],
      [
        "Ġ",
        "Y"
      ],
      [
        "f",
        "ul"
      ],
      [
        "Ġexperi",
        "ment"
      ],
      [
        "l",
        "p"
      ],
      [
        "Ġexperiment",
        "al"
      ],
      [
        "ĠY",
        "ou"
      ],
      [
        "Ġhe",
        "lp"
      ],
      [
        "y",
        "st"
      ],
      [
        "ĠA",
        "I"
      ],
      [
        "Ġa",
        "ssistant"
      ],
      [
        "yst",
        "em"
      ],
      [
        "s",
        "ystem"
      ],
      [
        "Ġhelp",
        "ful"
      ],
      [
        "us",
        "er"
      ],
      [
        "a",
        "ssistant"
      ],
      [
        "a",
        "t"
      ],
      [
        "Ġ",
        "c"
      ],
      [
        "i",
        "n"
      ],
      [
        "Ġ",
        "o"
      ],
      [
        "n",
        "d"
      ],
      [
        "Ġ",
        "I"
      ],
      [
        "Ġ",
        "s"
      ],
      [
        "`",
        "`"
      ],
      [
        "r",
        "i"
      ],
      [
        "h",
        "at"
      ],
      [
        "Ġ",
        "m"
      ],
      [
        "Ġ",
        "p"
      ],
      [
        "l",
        "e"
      ],
      [
        "Ġ",
        "W"
      ],
      [
        "Ġ",
        "f"
      ],
      [
        "t",
        "h"
      ],
      [
        "Ġ",
        "w"
      ],
      [
        "Ġi",
        "s"
      ],
      [
        "d",
        "e"
      ],
      [
        "a",
        "n"
      ],
      [
        "o",
        "r"
      ],
      [
        "Ġ",
        "1"
      ],
      [
        "Ġ",
        "n"
      ],
      [
        "Ġ",
        "b"
      ],
      [
        "Ġt",
        "he"
      ],
      [
        "Ġ",
        "d"
      ],
      [
        "e",
        "d"
      ],
      [
        "Ġi",
        "t"
      ],
      [
        "l",
        "a"
      ],
      [
        "e",
        "s"
      ],
      [
        "i",
        "on"
      ],
      [
        "Ġa",
        "nd"
      ],
      [
        "Ġ",
        "="
      ],
      [
        "Ġ",
        "2"
      ],
      [
        "m",
        "b"
      ],
      [
        "a",
        "r"
      ],
      [
        "mb",
        "er"
      ],
      [
        "``",
        "`"
      ],
      [
        "u",
        "mber"
      ],
      [
        "Ġt",
        "o"
      ],
      [
        "Ġo",
        "f"
      ],
      [
        "Ġ",
        "P"
      ],
      [
        "s",
        "e"
      ],
      [
        "r",
        "o"
      ],
      [
        "y",
        "ou"
      ],
      [
        "Ġ",
        "re"
      ],
      [
        "in",
        "g"
      ],
      [
        "Ġ",
        "you"
      ],
      [
        "y",
        "th"
      ],
      [
        "yth",
        "on"
      ],
      [
        "ĠW",
        "hat"
      ],
      [
        "e",
        "l"
      ],
      [
        "h",
        "i"
      ],
      [
        "Ġc",
        "o"
      ],
      [
        "Ġi",
        "n"
      ],
      [
        "Ġ",
        "g"
      ],
      [
        "c",
        "t"
      ],
      [
        "l",
        "o"
      ],
      [
        "a",
        "s"
      ],
      [
        "Ġ",
        "me"
      ],
      [
        "c",
        "e"
      ],
      [
        "l",
        "y"
      ],
      [
        "e",
        "n"
      ],
      [
        "Ġt",
        "hat"
      ],
      [
        "a",
        "v"
      ],
      [
        "Ġ",
        "h"
      ],
      [
        "Ġm",
        "o"
      ],
      [
        "t",
        "e"
      ],
      [
        "Ġ",
        "-"
      ],
      [
        "Ġa",
        "n"
      ],
      [
        "Ġ",
        "3"
      ],
      [
        "m",
        "p"
      ],
      [
        "Ġn",
        "umber"
      ],
      [
        "p",
        "t"
      ],
      [
        "Ġ",
        "li"
      ],
      [
        "Ġb",
        "e"
      ],
      [
        "v",
        "er"
      ],
      [
        "o",
        "t"
      ],
      [
        "Ġ",
        "T"
      ],
      [
        "ri",
        "te"
      ],
      [
        "e",
        "x"
      ],
      [
        "ĠP",
        "ython"
      ],
      [
        "r",
        "a"
      ],
      [
        "Ġ",
        "4"
      ],
      [
        "Ġ",
        "on"
      ],
      [
        "o",
        "w"
      ],
      [
        "Ġ",
        "Ã"
      ],
      [
        "i",
        "c"
      ],
      [
        "Ġd",
        "o"
      ],
      [
        "Ġ",
        "```"
      ],
      [
        "g",
        "e"
      ],
      [
        "ĠW",
        "rite"
      ],
      [
        "Ġm",
        "a"
      ],
      [
        "u",
        "e"
      ],
      [
        "i",
        "v"
      ],
      [
        "Ġo",
        "r"
      ],
      [
        "Ġc",
        "an"
      ],
      [
        "Ġw",
        "i"
      ],
      [
        "Ġa",
        "m"
      ],
      [
        "ri",
        "nt"
      ],
      [
        "Ġ",
        "H"
      ],
      [
        "Ġf",
        "or"
      ],
      [
        "k",
        "e"
      ],
      [
        "de",
        "l"
      ],
      [
        "u",
        "n"
      ],
      [
        "o",
        "re"
      ],
      [
        "r",
        "ou"
      ],
      [
        "at",
        "e"
      ],
      [
        "Ġi",
        "nt"
      ],
      [
        "Ġ",
        "5"
      ],
      [
        "ĠÃ",
        "·"
      ],
      [
        "i",
        "t"
      ],
      [
        "Ġmo",
        "del"
      ],
      [
        "n",
        "umber"
      ],
      [
        "c",
        "on"
      ],
      [
        "h",
        "y"
      ],
      [
        "g",
        "h"
      ],
      [
        "c",
        "h"
      ],
      [
        "Ġ",
        "6"
      ],
      [
        "Ġ",
        "M"
      ],
      [
        "Ġc",
        "on"
      ],
      [
        "Ġp",
        "ro"
      ],
      [
        "ou",
        "t"
      ],
      [
        "Ġ",
        "st"
      ],
      [
        "Ġ",
        "G"
      ],
      [
        "Ġ",
        "S"
      ],
      [
        "c",
        "ri"
      ],
      [
        "Ġ",
        "la"
      ],
      [
        "u",
        "r"
      ],
      [
        "Ġ",
        "us"
      ],
      [
        "Ġwi",
        "th"
      ],
      [
        "f",
        "t"
      ],
      [
        "nd",
        "ex"
      ],
      [
        "h",
        "o"
      ],
      [
        "or",
        "t"
      ],
      [
        "p",
        "ython"
      ],
      [
        ")",
        ";"
      ],
      [
        "Ġf",
        "lo"
      ],
      [
        "er",
        "e"
      ],
      [
        "Ġit",
        "em"
      ],
      [
        "la",
        "in"
      ],
      [
        "Ġflo",
        "at"
      ],
      [
        "Ġc",
        "la"
      ],
      [
        "a",
        "p"
      ],
      [
        "Ġitem",
        "s"
      ],
      [
        "0",
        "0"
      ],
      [
        "Ġa",
        "b"
      ],
      [
        "Ġd",
        "i"
      ],
      [
        "a",
        "me"
      ],
      [
        "e",
        "p"
      ],
      [
        "n",
        "g"
      ],
      [
        "Ġ",
        "7"
      ],
      [
        "cri",
        "pt"
      ],
      [
        "at",
        "ion"
      ],
      [
        "l",
        "d"
      ],
      [
        "Ġ",
        "U"
      ],
      [
        "Ġ",
        "E"
      ],
      [
        "Ġs",
        "p"
      ],
      [
        "Ġg",
        "rou"
      ],
      [
        "al",
        "ly"
      ],
      [
        "pt",
        "ion"
      ],
      [
        "Ġs",
        "h"
      ],
      [
        "b",
        "el"
      ],
      [
        "Ġla",
        "bel"
      ],
      [
        "Ġgrou",
        "p"
      ],
      [
        "Ġo",
        "ption"
      ],
      [
        "i",
        "nt"
      ],
      [
        "l",
        "an"
      ],
      [
        "el",
        "l"
      ],
      [
        "Ġs",
        "o"
      ],
      [
        "gh",
        "t"
      ],
      [
        "a",
        "ge"
      ],
      [
        "Ġ",
        "v"
      ],
      [
        "hi",
        "s"
      ],
      [
        "Ġ",
        "de"
      ],
      [
        "b",
        "le"
      ],
      [
        "Ġdo",
        "es"
      ],
      [
        "ĠI",
        "n"
      ],
      [
        "Ġcla",
        "mp"
      ],
      [
        "Ġab",
        "out"
      ],
      [
        "con",
        "st"
      ],
      [
        "l",
        "l"
      ],
      [
        "hi",
        "ft"
      ],
      [
        "ct",
        "ion"
      ],
      [
        "Ġt",
        "his"
      ],
      [
        "iv",
        "e"
      ],
      [
        "f",
        "se"
      ],
      [
        "Ġof",
        "fse"
      ],
      [
        "Ġco",
        "de"
      ],
      [
        "hift",
        "ed"
      ],
      [
        "Ġoffse",
        "t"
      ],
      [
        "Ġi",
        "ndex"
      ],
      [
        "Ġf",
        "a"
      ],
      [
        "Ġ",
        "si"
      ],
      [
        "Ġt",
        "h"
      ],
      [
        "Ġn",
        "e"
      ],
      [
        "Ġ",
        "+"
      ],
      [
        "r",
        "an"
      ],
      [
        "Ġit",
        "s"
      ],
      [
        "Ġsh",
        "ort"
      ],
      [
        "a",
        "nt"
      ],
      [
        "ĠT",
        "ell"
      ],
      [
        "Ġa",
        "r"
      ],
      [
        "Ġm",
        "in"
      ],
      [
        "Ġ",
        "8"
      ],
      [
        "Ġ",
        "*"
      ],
      [
        "al",
        "ue"
      ],
      [
        "ĠM",
        "y"
      ],
      [
        "p",
        "rint"
      ],
      [
        "w",
        "er"
      ],
      [
        "Ġp",
        "rint"
      ],
      [
        "q",
        "u"
      ],
      [
        "Ġ",
        "F"
      ],
      [
        "s",
        "o"
      ],
      [
        "o",
        "int"
      ],
      [
        "s",
        "wer"
      ],
      [
        "mp",
        "le"
      ],
      [
        "ver",
        "s"
      ],
      [
        "k",
        "es"
      ],
      [
        "c",
        "o"
      ],
      [
        "lan",
        "g"
      ],
      [
        "m",
        "al"
      ],
      [
        "Ġcon",
        "vers"
      ],
      [
        "Ġconvers",
        "ation"
      ],
      [
        "Ġ",
        "J"
      ],
      [
        "ĠW",
        "hy"
      ],
      [
        "Ġon",
        "e"
      ],
      [
        "Ġd",
        "ou"
      ],
      [
        "ex",
        "t"
      ],
      [
        "'",
        "s"
      ],
      [
        "en",
        "ce"
      ],
      [
        "Ġint",
        "o"
      ],
      [
        "e",
        "t"
      ],
      [
        "u",
        "age"
      ],
      [
        "le",
        "ar"
      ],
      [
        "it",
        "y"
      ],
      [
        "lang",
        "uage"
      ],
      [
        "Ġa",
        "t"
      ],
      [
        "Ġ",
        "language"
      ],
      [
        "av",
        "e"
      ],
      [
        "w",
        "e"
      ],
      [
        "ou",
        "ld"
      ],
      [
        "Ġ1",
        "5"
      ],
      [
        "Ġan",
        "swer"
      ],
      [
        "v",
        "e"
      ],
      [
        "e",
        "ct"
      ],
      [
        "Ġh",
        "ow"
      ],
      [
        "ur",
        "n"
      ],
      [
        "Ġw",
        "hat"
      ],
      [
        "Ġ1",
        "0"
      ],
      [
        "ver",
        "y"
      ],
      [
        "Ġma",
        "ke"
      ],
      [
        "c",
        "k"
      ],
      [
        "Ġ",
        "9"
      ],
      [
        "Ġb",
        "y"
      ],
      [
        "Ġst",
        "ore"
      ],
      [
        "Ġli",
        "st"
      ],
      [
        "Ġa",
        "d"
      ],
      [
        "ĠH",
        "ow"
      ],
      [
        "c",
        "ore"
      ],
      [
        "i",
        "de"
      ],
      [
        "l",
        "s"
      ],
      [
        "â",
        "Ģ"
      ],
      [
        "Ġdou",
        "ble"
      ],
      [
        "âĢ",
        "Ķ"
      ],
      [
        "Ġ",
        "`"
      ],
      [
        "u",
        "re"
      ],
      [
        "al",
        "k"
      ],
      [
        "Ġstore",
        "s"
      ],
      [
        "Ġa",
        "s"
      ],
      [
        "ri",
        "e"
      ],
      [
        "Ġre",
        "t"
      ],
      [
        "Ġyou",
        "r"
      ],
      [
        "ĠT",
        "he"
      ],
      [
        "a",
        "ch"
      ],
      [
        "Ġt",
        "alk"
      ],
      [
        "Ġh",
        "as"
      ],
      [
        "Ġret",
        "urn"
      ],
      [
        "lo",
        "g"
      ],
      [
        "Ġn",
        "ot"
      ],
      [
        "Ġ1",
        "6"
      ],
      [
        "Ġprint",
        "s"
      ],
      [
        "s",
        "s"
      ],
      [
        "us",
        "e"
      ],
      [
        "Ġf",
        "un"
      ],
      [
        "Ġw",
        "ant"
      ],
      [
        "so",
        "le"
      ],
      [
        "d",
        "s"
      ],
      [
        "Ġw",
        "e"
      ],
      [
        "Ġco",
        "nt"
      ],
      [
        "Ġh",
        "ave"
      ],
      [
        "Ġ",
        "K"
      ],
      [
        "ou",
        "s"
      ],
      [
        "Ġm",
        "an"
      ],
      [
        "o",
        "o"
      ],
      [
        "t",
        "er"
      ],
      [
        "Ġ1",
        "3"
      ],
      [
        "av",
        "a"
      ],
      [
        "li",
        "t"
      ],
      [
        "Ġs",
        "e"
      ],
      [
        "ĠG",
        "ive"
      ],
      [
        "S",
        "cript"
      ],
      [
        "ĠJ",
        "ava"
      ],
      [
        "Ġ",
        "0"
      ],
      [
        "Ġsi",
        "mple"
      ],
      [
        "Ġp",
        "er"
      ],
      [
        "ĠK",
        "e"
      ],
      [
        "2",
        "0"
      ],
      [
        "d",
        "u"
      ],
      [
        "ĠJava",
        "Script"
      ],
      [
        "Ġe",
        "very"
      ],
      [
        "Ġe",
        "ach"
      ],
      [
        "Ġman",
        "y"
      ],
      [
        "j",
        "ect"
      ],
      [
        "ĠI",
        "f"
      ],
      [
        "de",
        "f"
      ],
      [
        "8",
        "0"
      ],
      [
        "Ġfun",
        "ction"
      ],
      [
        "ar",
        "th"
      ],
      [
        "ra",
        "in"
      ],
      [
        "4",
        "0"
      ],
      [
        "i",
        "le"
      ],
      [
        "Ġi",
        "de"
      ],
      [
        "Ġnumber",
        "s"
      ],
      [
        "Ġne",
        "w"
      ],
      [
        "a",
        "se"
      ],
      [
        "Ġli",
        "kes"
      ],
      [
        "ĠKe",
        "ep"
      ],
      [
        "a",
        "use"
      ],
      [
        "Ġgroup",
        "s"
      ],
      [
        "in",
        "e"
      ],
      [
        "ĠE",
        "arth"
      ],
      [
        "Ġp",
        "la"
      ],
      [
        "Ġ1",
        "1"
      ],
      [
        "d",
        "i"
      ],
      [
        "Ġp",
        "lain"
      ],
      [
        "Ġco",
        "l"
      ],
      [
        "Ġad",
        "ds"
      ],
      [
        "v",
        "alue"
      ],
      [
        "Ġus",
        "e"
      ],
      [
        "a",
        "y"
      ],
      [
        "Ġ",
        "ro"
      ],
      [
        "Ġc",
        "ho"
      ],
      [
        "Ġbe",
        "t"
      ],
      [
        "Ġ",
        "lo"
      ],
      [
        "nd",
        "s"
      ],
      [
        "Ġs",
        "mal"
      ],
      [
        "Ġe",
        "qu"
      ],
      [
        "or",
        "m"
      ],
      [
        "Ġsp",
        "lit"
      ],
      [
        "Ġequ",
        "ally"
      ],
      [
        "at",
        "er"
      ],
      [
        "we",
        "en"
      ],
      [
        "Ġbet",
        "ween"
      ],
      [
        "Ġ-",
        ">"
      ],
      [
        "ra",
        "y"
      ],
      [
        "Ġar",
        "ray"
      ],
      [
        "Ġ1",
        "7"
      ],
      [
        "Ġma",
        "x"
      ],
      [
        "c",
        "ul"
      ],
      [
        "Ġ=",
        ">"
      ],
      [
        "Ġo",
        "p"
      ],
      [
        "p",
        "oint"
      ],
      [
        "s",
        "p"
      ],
      [
        "Ġ",
        "N"
      ],
      [
        "Ġc",
        "h"
      ],
      [
        "Ġ",
        "B"
      ],
      [
        "ce",
        "nt"
      ],
      [
        "con",
        "sole"
      ],
      [
        ")",
        ")"
      ],
      [
        "as",
        "ed"
      ],
      [
        "Ġclamp",
        "s"
      ],
      [
        "e",
        "ed"
      ],
      [
        "j",
        "av"
      ],
      [
        "m",
        "i"
      ],
      [
        "Ġw",
        "ould"
      ],
      [
        "as",
        "cript"
      ],
      [
        "jav",
        "ascript"
      ],
      [
        "Ġ",
        "hu"
      ],
      [
        "ĠC",
        "al"
      ],
      [
        "Ġn",
        "ame"
      ],
      [
        "Ġsmal",
        "l"
      ],
      [
        "m",
        "ap"
      ],
      [
        "s",
        "hifted"
      ],
      [
        "Ġs",
        "hifted"
      ],
      [
        "Ġc",
        "lear"
      ],
      [
        "c",
        "ause"
      ],
      [
        "Ġ2",
        "0"
      ],
      [
        "Ġto",
        "p"
      ],
      [
        "Ġbe",
        "cause"
      ],
      [
        "Ġtop",
        "ic"
      ],
      [
        "ĠC",
        "o"
      ],
      [
        "ar",
        "d"
      ],
      [
        "ic",
        "k"
      ],
      [
        "Ġp",
        "ar"
      ],
      [
        "le",
        "ase"
      ],
      [
        "Ġw",
        "hy"
      ],
      [
        "ĠP",
        "lease"
      ],
      [
        "Ġ1",
        "2"
      ],
      [
        "Ġ1",
        "9"
      ],
      [
        "Ġ",
        "D"
      ],
      [
        "Ġw",
        "ater"
      ],
      [
        "Ġ1",
        "4"
      ],
      [
        "ro",
        "m"
      ],
      [
        "Ġfa",
        "mi"
      ],
      [
        "o",
        "se"
      ],
      [
        "Ġd",
        "iv"
      ],
      [
        "ide",
        "d"
      ],
      [
        "Ġdiv",
        "ided"
      ],
      [
        "l",
        "us"
      ],
      [
        "ĠP",
        "lus"
      ],
      [
        "k",
        "ing"
      ],
      [
        "in",
        "ion"
      ],
      [
        "Ġop",
        "inion"
      ],
      [
        "6",
        "0"
      ],
      [
        "i",
        "me"
      ],
      [
        "he",
        "ck"
      ],
      [
        "Ġus",
        "es"
      ],
      [
        "ĠG",
        "ot"
      ],
      [
        "Ġpla",
        "y"
      ],
      [
        "Ġfami",
        "ly"
      ],
      [
        "Ġ",
        "r"
      ],
      [
        "Ġme",
        "an"
      ],
      [
        "Ġpro",
        "f"
      ],
      [
        "g",
        "n"
      ],
      [
        "Ġ",
        "le"
      ],
      [
        "Ġprof",
        "ile"
      ],
      [
        "p",
        "p"
      ],
      [
        "Ġi",
        "f"
      ],
      [
        "cul",
        "ate"
      ],
      [
        "ĠCal",
        "culate"
      ],
      [
        "c",
        "i"
      ],
      [
        "l",
        "ue"
      ],
      [
        "ran",
        "s"
      ],
      [
        "i",
        "ls"
      ],
      [
        "u",
        "t"
      ],
      [
        "ran",
        "ge"
      ],
      [
        "f",
        "orm"
      ],
      [
        "Ġ",
        "u"
      ],
      [
        "ra",
        "m"
      ],
      [
        "Ġcol",
        "or"
      ],
      [
        "Ġs",
        "core"
      ],
      [
        "ĠH",
        "e"
      ],
      [
        "Ġ1",
        "8"
      ],
      [
        "a",
        "re"
      ],
      [
        "ĠU",
        "n"
      ],
      [
        "b",
        "ased"
      ],
      [
        "x",
        "ed"
      ],
      [
        "or",
        "y"
      ],
      [
        "Ġ2",
        "1"
      ],
      [
        "u",
        "st"
      ],
      [
        "Ġ",
        "hi"
      ],
      [
        "Ġcho",
        "se"
      ],
      [
        "q",
        "ue"
      ],
      [
        "si",
        "c"
      ],
      [
        "Ġint",
        "ere"
      ],
      [
        "que",
        "st"
      ],
      [
        "Ġintere",
        "st"
      ],
      [
        "o",
        "l"
      ],
      [
        "ĠC",
        "ho"
      ],
      [
        "Ġc",
        "heck"
      ],
      [
        "Ġwi",
        "ll"
      ],
      [
        "ĠCho",
        "ose"
      ],
      [
        "Ġcont",
        "ext"
      ],
      [
        "6",
        "2"
      ],
      [
        "Ġre",
        "p"
      ],
      [
        "t",
        "al"
      ],
      [
        "Ġ",
        "Public"
      ],
      [
        "si",
        "ng"
      ],
      [
        "xp",
        "lain"
      ],
      [
        "Ġ2",
        "4"
      ],
      [
        "Ġ2",
        "5"
      ],
      [
        "ĠP",
        "ro"
      ],
      [
        "ĠE",
        "xplain"
      ],
      [
        "Ġplay",
        "ful"
      ],
      [
        "Ġhi",
        "st"
      ],
      [
        "at",
        "h"
      ],
      [
        "3",
        "0"
      ],
      [
        "v",
        "ing"
      ],
      [
        "Ġ",
        "R"
      ],
      [
        "Ġe",
        "x"
      ],
      [
        "Ġhu",
        "h"
      ],
      [
        "Ġpar",
        "t"
      ],
      [
        "Ġ",
        "L"
      ],
      [
        "Ġ",
        "out"
      ],
      [
        "Ġf",
        "rie"
      ],
      [
        "Ġ6",
        "7"
      ],
      [
        "Ġper",
        "cent"
      ],
      [
        "ĠD",
        "o"
      ],
      [
        "u",
        "g"
      ],
      [
        "Ġ",
        "z"
      ],
      [
        "er",
        "o"
      ],
      [
        "ĠÃ",
        "Ĺ"
      ],
      [
        "ĠF",
        "or"
      ],
      [
        "Ġplain",
        "er"
      ],
      [
        "a",
        "d"
      ],
      [
        "at",
        "ter"
      ],
      [
        "ĠU",
        "se"
      ],
      [
        "Ġz",
        "ero"
      ],
      [
        "Ġm",
        "i"
      ],
      [
        "`",
        "."
      ],
      [
        "Ġf",
        "rom"
      ],
      [
        "in",
        "s"
      ],
      [
        "w",
        "ard"
      ],
      [
        "Ġ3",
        "0"
      ],
      [
        "c",
        "us"
      ],
      [
        "Ġ",
        "ke"
      ],
      [
        "Ġ",
        "range"
      ],
      [
        "ou",
        "nt"
      ],
      [
        "Ġe",
        "nds"
      ],
      [
        "ĠI",
        "ndex"
      ],
      [
        "hi",
        "ch"
      ],
      [
        "Ġg",
        "ame"
      ],
      [
        "Ġindex",
        "es"
      ],
      [
        "Ġfa",
        "ils"
      ],
      [
        "1",
        "2"
      ],
      [
        "m",
        "s"
      ],
      [
        "ĠW",
        "e"
      ],
      [
        "Ġuse",
        "ful"
      ],
      [
        "a",
        "ble"
      ],
      [
        "Ġp",
        "oint"
      ],
      [
        "Ġmin",
        "d"
      ],
      [
        "Ġ",
        "un"
      ],
      [
        "ĠC",
        "an"
      ],
      [
        "Ġsp",
        "eed"
      ],
      [
        "Ġcheck",
        "point"
      ],
      [
        "Ġexperi",
        "ence"
      ],
      [
        "ĠUn",
        "ity"
      ],
      [
        "l",
        "t"
      ],
      [
        "nd",
        "er"
      ],
      [
        "Ġb",
        "rie"
      ],
      [
        "Ġpro",
        "g"
      ],
      [
        "Ġbrie",
        "f"
      ],
      [
        "f",
        "f"
      ],
      [
        "k",
        "en"
      ],
      [
        "Ġ",
        "j"
      ],
      [
        "Ġv",
        "alue"
      ],
      [
        "d",
        "ate"
      ],
      [
        "m",
        "o"
      ],
      [
        "r",
        "on"
      ],
      [
        "Ġt",
        "rans"
      ],
      [
        "Ġ2",
        "2"
      ],
      [
        "Ġto",
        "tal"
      ],
      [
        "Ġco",
        "me"
      ],
      [
        "oo",
        "d"
      ],
      [
        "n",
        "ce"
      ],
      [
        "Ġdi",
        "s"
      ],
      [
        "ĠN",
        "o"
      ],
      [
        "Ġs",
        "er"
      ],
      [
        "Ġfrie",
        "nd"
      ],
      [
        "Ġ",
        "quest"
      ],
      [
        "Ġquest",
        "ion"
      ],
      [
        "3",
        "2"
      ],
      [
        "sta",
        "nd"
      ],
      [
        "Ġp",
        "re"
      ],
      [
        "Ġex",
        "a"
      ],
      [
        "v",
        "ed"
      ],
      [
        "Ġt",
        "rain"
      ],
      [
        "en",
        "er"
      ],
      [
        "Ġ4",
        "0"
      ],
      [
        "3",
        "6"
      ],
      [
        "b",
        "ject"
      ],
      [
        "Ġg",
        "ener"
      ],
      [
        "Ġprog",
        "ram"
      ],
      [
        "s",
        "core"
      ],
      [
        "Ġpro",
        "ject"
      ],
      [
        "Ġide",
        "as"
      ],
      [
        "Ġser",
        "ving"
      ],
      [
        "g",
        "y"
      ],
      [
        "Ġke",
        "ep"
      ],
      [
        "'",
        "m"
      ],
      [
        "1",
        "8"
      ],
      [
        "4",
        "2"
      ],
      [
        "u",
        "al"
      ],
      [
        "nt",
        "ence"
      ],
      [
        "er",
        "n"
      ],
      [
        "Ġexp",
        "lain"
      ],
      [
        "ce",
        "an"
      ],
      [
        "Ġse",
        "ntence"
      ],
      [
        "Ġhist",
        "ory"
      ],
      [
        "Ġc",
        "as"
      ],
      [
        "5",
        "0"
      ],
      [
        "7",
        "0"
      ],
      [
        "a",
        "nd"
      ],
      [
        "b",
        "ot"
      ],
      [
        "al",
        "th"
      ],
      [
        "h",
        "ere"
      ],
      [
        "Ġb",
        "lue"
      ],
      [
        "ere",
        "nt"
      ],
      [
        "du",
        "c"
      ],
      [
        "ff",
        "erent"
      ],
      [
        "9",
        "9"
      ],
      [
        "i",
        "d"
      ],
      [
        "Ġ",
        "lear"
      ],
      [
        "Ġdi",
        "fferent"
      ],
      [
        "Ġlear",
        "n"
      ],
      [
        "6",
        "6"
      ],
      [
        "me",
        "th"
      ],
      [
        "meth",
        "ing"
      ],
      [
        "sta",
        "nce"
      ],
      [
        "Ġp",
        "ublic"
      ],
      [
        "th",
        "er"
      ],
      [
        "Ġmo",
        "st"
      ],
      [
        "Ġtrans",
        "form"
      ],
      [
        "i",
        "m"
      ],
      [
        "s",
        "h"
      ],
      [
        "iv",
        "es"
      ],
      [
        "Ġclear",
        "ly"
      ],
      [
        "ĠCo",
        "de"
      ],
      [
        "b",
        "e"
      ],
      [
        "Ġc",
        "al"
      ],
      [
        "Ġc",
        "ap"
      ],
      [
        "av",
        "i"
      ],
      [
        "c",
        "hi"
      ],
      [
        "e",
        "nt"
      ],
      [
        "p",
        "date"
      ],
      [
        "Ġ5",
        "0"
      ],
      [
        "Ġv",
        "a"
      ],
      [
        "du",
        "ce"
      ],
      [
        "Ġu",
        "nder"
      ],
      [
        ".",
        "."
      ],
      [
        "h",
        "avi"
      ],
      [
        "Ġe",
        "n"
      ],
      [
        "Ġ2",
        "9"
      ],
      [
        "Ġli",
        "ght"
      ],
      [
        "4",
        "4"
      ],
      [
        "y",
        "e"
      ],
      [
        "Ġa",
        "c"
      ],
      [
        "Ġt",
        "ext"
      ],
      [
        "Ġw",
        "or"
      ],
      [
        "Ġunder",
        "stand"
      ],
      [
        "3",
        "7"
      ],
      [
        "r",
        "av"
      ],
      [
        "Ġ",
        "k"
      ],
      [
        "Ġmo",
        "re"
      ],
      [
        "1",
        "0"
      ],
      [
        "3",
        "8"
      ],
      [
        "o",
        "m"
      ],
      [
        "Ġ",
        "sta"
      ],
      [
        "ĠW",
        "hich"
      ],
      [
        "Ġar",
        "chi"
      ],
      [
        "Ġmi",
        "sta"
      ],
      [
        "2",
        "2"
      ],
      [
        "on",
        "ly"
      ],
      [
        "Ġs",
        "a"
      ],
      [
        "Ġm",
        "y"
      ],
      [
        "5",
        "8"
      ],
      [
        "ou",
        "r"
      ],
      [
        "Ġc",
        "u"
      ],
      [
        "Ġdi",
        "d"
      ],
      [
        "a",
        "ot"
      ],
      [
        "Ġ2",
        "7"
      ],
      [
        "aot",
        "ic"
      ],
      [
        "9",
        "0"
      ],
      [
        "i",
        "s"
      ],
      [
        "Ġn",
        "o"
      ],
      [
        "Ġd",
        "ro"
      ],
      [
        "Ġre",
        "la"
      ],
      [
        "Ġth",
        "an"
      ],
      [
        "i",
        "r"
      ],
      [
        "Ġo",
        "cean"
      ],
      [
        "ri",
        "ous"
      ],
      [
        "ĠS",
        "ure"
      ],
      [
        "Ġro",
        "bot"
      ],
      [
        "Ġcu",
        "rious"
      ],
      [
        "1",
        "6"
      ],
      [
        "Ġre",
        "duc"
      ],
      [
        "k",
        "s"
      ],
      [
        "Ġc",
        "ar"
      ],
      [
        "in",
        "d"
      ],
      [
        "Ġs",
        "u"
      ],
      [
        "de",
        "n"
      ],
      [
        "Ġ7",
        "5"
      ],
      [
        "Ġlo",
        "o"
      ],
      [
        "1",
        "7"
      ],
      [
        "i",
        "z"
      ],
      [
        "n",
        "se"
      ],
      [
        "Ġs",
        "un"
      ],
      [
        "Ġre",
        "sp"
      ],
      [
        "el",
        "lo"
      ],
      [
        "cus",
        "s"
      ],
      [
        "Ġdis",
        "cuss"
      ],
      [
        "Ġresp",
        "on"
      ],
      [
        "v",
        "i"
      ],
      [
        "Ġp",
        "lan"
      ],
      [
        "Ġb",
        "a"
      ],
      [
        "Ġ3",
        "7"
      ],
      [
        "Ġinterest",
        "s"
      ],
      [
        "Ġpre",
        "di"
      ],
      [
        "Ġcas",
        "ual"
      ],
      [
        "Ġrespon",
        "d"
      ],
      [
        "r",
        "y"
      ],
      [
        "t",
        "s"
      ],
      [
        "Ġ",
        "O"
      ],
      [
        "Ġc",
        "hat"
      ],
      [
        "le",
        "nt"
      ],
      [
        "Ġb",
        "rou"
      ],
      [
        "Ġ2",
        "8"
      ],
      [
        "Ġg",
        "ives"
      ],
      [
        "cri",
        "be"
      ],
      [
        "Ġmista",
        "kes"
      ],
      [
        "Ġrela",
        "xed"
      ],
      [
        "Ġbrou",
        "ght"
      ],
      [
        "3",
        "4"
      ],
      [
        "d",
        "er"
      ],
      [
        "v",
        "el"
      ],
      [
        "Ġp",
        "lent"
      ],
      [
        "Ġ6",
        "0"
      ],
      [
        "ng",
        "th"
      ],
      [
        "Ġopinion",
        "s"
      ],
      [
        "Ġk",
        "n"
      ],
      [
        "Ġplent",
        "y"
      ],
      [
        "Ġp",
        "ick"
      ],
      [
        "Ġso",
        "mething"
      ],
      [
        "Ġde",
        "s"
      ],
      [
        "o",
        "on"
      ],
      [
        "le",
        "d"
      ],
      [
        "Ġli",
        "ke"
      ],
      [
        "Ġkn",
        "ow"
      ],
      [
        "Ġdes",
        "cribe"
      ],
      [
        "o",
        "d"
      ],
      [
        "s",
        "ul"
      ],
      [
        "Ġp",
        "h"
      ],
      [
        "3",
        "5"
      ],
      [
        "Ġre",
        "f"
      ],
      [
        "1",
        "4"
      ],
      [
        "9",
        "2"
      ],
      [
        "n",
        "e"
      ],
      [
        "Ġo",
        "ver"
      ],
      [
        "ĠW",
        "ho"
      ],
      [
        "Ġco",
        "o"
      ],
      [
        "Ġch",
        "an"
      ],
      [
        "li",
        "ght"
      ],
      [
        "Ġth",
        "in"
      ],
      [
        "Ġcal",
        "led"
      ],
      [
        "re",
        "nt"
      ],
      [
        "ĠA",
        "n"
      ],
      [
        "Ġc",
        "ur"
      ],
      [
        "Ġ2",
        "6"
      ],
      [
        "Ġg",
        "ive"
      ],
      [
        "ĠU",
        "lt"
      ],
      [
        "Ġne",
        "ed"
      ],
      [
        "Ġch",
        "aotic"
      ],
      [
        "Ġtopic",
        "s"
      ],
      [
        "ĠHe",
        "lp"
      ],
      [
        "im",
        "ate"
      ],
      [
        "Ġcur",
        "rent"
      ],
      [
        "ĠUlt",
        "imate"
      ],
      [
        "i",
        "ll"
      ],
      [
        "Ġt",
        "er"
      ],
      [
        "ct",
        "ure"
      ],
      [
        "ĠB",
        "ug"
      ],
      [
        "Ġtrain",
        "ing"
      ],
      [
        "Ġthin",
        "king"
      ],
      [
        "ĠBug",
        "gy"
      ],
      [
        "5",
        "4"
      ],
      [
        "5",
        "5"
      ],
      [
        "Ġ",
        "ri"
      ],
      [
        "eri",
        "ous"
      ],
      [
        "Ġg",
        "re"
      ],
      [
        "Ġst",
        "ill"
      ],
      [
        "Ġva",
        "ri"
      ],
      [
        "Ġa",
        "pp"
      ],
      [
        "ĠT",
        "hat"
      ],
      [
        "rou",
        "gh"
      ],
      [
        "it",
        "al"
      ],
      [
        "co",
        "ins"
      ],
      [
        "Ġcap",
        "ital"
      ],
      [
        "Ġreduc",
        "ed"
      ],
      [
        "c",
        "es"
      ],
      [
        "al",
        "l"
      ],
      [
        "Ġn",
        "on"
      ],
      [
        "ar",
        "y"
      ],
      [
        "ct",
        "s"
      ],
      [
        "lo",
        "w"
      ],
      [
        "Ġon",
        "ly"
      ],
      [
        "Ġpro",
        "duce"
      ],
      [
        "Ġide",
        "a"
      ],
      [
        "o",
        "x"
      ],
      [
        "p",
        "le"
      ],
      [
        "t",
        "ot"
      ],
      [
        "Ġo",
        "bject"
      ],
      [
        "Ġre",
        "co"
      ],
      [
        "Ġ4",
        "8"
      ],
      [
        "ĠHe",
        "y"
      ],
      [
        "tot",
        "al"
      ],
      [
        "Ġme",
        "ss"
      ],
      [
        "Ġtransform",
        "er"
      ],
      [
        "Ġarchi",
        "ved"
      ],
      [
        "i",
        "ce"
      ],
      [
        "on",
        "e"
      ],
      [
        "Ġb",
        "ut"
      ],
      [
        "Ġ4",
        "2"
      ],
      [
        "ĠL",
        "et"
      ],
      [
        "a",
        "g"
      ],
      [
        "b",
        "r"
      ],
      [
        "i",
        "mal"
      ],
      [
        "Ġ",
        "{"
      ],
      [
        "ĠS",
        "ol"
      ],
      [
        "Ġde",
        "co"
      ],
      [
        "Ġse",
        "e"
      ],
      [
        "ĠSol",
        "ve"
      ],
      [
        "Ġdeco",
        "der"
      ],
      [
        "a",
        "in"
      ],
      [
        "c",
        "ount"
      ],
      [
        "Ġ",
        "qu"
      ],
      [
        "Ġ4",
        "7"
      ],
      [
        "ĠM",
        "on"
      ],
      [
        "Ġconversation",
        "al"
      ],
      [
        "di",
        "stance"
      ],
      [
        "u",
        "ally"
      ],
      [
        "u",
        "sing"
      ],
      [
        "Ġre",
        "a"
      ],
      [
        "Ġmo",
        "ve"
      ],
      [
        "Ġcheckpoint",
        "s"
      ],
      [
        "Ġter",
        "ms"
      ],
      [
        "o",
        "ther"
      ],
      [
        "s",
        "on"
      ],
      [
        "he",
        "alth"
      ],
      [
        "ern",
        "et"
      ],
      [
        "sul",
        "t"
      ],
      [
        "9",
        "7"
      ],
      [
        "i",
        "xed"
      ],
      [
        "o",
        "rite"
      ],
      [
        "r",
        "u"
      ],
      [
        "w",
        "it"
      ],
      [
        "w",
        "are"
      ],
      [
        "le",
        "ct"
      ],
      [
        "Ġf",
        "av"
      ],
      [
        "ft",
        "ware"
      ],
      [
        "Ġso",
        "ftware"
      ],
      [
        "ĠF",
        "ind"
      ],
      [
        "Ġper",
        "son"
      ],
      [
        "Ġnon",
        "se"
      ],
      [
        "wit",
        "ch"
      ],
      [
        "Ġfav",
        "orite"
      ],
      [
        "ou",
        "nd"
      ],
      [
        "he",
        "n"
      ],
      [
        "Ġto",
        "ken"
      ],
      [
        "as",
        "s"
      ],
      [
        "Ġan",
        "imal"
      ],
      [
        "Ġ3",
        "4"
      ],
      [
        "Ġli",
        "ve"
      ],
      [
        "Ġbe",
        "en"
      ],
      [
        "Ġgener",
        "ate"
      ],
      [
        "Ġprogram",
        "m"
      ],
      [
        "Ġsun",
        "light"
      ],
      [
        "Ġnonse",
        "nse"
      ],
      [
        "Ġtoken",
        "s"
      ],
      [
        "5",
        "1"
      ],
      [
        "c",
        "al"
      ],
      [
        "v",
        "es"
      ],
      [
        "ri",
        "v"
      ],
      [
        "ĠS",
        "witch"
      ],
      [
        "8",
        "8"
      ],
      [
        "Ġo",
        "x"
      ],
      [
        "Ġb",
        "ro"
      ],
      [
        "Ġre",
        "sult"
      ],
      [
        "Ġbe",
        "ing"
      ],
      [
        "ĠH",
        "i"
      ],
      [
        "Ġth",
        "rough"
      ],
      [
        "sic",
        "s"
      ],
      [
        "Ġinterest",
        "ing"
      ],
      [
        "iz",
        "e"
      ],
      [
        "Ġ",
        "ver"
      ],
      [
        "Ġ",
        "ye"
      ],
      [
        "li",
        "es"
      ],
      [
        "Ġo",
        "ld"
      ],
      [
        "ar",
        "s"
      ],
      [
        "ĠH",
        "ello"
      ],
      [
        "co",
        "me"
      ],
      [
        "Ġrep",
        "lies"
      ],
      [
        "9",
        "4"
      ],
      [
        "B",
        "e"
      ],
      [
        "o",
        "Be"
      ],
      [
        "ĠYou",
        "r"
      ],
      [
        "Ġm",
        "u"
      ],
      [
        "ar",
        "den"
      ],
      [
        "el",
        "y"
      ],
      [
        "Ġ3",
        "2"
      ],
      [
        "ort",
        "s"
      ],
      [
        "Ġsi",
        "mp"
      ],
      [
        "Ġexa",
        "mple"
      ],
      [
        "havi",
        "our"
      ],
      [
        "Ġsa",
        "w"
      ],
      [
        "ĠMon",
        "oBe"
      ],
      [
        "ĠMonoBe",
        "haviour"
      ],
      [
        "5",
        "7"
      ],
      [
        "p",
        "e"
      ],
      [
        "li",
        "ng"
      ],
      [
        "Ġs",
        "c"
      ],
      [
        "Ġs",
        "k"
      ],
      [
        "le",
        "s"
      ],
      [
        "you",
        "r"
      ],
      [
        "Ġme",
        "me"
      ],
      [
        "Ġ3",
        "6"
      ],
      [
        "ron",
        "g"
      ],
      [
        "Ġsimp",
        "ly"
      ],
      [
        "1",
        "1"
      ],
      [
        "s",
        "ci"
      ],
      [
        "ĠY",
        "es"
      ],
      [
        "Ġn",
        "at"
      ],
      [
        "Ġco",
        "m"
      ],
      [
        "Ġfor",
        "ms"
      ],
      [
        "Ġcon",
        "sci"
      ],
      [
        "ng",
        "ine"
      ],
      [
        "sp",
        "eed"
      ],
      [
        "Ġconsci",
        "ous"
      ],
      [
        "'",
        "t"
      ],
      [
        "9",
        "6"
      ],
      [
        "c",
        "sh"
      ],
      [
        "Ġ",
        "ra"
      ],
      [
        "nt",
        "s"
      ],
      [
        "er",
        "ence"
      ],
      [
        "at",
        "ic"
      ],
      [
        "Ġp",
        "riv"
      ],
      [
        "Ġd",
        "ay"
      ],
      [
        "ar",
        "p"
      ],
      [
        "Ġg",
        "o"
      ],
      [
        "as",
        "es"
      ],
      [
        "Ġmess",
        "age"
      ],
      [
        "csh",
        "arp"
      ],
      [
        "Ġpriv",
        "ate"
      ],
      [
        "ssi",
        "ng"
      ],
      [
        "Ġh",
        "ere"
      ],
      [
        "Ġint",
        "ent"
      ],
      [
        "Ġun",
        "re"
      ],
      [
        "Ġintent",
        "ion"
      ],
      [
        "3",
        "3"
      ],
      [
        "a",
        "m"
      ],
      [
        "o",
        "p"
      ],
      [
        "si",
        "on"
      ],
      [
        "Ġre",
        "cent"
      ],
      [
        "Ġdo",
        "ing"
      ],
      [
        "hy",
        "sics"
      ],
      [
        "ĠG",
        "ood"
      ],
      [
        "ĠS",
        "un"
      ],
      [
        "Ġv",
        "i"
      ],
      [
        "Ġvari",
        "able"
      ],
      [
        "Ġintention",
        "ally"
      ],
      [
        "(",
        ")"
      ],
      [
        "Ġa",
        "ct"
      ],
      [
        "ou",
        "gh"
      ],
      [
        "ro",
        "ll"
      ],
      [
        "Ġre",
        "ad"
      ],
      [
        "Ġexa",
        "ct"
      ],
      [
        "Ġlearn",
        "ed"
      ],
      [
        "rav",
        "el"
      ],
      [
        "ngth",
        "s"
      ],
      [
        "9",
        "5"
      ],
      [
        "9",
        "8"
      ],
      [
        "a",
        "ir"
      ],
      [
        "t",
        "a"
      ],
      [
        "Ġ",
        "["
      ],
      [
        "at",
        "a"
      ],
      [
        "Ġw",
        "here"
      ],
      [
        "Ġd",
        "ata"
      ],
      [
        "Ġcla",
        "ss"
      ],
      [
        "Ġro",
        "le"
      ],
      [
        "4",
        "6"
      ],
      [
        "U",
        "pdate"
      ],
      [
        "e",
        "w"
      ],
      [
        "Ġ",
        "rain"
      ],
      [
        "Ġc",
        "re"
      ],
      [
        "hi",
        "p"
      ],
      [
        "ic",
        "al"
      ],
      [
        "Ġmodel",
        "s"
      ],
      [
        "ĠM",
        "oon"
      ],
      [
        "Ġmove",
        "ment"
      ],
      [
        "Ġver",
        "sion"
      ],
      [
        "Ġsk",
        "y"
      ],
      [
        "P",
        "I"
      ],
      [
        "Ġt",
        "in"
      ],
      [
        "ĠA",
        "PI"
      ],
      [
        "ĠI",
        "s"
      ],
      [
        "Ġp",
        "atter"
      ],
      [
        "Ġint",
        "ernet"
      ],
      [
        "ame",
        "ter"
      ],
      [
        "Ġtalk",
        "ing"
      ],
      [
        "Ġtin",
        "y"
      ],
      [
        "Ġpatter",
        "n"
      ],
      [
        "8",
        "2"
      ],
      [
        "8",
        "6"
      ],
      [
        "d",
        "ay"
      ],
      [
        "Ġt",
        "ravel"
      ],
      [
        "Ġf",
        "ox"
      ],
      [
        "Ġre",
        "d"
      ],
      [
        "Ġro",
        "ll"
      ],
      [
        "pp",
        "ed"
      ],
      [
        "Ġdro",
        "ple"
      ],
      [
        "Ġgre",
        "en"
      ],
      [
        "Ġdrople",
        "ts"
      ],
      [
        "b",
        "l"
      ],
      [
        "c",
        "ke"
      ],
      [
        "in",
        "n"
      ],
      [
        "Ġw",
        "hen"
      ],
      [
        "Ġn",
        "ow"
      ],
      [
        "Ġre",
        "mo"
      ],
      [
        "Ġco",
        "mp"
      ],
      [
        "ct",
        "ing"
      ],
      [
        "Ġcon",
        "f"
      ],
      [
        "Ġpro",
        "bl"
      ],
      [
        "ĠU",
        "pdate"
      ],
      [
        "Ġr",
        "un"
      ],
      [
        "ci",
        "se"
      ],
      [
        "Ġj",
        "o"
      ],
      [
        "Ġchan",
        "g"
      ],
      [
        "Ġri",
        "ght"
      ],
      [
        "Ġprobl",
        "em"
      ],
      [
        "i",
        "el"
      ],
      [
        "on",
        "g"
      ],
      [
        "Ġf",
        "ol"
      ],
      [
        "Ġst",
        "ru"
      ],
      [
        "ĠS",
        "h"
      ],
      [
        "Ġsp",
        "a"
      ],
      [
        "ath",
        "er"
      ],
      [
        "..",
        "."
      ],
      [
        "Ġpredi",
        "cting"
      ],
      [
        "Ġpick",
        "ed"
      ],
      [
        "Ġprogramm",
        "ing"
      ],
      [
        "iel",
        "d"
      ],
      [
        "Ġfol",
        "low"
      ],
      [
        "Ġstru",
        "cture"
      ],
      [
        "(",
        "\""
      ],
      [
        "2",
        "7"
      ],
      [
        "3",
        "1"
      ],
      [
        "5",
        "6"
      ],
      [
        "7",
        "4"
      ],
      [
        "a",
        "ck"
      ],
      [
        "d",
        "ing"
      ],
      [
        "e",
        "o"
      ],
      [
        "g",
        "en"
      ],
      [
        "u",
        "m"
      ],
      [
        "y",
        "b"
      ],
      [
        "y",
        "gen"
      ],
      [
        "Ġ",
        "\""
      ],
      [
        "al",
        "ize"
      ],
      [
        "li",
        "ne"
      ],
      [
        "Ġw",
        "ave"
      ],
      [
        "od",
        "y"
      ],
      [
        "Ġapp",
        "e"
      ],
      [
        "ces",
        "s"
      ],
      [
        "Ġox",
        "ygen"
      ],
      [
        "2",
        "6"
      ],
      [
        "8",
        "4"
      ],
      [
        "b",
        "ody"
      ],
      [
        "f",
        "y"
      ],
      [
        "i",
        "f"
      ],
      [
        "l",
        "se"
      ],
      [
        "Ġe",
        "lse"
      ],
      [
        "le",
        "vel"
      ],
      [
        "le",
        "ngths"
      ],
      [
        "Ġto",
        "ward"
      ],
      [
        "as",
        "on"
      ],
      [
        "Ġ4",
        "6"
      ],
      [
        "Ġon",
        "line"
      ],
      [
        "Ġsh",
        "ould"
      ],
      [
        "Ġde",
        "f"
      ],
      [
        "Ġsi",
        "de"
      ],
      [
        "Ġcho",
        "ice"
      ],
      [
        "Ġpoint",
        "s"
      ],
      [
        "Ġac",
        "cess"
      ],
      [
        "Ġjo",
        "ke"
      ],
      [
        "Ġwave",
        "lengths"
      ],
      [
        "H",
        "U"
      ],
      [
        "Ġa",
        "g"
      ],
      [
        "ĠC",
        "HU"
      ],
      [
        "Ġe",
        "v"
      ],
      [
        "Ġli",
        "br"
      ],
      [
        "ĠS",
        "t"
      ],
      [
        "ĠF",
        "rom"
      ],
      [
        "Ġr",
        "u"
      ],
      [
        "vi",
        "ew"
      ],
      [
        "Ġqu",
        "ick"
      ],
      [
        "ĠCHU",
        "D"
      ],
      [
        "Ġlibr",
        "ary"
      ],
      [
        "\"",
        ","
      ],
      [
        "Q",
        "u"
      ],
      [
        "f",
        "or"
      ],
      [
        "i",
        "lt"
      ],
      [
        "o",
        "id"
      ],
      [
        "Ġ",
        "}"
      ],
      [
        "Ġs",
        "ound"
      ],
      [
        "ri",
        "es"
      ],
      [
        "Ġm",
        "atter"
      ],
      [
        "Ġh",
        "ap"
      ],
      [
        "ot",
        "o"
      ],
      [
        "rav",
        "ity"
      ],
      [
        "Ġover",
        "view"
      ],
      [
        "Ġobject",
        "s"
      ],
      [
        "ixed",
        "Update"
      ],
      [
        "Ġsc",
        "atter"
      ],
      [
        "Ġhap",
        "p"
      ],
      [
        "l",
        "u"
      ],
      [
        "li",
        "able"
      ],
      [
        "Ġt",
        "ime"
      ],
      [
        "Ġc",
        "ount"
      ],
      [
        "Ġw",
        "as"
      ],
      [
        "Ġb",
        "u"
      ],
      [
        "Ġb",
        "ased"
      ],
      [
        "mp",
        "are"
      ],
      [
        "ĠM",
        "E"
      ],
      [
        "Ġ16",
        "00"
      ],
      [
        "ĠCo",
        "mpare"
      ],
      [
        "ram",
        "atic"
      ],
      [
        "Ġen",
        "er"
      ],
      [
        "Ġba",
        "sic"
      ],
      [
        "5",
        "2"
      ],
      [
        "7",
        "6"
      ],
      [
        "G",
        "A"
      ],
      [
        "c",
        "le"
      ],
      [
        "nt",
        "ime"
      ],
      [
        "yst",
        "erious"
      ],
      [
        "Ġm",
        "ysterious"
      ],
      [
        "le",
        "ep"
      ],
      [
        "Ġw",
        "ho"
      ],
      [
        "or",
        "th"
      ],
      [
        "ro",
        "w"
      ],
      [
        "av",
        "y"
      ],
      [
        "Ġan",
        "other"
      ],
      [
        "Ġbe",
        "come"
      ],
      [
        "Ġst",
        "rong"
      ],
      [
        "Ġ7",
        "00"
      ],
      [
        "Ġru",
        "ntime"
      ],
      [
        "ĠME",
        "GA"
      ],
      [
        "i",
        "ght"
      ],
      [
        "n",
        "ot"
      ],
      [
        "o",
        "cus"
      ],
      [
        "Ġ",
        "l"
      ],
      [
        "Ġm",
        "ath"
      ],
      [
        "Ġg",
        "ue"
      ],
      [
        "Ġde",
        "li"
      ],
      [
        "Ġconversation",
        "s"
      ],
      [
        "ve",
        "nt"
      ],
      [
        "ide",
        "s"
      ],
      [
        "Ġcom",
        "m"
      ],
      [
        "Ġgue",
        "ssing"
      ],
      [
        "4",
        "7"
      ],
      [
        "5",
        "9"
      ],
      [
        "Ġ",
        "log"
      ],
      [
        "Ġt",
        "ell"
      ],
      [
        "Ġhe",
        "ar"
      ],
      [
        "la",
        "y"
      ],
      [
        "Ġg",
        "arden"
      ],
      [
        "Ġbe",
        "nd"
      ],
      [
        "Ġbe",
        "havi"
      ],
      [
        "Ġ4",
        "1"
      ],
      [
        "Ġma",
        "de"
      ],
      [
        "Ġ5",
        "7"
      ],
      [
        "so",
        "l"
      ],
      [
        "Ġ15",
        "00"
      ],
      [
        "Ġ13",
        "00"
      ],
      [
        "sp",
        "here"
      ],
      [
        "Ġle",
        "vel"
      ],
      [
        "Ġbehavi",
        "or"
      ],
      [
        "n",
        "ap"
      ],
      [
        "er",
        "at"
      ],
      [
        "he",
        "d"
      ],
      [
        "Ġt",
        "w"
      ],
      [
        "Ġc",
        "ould"
      ],
      [
        "Ġs",
        "nap"
      ],
      [
        "Ġp",
        "hysics"
      ],
      [
        "Ġf",
        "all"
      ],
      [
        "Ġco",
        "ins"
      ],
      [
        "en",
        "ed"
      ],
      [
        "ot",
        "s"
      ],
      [
        "ra",
        "p"
      ],
      [
        "ĠG",
        "ame"
      ],
      [
        "Ġv",
        "eri"
      ],
      [
        "Ġde",
        "si"
      ],
      [
        "Ġdou",
        "gh"
      ],
      [
        "oo",
        "l"
      ],
      [
        "gn",
        "ed"
      ],
      [
        "Ġu",
        "sing"
      ],
      [
        "sh",
        "ots"
      ],
      [
        "Ġen",
        "ough"
      ],
      [
        "Ġplan",
        "et"
      ],
      [
        "Ġmu",
        "sic"
      ],
      [
        "Ġpattern",
        "s"
      ],
      [
        "Ġspa",
        "ce"
      ],
      [
        "Ġstrong",
        "ly"
      ],
      [
        "Ġsnap",
        "shots"
      ],
      [
        "Ġa",
        "l"
      ],
      [
        "Ġf",
        "e"
      ],
      [
        "ĠS",
        "o"
      ],
      [
        "Ġla",
        "r"
      ],
      [
        "Ġba",
        "ck"
      ],
      [
        "Ġbro",
        "ken"
      ],
      [
        "Ġnat",
        "ur"
      ],
      [
        "!",
        "!"
      ],
      [
        "0",
        "2"
      ],
      [
        "f",
        "ore"
      ],
      [
        "n",
        "ing"
      ],
      [
        "o",
        "ri"
      ],
      [
        "p",
        "ublic"
      ],
      [
        "Ġ",
        ":"
      ],
      [
        "al",
        "f"
      ],
      [
        "Ġt",
        "ra"
      ],
      [
        "Ġexp",
        "and"
      ],
      [
        "Ġto",
        "day"
      ],
      [
        "Ġg",
        "ravity"
      ],
      [
        "Ġma",
        "y"
      ],
      [
        "Ġv",
        "oid"
      ],
      [
        "Ġlo",
        "c"
      ],
      [
        "Ġlo",
        "st"
      ],
      [
        "Ġrep",
        "ly"
      ],
      [
        "Ġgener",
        "al"
      ],
      [
        "Ġreco",
        "very"
      ],
      [
        "Ġold",
        "er"
      ],
      [
        "ocus",
        "ed"
      ],
      [
        "Ġveri",
        "fy"
      ],
      [
        "Ġlar",
        "ge"
      ],
      [
        "Ġexpand",
        "ed"
      ],
      [
        "\"",
        ")"
      ],
      [
        "8",
        "7"
      ],
      [
        "M",
        "L"
      ],
      [
        "T",
        "ML"
      ],
      [
        "a",
        "st"
      ],
      [
        "f",
        "ocused"
      ],
      [
        "s",
        "es"
      ],
      [
        "t",
        "y"
      ],
      [
        "Ġ",
        "Qu"
      ],
      [
        "nt",
        "er"
      ],
      [
        "er",
        "a"
      ],
      [
        "me",
        "t"
      ],
      [
        "Ġe",
        "nter"
      ],
      [
        "Ġhe",
        "alth"
      ],
      [
        "Ġf",
        "ine"
      ],
      [
        "Ġb",
        "rain"
      ],
      [
        "mp",
        "ort"
      ],
      [
        "ĠH",
        "TML"
      ],
      [
        "Ġst",
        "ory"
      ],
      [
        "ur",
        "p"
      ],
      [
        "Ġdi",
        "stance"
      ],
      [
        "ĠB",
        "lue"
      ],
      [
        "Ġpar",
        "ameter"
      ],
      [
        "Ġprofile",
        "s"
      ],
      [
        "Ġsu",
        "pp"
      ],
      [
        "Ġover",
        "all"
      ],
      [
        "Ġag",
        "ain"
      ],
      [
        "Ġloc",
        "ally"
      ],
      [
        "9",
        "1"
      ],
      [
        "a",
        "cke"
      ],
      [
        "f",
        "ic"
      ],
      [
        "l",
        "or"
      ],
      [
        "Ġ",
        "system"
      ],
      [
        "Ġe",
        "ar"
      ],
      [
        "Ġthe",
        "m"
      ],
      [
        "Ġ4",
        "4"
      ],
      [
        "it",
        "ion"
      ],
      [
        "ch",
        "ool"
      ],
      [
        "Ġth",
        "ing"
      ],
      [
        "oo",
        "k"
      ],
      [
        "ci",
        "fic"
      ],
      [
        "Ġhist",
        "ori"
      ],
      [
        "Ġj",
        "acke"
      ],
      [
        "Ġdro",
        "pped"
      ],
      [
        "vi",
        "es"
      ],
      [
        "Ġreco",
        "gn"
      ],
      [
        "Ġgo",
        "ing"
      ],
      [
        "Ġev",
        "en"
      ],
      [
        "Ġener",
        "gy"
      ],
      [
        "Ġear",
        "ly"
      ],
      [
        "Ġhistori",
        "cal"
      ],
      [
        "Ġjacke",
        "t"
      ],
      [
        "8",
        "1"
      ],
      [
        "O",
        "bject"
      ],
      [
        "S",
        "S"
      ],
      [
        "b",
        "ook"
      ],
      [
        "d",
        "y"
      ],
      [
        "p",
        "ack"
      ],
      [
        "y",
        "cle"
      ],
      [
        "re",
        "ct"
      ],
      [
        "ĠC",
        "SS"
      ],
      [
        "Ġo",
        "ils"
      ],
      [
        "Ġs",
        "leep"
      ],
      [
        "Ġp",
        "age"
      ],
      [
        "Ġn",
        "ext"
      ],
      [
        "Ġb",
        "re"
      ],
      [
        "Ġb",
        "ic"
      ],
      [
        "Ġre",
        "quest"
      ],
      [
        "te",
        "book"
      ],
      [
        "Ġma",
        "m"
      ],
      [
        "it",
        "s"
      ],
      [
        "Ġso",
        "ap"
      ],
      [
        "Ġde",
        "pe"
      ],
      [
        "Ġcont",
        "roll"
      ],
      [
        "Ġse",
        "ason"
      ],
      [
        "Ġno",
        "tebook"
      ],
      [
        "Ġcar",
        "ry"
      ],
      [
        "Ġloo",
        "k"
      ],
      [
        "Ġneed",
        "s"
      ],
      [
        "Ġunre",
        "liable"
      ],
      [
        "ĠGame",
        "Object"
      ],
      [
        "Ġenter",
        "ed"
      ],
      [
        "Ġsupp",
        "orts"
      ],
      [
        "Ġbic",
        "ycle"
      ],
      [
        "Ġcontroll",
        "er"
      ],
      [
        "Ġseason",
        "s"
      ],
      [
        "E",
        "ngine"
      ],
      [
        "F",
        "ield"
      ],
      [
        "S",
        "eri"
      ],
      [
        "T",
        "ime"
      ],
      [
        "b",
        "its"
      ],
      [
        "c",
        "u"
      ],
      [
        "nt",
        "ity"
      ],
      [
        "Ġi",
        "ce"
      ],
      [
        "Ġi",
        "ron"
      ],
      [
        "Ġf",
        "ile"
      ],
      [
        "Ġf",
        "ood"
      ],
      [
        "or",
        "d"
      ],
      [
        "ĠT",
        "ime"
      ],
      [
        "Ġma",
        "gn"
      ],
      [
        "Ġor",
        "bits"
      ],
      [
        "Ġcan",
        "not"
      ],
      [
        "del",
        "ta"
      ],
      [
        "Ġab",
        "s"
      ],
      [
        "Ġide",
        "ntity"
      ],
      [
        "ĠUnity",
        "Engine"
      ],
      [
        "Ġph",
        "ases"
      ],
      [
        "Ġph",
        "oto"
      ],
      [
        "Ġref",
        "lect"
      ],
      [
        "alize",
        "Field"
      ],
      [
        "Seri",
        "alizeField"
      ],
      [
        "delta",
        "Time"
      ],
      [
        "3",
        "9"
      ],
      [
        "c",
        "lu"
      ],
      [
        "r",
        "or"
      ],
      [
        "si",
        "de"
      ],
      [
        "re",
        "al"
      ],
      [
        "Ġi",
        "mport"
      ],
      [
        "Ġt",
        "e"
      ],
      [
        "Ġc",
        "ity"
      ],
      [
        "ri",
        "b"
      ],
      [
        "Ġm",
        "ug"
      ],
      [
        "Ġp",
        "ath"
      ],
      [
        "le",
        "cul"
      ],
      [
        "Ġw",
        "hich"
      ],
      [
        "ion",
        "s"
      ],
      [
        "Ġto",
        "ld"
      ],
      [
        "ĠP",
        "ick"
      ],
      [
        "Ġmo",
        "ves"
      ],
      [
        "Ġmo",
        "lecul"
      ],
      [
        "Ġbe",
        "fore"
      ],
      [
        "Ġ5",
        "2"
      ],
      [
        "ĠS",
        "ystem"
      ],
      [
        "Ġat",
        "mo"
      ],
      [
        "Ġhu",
        "ge"
      ],
      [
        "Ġle",
        "ngth"
      ],
      [
        "ĠUn",
        "real"
      ],
      [
        "ust",
        "s"
      ],
      [
        "Ġsta",
        "r"
      ],
      [
        "Ġocean",
        "s"
      ],
      [
        "Ġref",
        "erence"
      ],
      [
        "Ġchan",
        "ge"
      ],
      [
        "ĠAn",
        "swer"
      ],
      [
        "inn",
        "er"
      ],
      [
        "Ġchang",
        "es"
      ],
      [
        "Ġmagn",
        "et"
      ],
      [
        "Ġimport",
        "ant"
      ],
      [
        "Ġmolecul",
        "es"
      ],
      [
        "Ġatmo",
        "sphere"
      ],
      [
        "i",
        "g"
      ],
      [
        "n",
        "y"
      ],
      [
        "Ġa",
        "ft"
      ],
      [
        "Ġc",
        "at"
      ],
      [
        "Ġs",
        "chool"
      ],
      [
        "Ġw",
        "hi"
      ],
      [
        "Ġre",
        "le"
      ],
      [
        "Ġh",
        "alf"
      ],
      [
        "Ġmo",
        "ving"
      ],
      [
        "Ġmo",
        "vies"
      ],
      [
        "Ġ6",
        "4"
      ],
      [
        "Ġst",
        "ep"
      ],
      [
        "Ġ7",
        "8"
      ],
      [
        "Ġfa",
        "cts"
      ],
      [
        "Ġth",
        "ere"
      ],
      [
        "ĠJ",
        "ust"
      ],
      [
        "Ġpla",
        "nts"
      ],
      [
        "Ġle",
        "ss"
      ],
      [
        "Ġgame",
        "s"
      ],
      [
        "Ġnatur",
        "ally"
      ],
      [
        "Ġwhi",
        "le"
      ],
      [
        "7",
        "2"
      ],
      [
        "F",
        "ixedUpdate"
      ],
      [
        "b",
        "or"
      ],
      [
        "g",
        "rap"
      ],
      [
        "i",
        "l"
      ],
      [
        "Ġ",
        "er"
      ],
      [
        "at",
        "ive"
      ],
      [
        "ro",
        "ss"
      ],
      [
        "te",
        "cture"
      ],
      [
        "Ġ6",
        "5"
      ],
      [
        "Ġus",
        "ed"
      ],
      [
        "ation",
        "s"
      ],
      [
        "ect",
        "or"
      ],
      [
        "ĠR",
        "o"
      ],
      [
        "Ġlearn",
        "ing"
      ],
      [
        "Ġac",
        "ross"
      ],
      [
        "Ġdesi",
        "gned"
      ],
      [
        "Ġback",
        "pack"
      ],
      [
        "ĠBlue",
        "print"
      ],
      [
        "grap",
        "hy"
      ],
      [
        "Ġer",
        "ror"
      ],
      [
        "'",
        "re"
      ],
      [
        "7",
        "7"
      ],
      [
        "C",
        "on"
      ],
      [
        "L",
        "ine"
      ],
      [
        "M",
        "o"
      ],
      [
        "T",
        "rans"
      ],
      [
        "V",
        "ector"
      ],
      [
        "W",
        "rite"
      ],
      [
        "l",
        "ate"
      ],
      [
        "Ċ",
        "Ċ"
      ],
      [
        "Ġ",
        ">"
      ],
      [
        "Ġ1",
        "00"
      ],
      [
        "Ġb",
        "oo"
      ],
      [
        "Ġin",
        "clu"
      ],
      [
        "iv",
        "ity"
      ],
      [
        "Ġfor",
        "m"
      ],
      [
        "Ġfor",
        "ward"
      ],
      [
        "Ġ7",
        "0"
      ],
      [
        "Ġ7",
        "4"
      ],
      [
        "Ġas",
        "k"
      ],
      [
        "Ġwe",
        "b"
      ],
      [
        "ĠFor",
        "ward"
      ],
      [
        "Ġtrain",
        "ed"
      ],
      [
        "Ġanimal",
        "s"
      ],
      [
        "for",
        "ward"
      ],
      [
        "Ġreply",
        "ing"
      ],
      [
        "Con",
        "sole"
      ],
      [
        "Mo",
        "ver"
      ],
      [
        "Trans",
        "late"
      ],
      [
        "Write",
        "Line"
      ],
      [
        "ĠForward",
        "Mover"
      ],
      [
        "!",
        "\")"
      ],
      [
        "7",
        "8"
      ],
      [
        "b",
        "ye"
      ],
      [
        "o",
        "st"
      ],
      [
        "Ġe",
        "lect"
      ],
      [
        "ĠA",
        "re"
      ],
      [
        "Ġc",
        "or"
      ],
      [
        "Ġd",
        "on"
      ],
      [
        "Ġ3",
        "9"
      ],
      [
        "ction",
        "s"
      ],
      [
        "nds",
        "hip"
      ],
      [
        "ĠB",
        "e"
      ],
      [
        "Ġj",
        "ust"
      ],
      [
        "Ġye",
        "ar"
      ],
      [
        "Ġact",
        "ivity"
      ],
      [
        "Ġhapp",
        "ened"
      ],
      [
        "Ġlarge",
        "st"
      ],
      [
        "1",
        "5"
      ],
      [
        "f",
        "erence"
      ],
      [
        "m",
        "ag"
      ],
      [
        "t",
        "ion"
      ],
      [
        "t",
        "en"
      ],
      [
        "Ġa",
        "w"
      ],
      [
        "re",
        "e"
      ],
      [
        "me",
        "mber"
      ],
      [
        "an",
        "ce"
      ],
      [
        "Ġof",
        "ten"
      ],
      [
        "Ġ3",
        "8"
      ],
      [
        "Ġbe",
        "g"
      ],
      [
        "Ġ6",
        "6"
      ],
      [
        "Ġ8",
        "0"
      ],
      [
        "Ġ8",
        "4"
      ],
      [
        "ĠD",
        "ramatic"
      ],
      [
        "Ġrea",
        "ction"
      ],
      [
        "am",
        "era"
      ],
      [
        "ĠGood",
        "bye"
      ],
      [
        "Ġread",
        "y"
      ],
      [
        "ĠQu",
        "ick"
      ],
      [
        "Ġte",
        "st"
      ],
      [
        "'",
        "ll"
      ],
      [
        "6",
        "8"
      ],
      [
        "`",
        ","
      ],
      [
        "a",
        "k"
      ],
      [
        "b",
        "ow"
      ],
      [
        "d",
        "ition"
      ],
      [
        "g",
        "s"
      ],
      [
        "k",
        "le"
      ],
      [
        "t",
        "ter"
      ],
      [
        "x",
        "is"
      ],
      [
        "Ġa",
        "xis"
      ],
      [
        "si",
        "us"
      ],
      [
        "ĠC",
        "el"
      ],
      [
        "Ġt",
        "ilt"
      ],
      [
        "Ġt",
        "ries"
      ],
      [
        "Ġhe",
        "avy"
      ],
      [
        "in",
        "kle"
      ],
      [
        "Ġo",
        "tter"
      ],
      [
        "ĠI",
        "t"
      ],
      [
        "Ġm",
        "ar"
      ],
      [
        "Ġb",
        "o"
      ],
      [
        "Ġre",
        "ce"
      ],
      [
        "Ġg",
        "la"
      ],
      [
        "Ġan",
        "g"
      ],
      [
        "Ġcon",
        "dition"
      ],
      [
        "ap",
        "or"
      ],
      [
        "Ġdi",
        "rect"
      ],
      [
        "Ġ7",
        "7"
      ],
      [
        "Ġ7",
        "9"
      ],
      [
        "Ġsp",
        "e"
      ],
      [
        "Ġar",
        "t"
      ],
      [
        "Ġ8",
        "9"
      ],
      [
        "Ġpart",
        "ic"
      ],
      [
        "Ġcome",
        "dy"
      ],
      [
        "Ġva",
        "cu"
      ],
      [
        "Ġarchi",
        "tecture"
      ],
      [
        "Ġno",
        "body"
      ],
      [
        "iz",
        "ed"
      ],
      [
        "Ġpredi",
        "ction"
      ],
      [
        "Ġcoo",
        "ls"
      ],
      [
        "Ġcoo",
        "king"
      ],
      [
        "ĠAn",
        "other"
      ],
      [
        "Ġgre",
        "ase"
      ],
      [
        "Ġrain",
        "bow"
      ],
      [
        "Ġremo",
        "ves"
      ],
      [
        "Ġconf",
        "ide"
      ],
      [
        "Ġwho",
        "se"
      ],
      [
        "Ġdeli",
        "b"
      ],
      [
        "Ġcomm",
        "only"
      ],
      [
        "Ġtw",
        "inkle"
      ],
      [
        "Ġmam",
        "mal"
      ],
      [
        "Ġphoto",
        "graphy"
      ],
      [
        "Ġbeg",
        "inner"
      ],
      [
        "ĠCel",
        "sius"
      ],
      [
        "Ġtilt",
        "ed"
      ],
      [
        "Ġvacu",
        "um"
      ],
      [
        "a",
        "i"
      ],
      [
        "b",
        "ug"
      ],
      [
        "i",
        "ld"
      ],
      [
        "i",
        "ling"
      ],
      [
        "k",
        "ay"
      ],
      [
        "l",
        "ver"
      ],
      [
        "o",
        "ard"
      ],
      [
        "p",
        "lay"
      ],
      [
        "r",
        "ing"
      ],
      [
        "t",
        "on"
      ],
      [
        "sta",
        "l"
      ],
      [
        "ssi",
        "gn"
      ],
      [
        "al",
        "ty"
      ],
      [
        "Ġt",
        "ides"
      ],
      [
        "Ġc",
        "ry"
      ],
      [
        "ĠI",
        "mag"
      ],
      [
        "Ġs",
        "low"
      ],
      [
        "Ġs",
        "alty"
      ],
      [
        "ri",
        "ght"
      ],
      [
        "Ġp",
        "ort"
      ],
      [
        "Ġf",
        "in"
      ],
      [
        "Ġw",
        "rite"
      ],
      [
        "you",
        "t"
      ],
      [
        "Ġre",
        "di"
      ],
      [
        "Ġli",
        "qu"
      ],
      [
        "Ġ5",
        "4"
      ],
      [
        "Ġcon",
        "sole"
      ],
      [
        "Ġla",
        "yout"
      ],
      [
        "Ġsp",
        "orts"
      ],
      [
        "Ġde",
        "nse"
      ],
      [
        "Ġde",
        "bug"
      ],
      [
        "Ġsi",
        "lver"
      ],
      [
        "Ġat",
        "t"
      ],
      [
        "Ġ13",
        "0"
      ],
      [
        "Ġ11",
        "6"
      ],
      [
        "Ġop",
        "en"
      ],
      [
        "ĠN",
        "ice"
      ],
      [
        "Ġsmall",
        "er"
      ],
      [
        "Ġ18",
        "7"
      ],
      [
        "Ġrep",
        "air"
      ],
      [
        "Ġwor",
        "k"
      ],
      [
        "Ġwor",
        "ks"
      ],
      [
        "Ġloo",
        "p"
      ],
      [
        "Ġloo",
        "king"
      ],
      [
        "Ġsun",
        "lit"
      ],
      [
        "yb",
        "oard"
      ],
      [
        "Ġappe",
        "ars"
      ],
      [
        "Ġbu",
        "ild"
      ],
      [
        "sol",
        "ved"
      ],
      [
        "erat",
        "ely"
      ],
      [
        "ost",
        "er"
      ],
      [
        "Ġcor",
        "al"
      ],
      [
        "Ġspe",
        "cific"
      ],
      [
        "Ġdelib",
        "erately"
      ],
      [
        "Ġcry",
        "stal"
      ],
      [
        "ĠImag",
        "ine"
      ],
      [
        "Ġport",
        "ions"
      ],
      [
        "Ġliqu",
        "id"
      ],
      [
        "2",
        "9"
      ],
      [
        "3",
        "00"
      ],
      [
        "b",
        "on"
      ],
      [
        "p",
        "re"
      ],
      [
        "t",
        "ing"
      ],
      [
        "t",
        "ime"
      ],
      [
        "w",
        "or"
      ],
      [
        "z",
        "z"
      ],
      [
        "nt",
        "ion"
      ],
      [
        "er",
        "mo"
      ],
      [
        "er",
        "cise"
      ],
      [
        "ĠC",
        "heck"
      ],
      [
        "li",
        "ke"
      ],
      [
        "Ġt",
        "ur"
      ],
      [
        "ul",
        "l"
      ],
      [
        "ul",
        "ls"
      ],
      [
        "lp",
        "h"
      ],
      [
        "at",
        "es"
      ],
      [
        "Ġc",
        "ause"
      ],
      [
        "Ġc",
        "row"
      ],
      [
        "Ġo",
        "ct"
      ],
      [
        "Ġo",
        "ther"
      ],
      [
        "Ġs",
        "ep"
      ],
      [
        "Ġp",
        "ulls"
      ],
      [
        "Ġf",
        "i"
      ],
      [
        "Ġn",
        "orth"
      ],
      [
        "Ġb",
        "lo"
      ],
      [
        "Ġin",
        "vent"
      ],
      [
        "av",
        "es"
      ],
      [
        "te",
        "ntion"
      ],
      [
        "Ġdo",
        "lph"
      ],
      [
        "rou",
        "nd"
      ],
      [
        "ĠS",
        "p"
      ],
      [
        "ĠS",
        "erious"
      ],
      [
        "Ġfloat",
        "s"
      ],
      [
        "Ġdi",
        "ox"
      ],
      [
        "ĠE",
        "x"
      ],
      [
        "ĠE",
        "ngine"
      ],
      [
        "Ġfa",
        "ct"
      ],
      [
        "Ġth",
        "ermo"
      ],
      [
        "Ġat",
        "tention"
      ],
      [
        "Ġad",
        "d"
      ],
      [
        "Ġ16",
        "2"
      ],
      [
        "ss",
        "ure"
      ],
      [
        "Ġwe",
        "ather"
      ],
      [
        "Ġr",
        "ate"
      ],
      [
        "Ġr",
        "usts"
      ],
      [
        "Ġfrie",
        "ndship"
      ],
      [
        "Ġmi",
        "ght"
      ],
      [
        "ron",
        "s"
      ],
      [
        "Ġ22",
        "7"
      ],
      [
        "Ġcap",
        "yb"
      ],
      [
        "is",
        "es"
      ],
      [
        "Ġrobot",
        "s"
      ],
      [
        "Ġcar",
        "s"
      ],
      [
        "Ġcar",
        "bon"
      ],
      [
        "Ġcoo",
        "ling"
      ],
      [
        "Ġri",
        "ses"
      ],
      [
        "Ġra",
        "ises"
      ],
      [
        "op",
        "us"
      ],
      [
        "Ġcre",
        "ate"
      ],
      [
        "Ġcre",
        "ative"
      ],
      [
        "Ġcomp",
        "ass"
      ],
      [
        "Ġrun",
        "s"
      ],
      [
        "Ġappe",
        "ar"
      ],
      [
        "Ġdef",
        "in"
      ],
      [
        "Ġlog",
        "ic"
      ],
      [
        "Ġhear",
        "t"
      ],
      [
        "Ġgarden",
        "ing"
      ],
      [
        "Ġslow",
        "s"
      ],
      [
        "wor",
        "k"
      ],
      [
        "Ġtur",
        "t"
      ],
      [
        "Ġoct",
        "opus"
      ],
      [
        "Ġsep",
        "ar"
      ],
      [
        "Ġdiox",
        "ide"
      ],
      [
        "Ġthermo",
        "s"
      ],
      [
        "Ġcapyb",
        "ar"
      ],
      [
        "H",
        "ello"
      ],
      [
        "Ġa",
        "u"
      ],
      [
        "Ġc",
        "ust"
      ],
      [
        "Ġo",
        "w"
      ],
      [
        "Ġf",
        "ixed"
      ],
      [
        "or",
        "a"
      ],
      [
        "Ġn",
        "ull"
      ],
      [
        "ar",
        "bor"
      ],
      [
        "ĠT",
        "his"
      ],
      [
        "ĠH",
        "arbor"
      ],
      [
        "Ġcon",
        "du"
      ],
      [
        "ant",
        "ern"
      ],
      [
        "ile",
        "y"
      ],
      [
        "ay",
        "a"
      ],
      [
        "ĠCal",
        "m"
      ],
      [
        "are",
        "d"
      ],
      [
        "ĠL",
        "antern"
      ],
      [
        "Ġcas",
        "ually"
      ],
      [
        "Ġmu",
        "ch"
      ],
      [
        "Ġdef",
        "ine"
      ],
      [
        "ord",
        "an"
      ],
      [
        "Ġcust",
        "om"
      ],
      [
        "4",
        "8"
      ],
      [
        "N",
        "ext"
      ],
      [
        "S",
        "h"
      ],
      [
        "d",
        "den"
      ],
      [
        "l",
        "at"
      ],
      [
        "u",
        "zz"
      ],
      [
        "re",
        "nd"
      ],
      [
        "Ġt",
        "rend"
      ],
      [
        "Ġs",
        "ay"
      ],
      [
        "Ġs",
        "urp"
      ],
      [
        "ri",
        "sing"
      ],
      [
        "le",
        "ss"
      ],
      [
        "Ġthe",
        "ir"
      ],
      [
        "ra",
        "se"
      ],
      [
        "Ġdo",
        "gs"
      ],
      [
        "Ġma",
        "ch"
      ],
      [
        "un",
        "g"
      ],
      [
        "Ġ5",
        "1"
      ],
      [
        "Ġ5",
        "3"
      ],
      [
        "Ġ6",
        "2"
      ],
      [
        "ĠG",
        "arden"
      ],
      [
        "Ġdi",
        "e"
      ],
      [
        "Ġne",
        "ar"
      ],
      [
        "Ġ9",
        "0"
      ],
      [
        "Ġcol",
        "le"
      ],
      [
        "Ġ14",
        "7"
      ],
      [
        "ĠR",
        "and"
      ],
      [
        "Ġun",
        "less"
      ],
      [
        "id",
        "body"
      ],
      [
        "is",
        "hed"
      ],
      [
        "Ġsu",
        "dden"
      ],
      [
        "Ġvari",
        "ant"
      ],
      [
        "one",
        "st"
      ],
      [
        "Ġnat",
        "ure"
      ],
      [
        "Ġfox",
        "s"
      ],
      [
        "ĠSo",
        "mething"
      ],
      [
        "Ġdepe",
        "nd"
      ],
      [
        "side",
        "d"
      ],
      [
        "ig",
        "idbody"
      ],
      [
        "Ġcat",
        "s"
      ],
      [
        "Ġboo",
        "ks"
      ],
      [
        "Ġotter",
        "s"
      ],
      [
        "Ġsepar",
        "ate"
      ],
      [
        "Sh",
        "ared"
      ],
      [
        "uzz",
        "le"
      ],
      [
        "Ġsurp",
        "rising"
      ],
      [
        "Ġmach",
        "ine"
      ],
      [
        "ĠRand",
        "om"
      ],
      [
        "Ġsudden",
        "ly"
      ],
      [
        "4",
        "5"
      ],
      [
        "Z",
        "o"
      ],
      [
        "a",
        "ke"
      ],
      [
        "h",
        "an"
      ],
      [
        "i",
        "th"
      ],
      [
        "m",
        "it"
      ],
      [
        "y",
        "pe"
      ],
      [
        "er",
        "s"
      ],
      [
        "Ġp",
        "ass"
      ],
      [
        "Ġw",
        "el"
      ],
      [
        "Ġre",
        "st"
      ],
      [
        "ĠT",
        "han"
      ],
      [
        "Ġma",
        "in"
      ],
      [
        "Ġun",
        "c"
      ],
      [
        "Ġwor",
        "se"
      ],
      [
        "Ġvariant",
        "s"
      ],
      [
        "Zo",
        "e"
      ],
      [
        "Ġwel",
        "come"
      ],
      [
        "1",
        "20"
      ],
      [
        "2",
        "5"
      ],
      [
        "2",
        "8"
      ],
      [
        "6",
        "4"
      ],
      [
        "O",
        "O"
      ],
      [
        "r",
        "as"
      ],
      [
        "z",
        "y"
      ],
      [
        "Ġ",
        "y"
      ],
      [
        "Ġa",
        "mber"
      ],
      [
        "re",
        "en"
      ],
      [
        "al",
        "s"
      ],
      [
        "ĠA",
        "ll"
      ],
      [
        "at",
        "ure"
      ],
      [
        "nd",
        "om"
      ],
      [
        "Ġs",
        "qu"
      ],
      [
        "ri",
        "c"
      ],
      [
        "le",
        "t"
      ],
      [
        "Ġf",
        "r"
      ],
      [
        "Ġw",
        "ay"
      ],
      [
        "Ġ2",
        "3"
      ],
      [
        "Ġ2",
        "38"
      ],
      [
        "ĠP",
        "a"
      ],
      [
        "el",
        "li"
      ],
      [
        "Ġg",
        "et"
      ],
      [
        "Ġli",
        "me"
      ],
      [
        "Ġma",
        "king"
      ],
      [
        "Ġcon",
        "cise"
      ],
      [
        "Ġ7",
        "6"
      ],
      [
        "Ġsh",
        "orth"
      ],
      [
        "Ġso",
        "me"
      ],
      [
        "Ġ8",
        "7"
      ],
      [
        "Ġnew",
        "s"
      ],
      [
        "Ġ11",
        "0"
      ],
      [
        "Ġlo",
        "l"
      ],
      [
        "Ġ20",
        "1"
      ],
      [
        "Ġr",
        "ather"
      ],
      [
        "Ġsu",
        "ch"
      ],
      [
        "ĠO",
        "cean"
      ],
      [
        "Ġra",
        "ndom"
      ],
      [
        "ĠSh",
        "ort"
      ],
      [
        "Ġbu",
        "ilt"
      ],
      [
        "Ġl",
        "ong"
      ],
      [
        "Ġparameter",
        "s"
      ],
      [
        "Ġmar",
        "oon"
      ],
      [
        "Ġcrow",
        "s"
      ],
      [
        "Ġdolph",
        "ins"
      ],
      [
        "Ġturt",
        "les"
      ],
      [
        "Ġoctopus",
        "s"
      ],
      [
        "Ġcapybar",
        "as"
      ],
      [
        "Ġow",
        "ls"
      ],
      [
        "Ġsqu",
        "are"
      ],
      [
        "Ġshorth",
        "and"
      ],
      [
        "1",
        "9"
      ],
      [
        "3",
        "80"
      ],
      [
        "5",
        "3"
      ],
      [
        "b",
        "s"
      ],
      [
        "o",
        "ken"
      ],
      [
        "o",
        "let"
      ],
      [
        "p",
        "ut"
      ],
      [
        "t",
        "le"
      ],
      [
        "t",
        "oken"
      ],
      [
        "Ġa",
        "li"
      ],
      [
        "ou",
        "nds"
      ],
      [
        "Ġi",
        "nd"
      ],
      [
        "ĠA",
        "r"
      ],
      [
        "eri",
        "ng"
      ],
      [
        "Ġc",
        "a"
      ],
      [
        "Ġs",
        "y"
      ],
      [
        "Ġs",
        "lang"
      ],
      [
        "Ġs",
        "ounds"
      ],
      [
        "ri",
        "ed"
      ],
      [
        "Ġm",
        "or"
      ],
      [
        "Ġw",
        "rong"
      ],
      [
        "Ġn",
        "orm"
      ],
      [
        "Ġb",
        "ra"
      ],
      [
        "Ġ2",
        "62"
      ],
      [
        "ar",
        "k"
      ],
      [
        "Ġin",
        "form"
      ],
      [
        "Ġin",
        "put"
      ],
      [
        "Ġh",
        "ad"
      ],
      [
        "Ġ3",
        "1"
      ],
      [
        "ĠT",
        "rain"
      ],
      [
        "Ġ8",
        "6"
      ],
      [
        "Ġ15",
        "2"
      ],
      [
        "Ġ15",
        "6"
      ],
      [
        "Ġ15",
        "7"
      ],
      [
        "Ġ10",
        "2"
      ],
      [
        "Ġ9",
        "7"
      ],
      [
        "Ġad",
        "j"
      ],
      [
        "ĠCo",
        "nt"
      ],
      [
        "Ġ18",
        "3"
      ],
      [
        "Ġ24",
        "4"
      ],
      [
        "18",
        "4"
      ],
      [
        "Ġrea",
        "ds"
      ],
      [
        "Ġvi",
        "olet"
      ],
      [
        "Ġchang",
        "ing"
      ],
      [
        "Ġaft",
        "er"
      ],
      [
        "Ġconfide",
        "nt"
      ],
      [
        "Ġunc",
        "er"
      ],
      [
        "Ġmor",
        "ning"
      ],
      [
        "Ġnorm",
        "ally"
      ],
      [
        "Ġinform",
        "ation"
      ],
      [
        "ĠTrain",
        "ing"
      ],
      [
        "\"",
        ":"
      ],
      [
        "#",
        "?"
      ],
      [
        ")",
        ":"
      ],
      [
        "1",
        "3"
      ],
      [
        "8",
        "00"
      ],
      [
        "?",
        "?"
      ],
      [
        "O",
        "N"
      ],
      [
        "S",
        "ON"
      ],
      [
        "f",
        "er"
      ],
      [
        "g",
        "in"
      ],
      [
        "m",
        "ical"
      ],
      [
        "t",
        "work"
      ],
      [
        "y",
        "an"
      ],
      [
        "y",
        "ers"
      ],
      [
        "ð",
        "Ł"
      ],
      [
        "Ġ",
        "<"
      ],
      [
        "Ġ",
        "stand"
      ],
      [
        "Ġ",
        "ðŁ"
      ],
      [
        "Ĵ",
        "Ģ"
      ],
      [
        "Ġa",
        "ctions"
      ],
      [
        "si",
        "s"
      ],
      [
        "re",
        "ad"
      ],
      [
        "he",
        "mical"
      ],
      [
        "ĠC",
        "h"
      ],
      [
        "ĠC",
        "amera"
      ],
      [
        "li",
        "date"
      ],
      [
        "Ġe",
        "vent"
      ],
      [
        "Ġt",
        "as"
      ],
      [
        "Ġt",
        "ung"
      ],
      [
        "Ġhe",
        "l"
      ],
      [
        "Ġhelp",
        "s"
      ],
      [
        "Ġc",
        "yan"
      ],
      [
        "Ġc",
        "hemical"
      ],
      [
        "in",
        "ue"
      ],
      [
        "Ġs",
        "ame"
      ],
      [
        "Ġs",
        "cript"
      ],
      [
        "Ġp",
        "ure"
      ],
      [
        "Ġn",
        "avy"
      ],
      [
        "Ġd",
        "ur"
      ],
      [
        "Ġd",
        "ramatic"
      ],
      [
        "Ġd",
        "ark"
      ],
      [
        "mb",
        "ine"
      ],
      [
        "mb",
        "ol"
      ],
      [
        "ro",
        "ls"
      ],
      [
        "Ġco",
        "mbine"
      ],
      [
        "Ġin",
        "st"
      ],
      [
        "Ġin",
        "ference"
      ],
      [
        "Ġg",
        "ood"
      ],
      [
        "Ġg",
        "row"
      ],
      [
        "ct",
        "ed"
      ],
      [
        "Ġme",
        "mo"
      ],
      [
        "Ġh",
        "onest"
      ],
      [
        "te",
        "cted"
      ],
      [
        "Ġ3",
        "12"
      ],
      [
        "Ġ3",
        "11"
      ],
      [
        "Ġli",
        "ne"
      ],
      [
        "ra",
        "ct"
      ],
      [
        "Ġam",
        "ount"
      ],
      [
        "un",
        "ny"
      ],
      [
        "Ġ5",
        "6"
      ],
      [
        "Ġ5",
        "8"
      ],
      [
        "Ġcon",
        "so"
      ],
      [
        "Ġpro",
        "duc"
      ],
      [
        "Ġla",
        "yers"
      ],
      [
        "ur",
        "d"
      ],
      [
        "Ġdi",
        "ction"
      ],
      [
        "Ġv",
        "apor"
      ],
      [
        "Ġne",
        "twork"
      ],
      [
        "ran",
        "ce"
      ],
      [
        "ĠF",
        "unny"
      ],
      [
        "ĠF",
        "rance"
      ],
      [
        "ĠJ",
        "SON"
      ],
      [
        "et",
        "urn"
      ],
      [
        "Ġat",
        "om"
      ],
      [
        "Ġ15",
        "1"
      ],
      [
        "Ġ10",
        "6"
      ],
      [
        "Ġwe",
        "ight"
      ],
      [
        "Ġcont",
        "rols"
      ],
      [
        "Ġper",
        "form"
      ],
      [
        "Ġcol",
        "on"
      ],
      [
        "Ġ17",
        "5"
      ],
      [
        "Ġhu",
        "m"
      ],
      [
        "Ġ20",
        "6"
      ],
      [
        "Ġ19",
        "7"
      ],
      [
        "Ġcolor",
        "s"
      ],
      [
        "Ġ24",
        "6"
      ],
      [
        "Ġ24",
        "8"
      ],
      [
        "ĠR",
        "ep"
      ],
      [
        "ĠR",
        "eturn"
      ],
      [
        "Ġ22",
        "4"
      ],
      [
        "Ġpre",
        "ssure"
      ],
      [
        "99",
        "9"
      ],
      [
        "Ġsta",
        "te"
      ],
      [
        "Ġsta",
        "tion"
      ],
      [
        "Ġsa",
        "f"
      ],
      [
        "Ġph",
        "rase"
      ],
      [
        "Ġref",
        "ract"
      ],
      [
        "br",
        "ations"
      ],
      [
        "Ġprogramm",
        "er"
      ],
      [
        "Ġye",
        "ars"
      ],
      [
        "Ġvi",
        "brations"
      ],
      [
        "Ġroll",
        "s"
      ],
      [
        "ĠSh",
        "ow"
      ],
      [
        "ĠSt",
        "range"
      ],
      [
        "Ġbecome",
        "s"
      ],
      [
        "Ġlog",
        "o"
      ],
      [
        "Ġal",
        "ong"
      ],
      [
        "Ġabs",
        "urd"
      ],
      [
        "Ġstar",
        "s"
      ],
      [
        "Ġaw",
        "ay"
      ],
      [
        "Ġbo",
        "th"
      ],
      [
        "Ġrece",
        "ives"
      ],
      [
        "Ġang",
        "le"
      ],
      [
        "Ġpartic",
        "les"
      ],
      [
        "Ġatt",
        "ach"
      ],
      [
        "Ġrest",
        "ore"
      ],
      [
        "ĠThan",
        "ks"
      ],
      [
        "Ġlong",
        "er"
      ],
      [
        "Ġali",
        "gn"
      ],
      [
        "Ġsy",
        "mbol"
      ],
      [
        "Ġstand",
        "ard"
      ],
      [
        "ĠðŁ",
        "ĴĢ"
      ],
      [
        "Ġevent",
        "ually"
      ],
      [
        "Ġdur",
        "ing"
      ],
      [
        "Ġdark",
        "er"
      ],
      [
        "Ġmemo",
        "ries"
      ],
      [
        "Ġamount",
        "s"
      ],
      [
        "Ġconso",
        "lidate"
      ],
      [
        "Ġdiction",
        "ary"
      ],
      [
        "Ġweight",
        "s"
      ],
      [
        "7",
        "9"
      ],
      [
        "9",
        "3"
      ],
      [
        "a",
        "mple"
      ],
      [
        "a",
        "nds"
      ],
      [
        "c",
        "les"
      ],
      [
        "g",
        "ing"
      ],
      [
        "p",
        "ar"
      ],
      [
        "t",
        "hen"
      ],
      [
        "u",
        "te"
      ],
      [
        "Ġ",
        "our"
      ],
      [
        "Ġa",
        "round"
      ],
      [
        "nt",
        "ernet"
      ],
      [
        "st",
        "rib"
      ],
      [
        "er",
        "pre"
      ],
      [
        "er",
        "als"
      ],
      [
        "al",
        "ls"
      ],
      [
        "li",
        "st"
      ],
      [
        "us",
        "cles"
      ],
      [
        "on",
        "es"
      ],
      [
        "ĠA",
        "ssign"
      ],
      [
        "Ġexp",
        "ands"
      ],
      [
        "Ġhe",
        "at"
      ],
      [
        "at",
        "ing"
      ],
      [
        "Ġc",
        "ell"
      ],
      [
        "Ġo",
        "ri"
      ],
      [
        "ĠI",
        "ts"
      ],
      [
        "ĠI",
        "nternet"
      ],
      [
        "Ġm",
        "uscles"
      ],
      [
        "le",
        "st"
      ],
      [
        "Ġf",
        "ield"
      ],
      [
        "Ġw",
        "ast"
      ],
      [
        "or",
        "ds"
      ],
      [
        "or",
        "bs"
      ],
      [
        "Ġ2",
        "30"
      ],
      [
        "Ġ2",
        "37"
      ],
      [
        "Ġto",
        "o"
      ],
      [
        "ĠP",
        "oster"
      ],
      [
        "Ġre",
        "member"
      ],
      [
        "Ġin",
        "sul"
      ],
      [
        "Ġg",
        "eo"
      ],
      [
        "Ġme",
        "tal"
      ],
      [
        "Ġh",
        "orm"
      ],
      [
        "Ġ3",
        "00"
      ],
      [
        "Ġ3",
        "99"
      ],
      [
        "Ġ4",
        "00"
      ],
      [
        "Ġ4",
        "62"
      ],
      [
        "Ġon",
        "ce"
      ],
      [
        "Ġint",
        "erpre"
      ],
      [
        "it",
        "i"
      ],
      [
        "hy",
        "ll"
      ],
      [
        "Ġcon",
        "ve"
      ],
      [
        "Ġla",
        "st"
      ],
      [
        "Ġus",
        "ually"
      ],
      [
        "Ġwith",
        "out"
      ],
      [
        "ng",
        "then"
      ],
      [
        "int",
        "y"
      ],
      [
        "Ġv",
        "al"
      ],
      [
        "Ġv",
        "is"
      ],
      [
        "Ġde",
        "tected"
      ],
      [
        "Ġfa",
        "iling"
      ],
      [
        "Ġmin",
        "erals"
      ],
      [
        "Ġanswer",
        "s"
      ],
      [
        "Ġ`",
        "="
      ],
      [
        "log",
        "ical"
      ],
      [
        "Ġ16",
        "1"
      ],
      [
        "Ġwe",
        "ath"
      ],
      [
        "Ġcont",
        "rib"
      ],
      [
        "Ġ13",
        "1"
      ],
      [
        "di",
        "ation"
      ],
      [
        "Ġcol",
        "la"
      ],
      [
        "Ġlo",
        "cal"
      ],
      [
        "Ġsmal",
        "lest"
      ],
      [
        "ĠN",
        "one"
      ],
      [
        "Ġch",
        "lor"
      ],
      [
        "ĠB",
        "right"
      ],
      [
        "Ġ19",
        "4"
      ],
      [
        "Ġ19",
        "9"
      ],
      [
        "Ġle",
        "aves"
      ],
      [
        "Ġle",
        "ngthen"
      ],
      [
        "ut",
        "ion"
      ],
      [
        "Ġ24",
        "3"
      ],
      [
        "Ġex",
        "ercise"
      ],
      [
        "Ġ30",
        "2"
      ],
      [
        "Ġgame",
        "play"
      ],
      [
        "Ġtrans",
        "fer"
      ],
      [
        "Ġdis",
        "solved"
      ],
      [
        "Ġwor",
        "king"
      ],
      [
        "Ġreduc",
        "es"
      ],
      [
        "ĠO",
        "n"
      ],
      [
        "Ġneed",
        "le"
      ],
      [
        "ces",
        "hip"
      ],
      [
        "ag",
        "es"
      ],
      [
        "Ġrea",
        "cts"
      ],
      [
        "Ġox",
        "ides"
      ],
      [
        "Ġye",
        "ast"
      ],
      [
        "Ġra",
        "diation"
      ],
      [
        "op",
        "hyll"
      ],
      [
        "Ġact",
        "ive"
      ],
      [
        "ta",
        "inty"
      ],
      [
        "Ġremo",
        "ve"
      ],
      [
        "Ġl",
        "ater"
      ],
      [
        "Ġdeli",
        "ver"
      ],
      [
        "Ġcomm",
        "un"
      ],
      [
        "Ġfe",
        "ature"
      ],
      [
        "Ġtra",
        "pped"
      ],
      [
        "Ġrecogn",
        "ize"
      ],
      [
        "Ġeven",
        "ing"
      ],
      [
        "Ġbre",
        "ad"
      ],
      [
        "Ġbre",
        "ak"
      ],
      [
        "Ġabs",
        "orbs"
      ],
      [
        "Ġreflect",
        "ing"
      ],
      [
        "Ġmagnet",
        "ic"
      ],
      [
        "Ġmagnet",
        "ized"
      ],
      [
        "Ġrele",
        "ases"
      ],
      [
        "ĠRo",
        "bot"
      ],
      [
        "Ġinclu",
        "ding"
      ],
      [
        "Ġredi",
        "strib"
      ],
      [
        "Ġdebug",
        "ging"
      ],
      [
        "Ġrepair",
        "ing"
      ],
      [
        "Ġblo",
        "od"
      ],
      [
        "ĠEx",
        "ample"
      ],
      [
        "Ġappear",
        "ance"
      ],
      [
        "Ġcondu",
        "ction"
      ],
      [
        "Ġuncer",
        "tainty"
      ],
      [
        "ĠCh",
        "aotic"
      ],
      [
        "Ġgrow",
        "th"
      ],
      [
        "Ġalign",
        "s"
      ],
      [
        "par",
        "ameter"
      ],
      [
        "Ġcell",
        "s"
      ],
      [
        "Ġori",
        "gin"
      ],
      [
        "Ġwast",
        "e"
      ],
      [
        "Ġinsul",
        "ation"
      ],
      [
        "Ġgeo",
        "logical"
      ],
      [
        "Ġhorm",
        "ones"
      ],
      [
        "Ġinterpre",
        "t"
      ],
      [
        "Ġconve",
        "ction"
      ],
      [
        "Ġvis",
        "ual"
      ],
      [
        "Ġweath",
        "ering"
      ],
      [
        "Ġcontrib",
        "ution"
      ],
      [
        "Ġchlor",
        "ophyll"
      ],
      [
        "Ġfeature",
        "s"
      ],
      [
        "Ġredistrib",
        "ute"
      ],
      [
        "\"",
        "]"
      ],
      [
        "2",
        "4"
      ],
      [
        ";",
        "`"
      ],
      [
        "a",
        "h"
      ],
      [
        "b",
        "lue"
      ],
      [
        "c",
        "el"
      ],
      [
        "k",
        "ed"
      ],
      [
        "n",
        "able"
      ],
      [
        "s",
        "y"
      ],
      [
        "v",
        "a"
      ],
      [
        "Ġa",
        "ut"
      ],
      [
        "Ġa",
        "ir"
      ],
      [
        "nt",
        "he"
      ],
      [
        "st",
        "orm"
      ],
      [
        "re",
        "d"
      ],
      [
        "Ġt",
        "one"
      ],
      [
        "Ġc",
        "ras"
      ],
      [
        "Ġp",
        "urp"
      ],
      [
        "Ġw",
        "ell"
      ],
      [
        "Ġ1",
        "20"
      ],
      [
        "la",
        "r"
      ],
      [
        "ĠP",
        "uzzle"
      ],
      [
        "ro",
        "duce"
      ],
      [
        "el",
        "met"
      ],
      [
        "Ġh",
        "o"
      ],
      [
        "Ġ3",
        "92"
      ],
      [
        "Ġ4",
        "3"
      ],
      [
        "ge",
        "t"
      ],
      [
        "ĠH",
        "elmet"
      ],
      [
        "Ġst",
        "range"
      ],
      [
        "ĠG",
        "it"
      ],
      [
        "ĠIn",
        "iti"
      ],
      [
        "Ġth",
        "ough"
      ],
      [
        "Ġth",
        "ree"
      ],
      [
        "Ġshort",
        "er"
      ],
      [
        "Ġ8",
        "3"
      ],
      [
        "ĠF",
        "ixedUpdate"
      ],
      [
        "co",
        "lor"
      ],
      [
        "Ġ10",
        "3"
      ],
      [
        "Ġ10",
        "8"
      ],
      [
        "Ġad",
        "mit"
      ],
      [
        "Ġ16",
        "7"
      ],
      [
        "ĠKe",
        "yboard"
      ],
      [
        "Ġ11",
        "2"
      ],
      [
        "Ġ11",
        "8"
      ],
      [
        "Ġ17",
        "4"
      ],
      [
        "Ġ12",
        "3"
      ],
      [
        "Ġ14",
        "4"
      ],
      [
        "rans",
        "form"
      ],
      [
        "Ġ21",
        "5"
      ],
      [
        "Ġ21",
        "7"
      ],
      [
        "36",
        "8"
      ],
      [
        "om",
        "atic"
      ],
      [
        "Ġ27",
        "2"
      ],
      [
        "Ġno",
        "de"
      ],
      [
        "ind",
        "ow"
      ],
      [
        "ĠO",
        "ne"
      ],
      [
        "Ġday",
        "time"
      ],
      [
        "Ġunre",
        "lat"
      ],
      [
        "ĠSun",
        "light"
      ],
      [
        "Ġvi",
        "be"
      ],
      [
        "Ġ[",
        "\""
      ],
      [
        "cke",
        "ts"
      ],
      [
        "Ġconf",
        "using"
      ],
      [
        "Ġrun",
        "nable"
      ],
      [
        "erat",
        "es"
      ],
      [
        "Ġbrain",
        "storm"
      ],
      [
        "Ġelect",
        "rons"
      ],
      [
        "Ġfi",
        "x"
      ],
      [
        "Ġcolle",
        "ction"
      ],
      [
        "Ġbra",
        "ckets"
      ],
      [
        "Ġscript",
        "ing"
      ],
      [
        "ĠRep",
        "roduce"
      ],
      [
        "Ġ`=",
        "`."
      ],
      [
        "Ġcommun",
        "ity"
      ],
      [
        "\"]",
        "`."
      ],
      [
        "sy",
        "nthe"
      ],
      [
        "Ġaut",
        "omatic"
      ],
      [
        "Ġcras",
        "h"
      ],
      [
        "Ġpurp",
        "ose"
      ],
      [
        "ĠIniti",
        "alize"
      ],
      [
        "color",
        "s"
      ],
      [
        "Ġunrelat",
        "ed"
      ],
      [
        "synthe",
        "sis"
      ],
      [
        "Ġautomatic",
        "ally"
      ],
      [
        "5",
        "00"
      ],
      [
        "7",
        "5"
      ],
      [
        "n",
        "ame"
      ],
      [
        "ĠC",
        "hat"
      ],
      [
        "Ġexp",
        "lan"
      ],
      [
        "Ġc",
        "ent"
      ],
      [
        "Ġo",
        "kay"
      ],
      [
        "Ġs",
        "ure"
      ],
      [
        "Ġf",
        "ive"
      ],
      [
        "Ġ1",
        "40"
      ],
      [
        "Ġ2",
        "35"
      ],
      [
        "Ġre",
        "c"
      ],
      [
        "Ġco",
        "mple"
      ],
      [
        "Ġ3",
        "3"
      ],
      [
        "Ġ3",
        "62"
      ],
      [
        "Ġ3",
        "37"
      ],
      [
        "Ġ4",
        "9"
      ],
      [
        "Ġma",
        "p"
      ],
      [
        "ĠH",
        "ere"
      ],
      [
        "Ġ6",
        "9"
      ],
      [
        "Ġ6",
        "22"
      ],
      [
        "Ġ8",
        "1"
      ],
      [
        "Ġ8",
        "2"
      ],
      [
        "Ġ8",
        "8"
      ],
      [
        "Ġ9",
        "1"
      ],
      [
        "Ġ9",
        "2"
      ],
      [
        "Ġ9",
        "8"
      ],
      [
        "Ġfun",
        "ny"
      ],
      [
        "Ġ20",
        "9"
      ],
      [
        "Ġ19",
        "0"
      ],
      [
        "Ġ19",
        "6"
      ],
      [
        "Ġ14",
        "1"
      ],
      [
        "Ġmean",
        "ing"
      ],
      [
        "Ġ21",
        "1"
      ],
      [
        "ust",
        "r"
      ],
      [
        "Ġ29",
        "4"
      ],
      [
        "Ġac",
        "cel"
      ],
      [
        "Ġ26",
        "7"
      ],
      [
        "Ġmess",
        "ages"
      ],
      [
        "02",
        "4"
      ],
      [
        "!\")",
        "`."
      ],
      [
        "ĠAr",
        "t"
      ],
      [
        "ĠChat",
        "GPT"
      ],
      [
        "Ġcent",
        "er"
      ],
      [
        "Ġaccel",
        "erates"
      ],
      [
        "9",
        "20"
      ],
      [
        "f",
        "ort"
      ],
      [
        "l",
        "n"
      ],
      [
        "r",
        "ass"
      ],
      [
        "x",
        "t"
      ],
      [
        "Ġ",
        "rough"
      ],
      [
        "Ġa",
        "ri"
      ],
      [
        "he",
        "ther"
      ],
      [
        "li",
        "ar"
      ],
      [
        "Ġs",
        "or"
      ],
      [
        "Ġf",
        "ound"
      ],
      [
        "th",
        "met"
      ],
      [
        "Ġw",
        "indow"
      ],
      [
        "Ġ1",
        "80"
      ],
      [
        "Ġb",
        "el"
      ],
      [
        "Ġ2",
        "40"
      ],
      [
        "Ġ2",
        "32"
      ],
      [
        "Ġre",
        "ason"
      ],
      [
        "Ġco",
        "ver"
      ],
      [
        "Ġg",
        "rass"
      ],
      [
        "ce",
        "pt"
      ],
      [
        "Ġan",
        "y"
      ],
      [
        "Ġ3",
        "5"
      ],
      [
        "Ġ3",
        "40"
      ],
      [
        "Ġ3",
        "17"
      ],
      [
        "Ġ3",
        "51"
      ],
      [
        "ĠT",
        "o"
      ],
      [
        "Ġ4",
        "22"
      ],
      [
        "Ġ4",
        "17"
      ],
      [
        "ore",
        "d"
      ],
      [
        "Ġ6",
        "1"
      ],
      [
        "ĠS",
        "mal"
      ],
      [
        "ĠU",
        "nder"
      ],
      [
        "ĠF",
        "air"
      ],
      [
        "Ġ15",
        "4"
      ],
      [
        "Ġ15",
        "9"
      ],
      [
        "Ġ16",
        "8"
      ],
      [
        "Ġ13",
        "7"
      ],
      [
        "Ġ13",
        "8"
      ],
      [
        "Ġ11",
        "5"
      ],
      [
        "Ġcho",
        "ose"
      ],
      [
        "Ġ17",
        "0"
      ],
      [
        "Ġ20",
        "5"
      ],
      [
        "Ġ12",
        "4"
      ],
      [
        "Ġ12",
        "5"
      ],
      [
        "Ġ12",
        "8"
      ],
      [
        "Ġ19",
        "2"
      ],
      [
        "Ġ14",
        "2"
      ],
      [
        "Ġ14",
        "9"
      ],
      [
        "Ġfami",
        "liar"
      ],
      [
        "Ġu",
        "p"
      ],
      [
        "Ġ18",
        "8"
      ],
      [
        "Ġ21",
        "2"
      ],
      [
        "Ġ21",
        "3"
      ],
      [
        "Ġ21",
        "4"
      ],
      [
        "Ġ21",
        "6"
      ],
      [
        "Ġ24",
        "5"
      ],
      [
        "ĠR",
        "igidbody"
      ],
      [
        "Ġcome",
        "s"
      ],
      [
        "Ġ40",
        "7"
      ],
      [
        "ern",
        "oon"
      ],
      [
        "Ġsu",
        "m"
      ],
      [
        "Ġpredi",
        "cts"
      ],
      [
        "Ġcom",
        "fort"
      ],
      [
        "Ġscatter",
        "s"
      ],
      [
        "Ġtw",
        "o"
      ],
      [
        "Ġthing",
        "s"
      ],
      [
        "Ġdepe",
        "nds"
      ],
      [
        "Ġaft",
        "ernoon"
      ],
      [
        "ĠRo",
        "me"
      ],
      [
        "Ġinclu",
        "de"
      ],
      [
        "Ġform",
        "at"
      ],
      [
        "Ġelect",
        "ric"
      ],
      [
        "Ġfin",
        "ished"
      ],
      [
        "Ġhum",
        "an"
      ],
      [
        "Ġari",
        "thmet"
      ],
      [
        "Ġsor",
        "ry"
      ],
      [
        "Ġbel",
        "ong"
      ],
      [
        "Ġreason",
        "ing"
      ],
      [
        "Ġcover",
        "age"
      ],
      [
        "ĠSmal",
        "l"
      ],
      [
        "Ġarithmet",
        "ic"
      ],
      [
        "4",
        "40"
      ],
      [
        "L",
        "M"
      ],
      [
        "d",
        "ical"
      ],
      [
        "e",
        "g"
      ],
      [
        "g",
        "ence"
      ],
      [
        "h",
        "oto"
      ],
      [
        "i",
        "al"
      ],
      [
        "t",
        "tle"
      ],
      [
        "Ġ",
        "'"
      ],
      [
        "st",
        "ood"
      ],
      [
        "Ġs",
        "our"
      ],
      [
        "Ġs",
        "erious"
      ],
      [
        "ĠW",
        "ith"
      ],
      [
        "Ġb",
        "ored"
      ],
      [
        "Ġ2",
        "34"
      ],
      [
        "ĠP",
        "hoto"
      ],
      [
        "Ġme",
        "dical"
      ],
      [
        "Ġmo",
        "ment"
      ],
      [
        "Ġ3",
        "36"
      ],
      [
        "Ġ3",
        "16"
      ],
      [
        "Ġ3",
        "97"
      ],
      [
        "Ġ3",
        "88"
      ],
      [
        "Ġ3",
        "82"
      ],
      [
        "Ġ4",
        "70"
      ],
      [
        "Ġint",
        "elli"
      ],
      [
        "Ġ5",
        "00"
      ],
      [
        "Ġ5",
        "42"
      ],
      [
        "Ġ6",
        "42"
      ],
      [
        "ĠM",
        "i"
      ],
      [
        "ĠM",
        "aya"
      ],
      [
        "Ġ7",
        "2"
      ],
      [
        "Ġ8",
        "5"
      ],
      [
        "ĠJ",
        "u"
      ],
      [
        "ĠJ",
        "ordan"
      ],
      [
        "Ġ16",
        "0"
      ],
      [
        "ĠK",
        "ai"
      ],
      [
        "Ġ13",
        "3"
      ],
      [
        "Ġ13",
        "6"
      ],
      [
        "Ġse",
        "ed"
      ],
      [
        "Ġevery",
        "day"
      ],
      [
        "Ġ11",
        "1"
      ],
      [
        "ĠN",
        "ora"
      ],
      [
        "ĠCo",
        "me"
      ],
      [
        "ĠCo",
        "zy"
      ],
      [
        "Ġ12",
        "7"
      ],
      [
        "Ġchose",
        "n"
      ],
      [
        "ĠR",
        "iley"
      ],
      [
        "ĠL",
        "e"
      ],
      [
        "ĠL",
        "eo"
      ],
      [
        "ĠL",
        "LM"
      ],
      [
        "Ġquestion",
        "s"
      ],
      [
        "Ġ29",
        "7"
      ],
      [
        "Ġwor",
        "d"
      ],
      [
        "Ġ26",
        "3"
      ],
      [
        "Ġ48",
        "7"
      ],
      [
        "Ġ42",
        "7"
      ],
      [
        "Ġact",
        "ually"
      ],
      [
        "ĠSt",
        "ar"
      ],
      [
        "Ġal",
        "so"
      ],
      [
        "Ġfe",
        "el"
      ],
      [
        "Ġ>",
        "="
      ],
      [
        "ĠSp",
        "a"
      ],
      [
        "Ġrandom",
        "ly"
      ],
      [
        "Ġtoo",
        "ls"
      ],
      [
        "ĠUnder",
        "stood"
      ],
      [
        "Ġintelli",
        "gence"
      ],
      [
        "+",
        "+"
      ],
      [
        "/",
        "`"
      ],
      [
        "9",
        "00"
      ],
      [
        "J",
        "ordan"
      ],
      [
        "K",
        "ai"
      ],
      [
        "L",
        "eo"
      ],
      [
        "M",
        "aya"
      ],
      [
        "N",
        "ora"
      ],
      [
        "R",
        "iley"
      ],
      [
        "b",
        "ack"
      ],
      [
        "e",
        "k"
      ],
      [
        "e",
        "member"
      ],
      [
        "g",
        "al"
      ],
      [
        "i",
        "es"
      ],
      [
        "l",
        "ve"
      ],
      [
        "p",
        "o"
      ],
      [
        "t",
        "he"
      ],
      [
        "Ġ",
        "Zoe"
      ],
      [
        "ou",
        "ght"
      ],
      [
        "al",
        "ity"
      ],
      [
        "Ġt",
        "ry"
      ],
      [
        "ĠY",
        "e"
      ],
      [
        "Ġc",
        "lo"
      ],
      [
        "Ġf",
        "ra"
      ],
      [
        "Ġf",
        "eed"
      ],
      [
        "Ġb",
        "ring"
      ],
      [
        "Ġ2",
        "20"
      ],
      [
        "Ġ2",
        "80"
      ],
      [
        "Ġ3",
        "18"
      ],
      [
        "Ġ3",
        "35"
      ],
      [
        "Ġ3",
        "31"
      ],
      [
        "Ġli",
        "ttle"
      ],
      [
        "Ġ4",
        "5"
      ],
      [
        "Ġ4",
        "97"
      ],
      [
        "ic",
        "ial"
      ],
      [
        "Ġ6",
        "27"
      ],
      [
        "ĠS",
        "am"
      ],
      [
        "Ġso",
        "lve"
      ],
      [
        "Ġth",
        "ought"
      ],
      [
        "Ġ15",
        "8"
      ],
      [
        "Ġ10",
        "7"
      ],
      [
        "Ġ9",
        "6"
      ],
      [
        "Ġ`",
        "/"
      ],
      [
        "Ġ16",
        "3"
      ],
      [
        "Ġ16",
        "9"
      ],
      [
        "Ġwe",
        "ek"
      ],
      [
        "Ġ17",
        "2"
      ],
      [
        "Ġ17",
        "6"
      ],
      [
        "ĠB",
        "ye"
      ],
      [
        "Ġ20",
        "2"
      ],
      [
        "Ġ12",
        "2"
      ],
      [
        "Ġ12",
        "6"
      ],
      [
        "Ġ19",
        "8"
      ],
      [
        "Ġ14",
        "3"
      ],
      [
        "Ġ14",
        "6"
      ],
      [
        "Ġ14",
        "8"
      ],
      [
        "Ġmean",
        "s"
      ],
      [
        "Ġle",
        "gal"
      ],
      [
        "Ġ21",
        "0"
      ],
      [
        "Ġ24",
        "2"
      ],
      [
        "Ġ25",
        "6"
      ],
      [
[...]
