{
  "version": "1.0",
  "truncation": null,
  "padding": null,
  "added_tokens": [
    {
      "id": 0,
      "content": "<pad>",
      "single_word": false,
      "lstrip": false,
      "rstrip": false,
      "normalized": false,
      "special": true
    },
    {
      "id": 1,
      "content": "<unk>",
      "single_word": false,
      "lstrip": false,
      "rstrip": false,
      "normalized": false,
      "special": true
    },
    {
      "id": 2,
      "content": "<bos>",
      "single_word": false,
      "lstrip": false,
      "rstrip": false,
      "normalized": false,
      "special": true
    },
    {
      "id": 3,
      "content": "<eos>",
      "single_word": false,
      "lstrip": false,
      "rstrip": false,
      "normalized": false,
      "special": true
    },
    {
      "id": 4,
      "content": "<user>",
      "single_word": false,
      "lstrip": false,
      "rstrip": false,
      "normalized": false,
      "special": true
    },
    {
      "id": 5,
      "content": "<assistant>",
      "single_word": false,
      "lstrip": false,
      "rstrip": false,
      "normalized": false,
      "special": true
    },
    {
      "id": 6,
      "content": "<system>",
      "single_word": false,
      "lstrip": false,
      "rstrip": false,
      "normalized": false,
      "special": true
    }
  ],
  "normalizer": null,
  "pre_tokenizer": {
    "type": "ByteLevel",
    "add_prefix_space": false,
    "trim_offsets": true,
    "use_regex": true
  },
  "post_processor": null,
  "decoder": {
    "type": "ByteLevel",
    "add_prefix_space": true,
    "trim_offsets": true,
    "use_regex": true
  },
  "model": {
    "type": "BPE",
    "dropout": null,
    "unk_token": "<unk>",
    "continuing_subword_prefix": null,
    "end_of_word_suffix": null,
    "fuse_unk": false,
    "byte_fallback": false,
    "ignore_merges": false,
    "vocab": {
      "<pad>": 0,
      "<unk>": 1,
      "<bos>": 2,
      "<eos>": 3,
      "<user>": 4,
      "<assistant>": 5,
      "<system>": 6,
      "!": 7,
      "\"": 8,
      "#": 9,
      "%": 10,
      "'": 11,
      "(": 12,
      ")": 13,
      "*": 14,
      "+": 15,
      ",": 16,
      "-": 17,
      ".": 18,
      "0": 19,
      "1": 20,
      "2": 21,
      "3": 22,
      "4": 23,
      "5": 24,
      "6": 25,
      "7": 26,
      "8": 27,
      "9": 28,
      ":": 29,
      ";": 30,
      "<": 31,
      "=": 32,
      ">": 33,
      "?": 34,
      "A": 35,
      "B": 36,
      "C": 37,
      "D": 38,
      "E": 39,
      "F": 40,
      "G": 41,
      "H": 42,
      "I": 43,
      "J": 44,
      "K": 45,
      "L": 46,
      "M": 47,
      "N": 48,
      "O": 49,
      "P": 50,
      "Q": 51,
      "R": 52,
      "S": 53,
      "T": 54,
      "U": 55,
      "V": 56,
      "W": 57,
      "Y": 58,
      "Z": 59,
      "[": 60,
      "\\": 61,
      "]": 62,
      "_": 63,
      "`": 64,
      "a": 65,
      "b": 66,
      "c": 67,
      "d": 68,
      "e": 69,
      "f": 70,
      "g": 71,
      "h": 72,
      "i": 73,
      "j": 74,
      "k": 75,
      "l": 76,
      "m": 77,
      "n": 78,
      "o": 79,
      "p": 80,
      "q": 81,
      "r": 82,
      "s": 83,
      "t": 84,
      "u": 85,
      "v": 86,
      "w": 87,
      "x": 88,
      "y": 89,
      "z": 90,
      "{": 91,
      "}": 92,
      "·": 93,
      "Ã": 94,
      "â": 95,
      "ð": 96,
      "Ċ": 97,
      "Ġ": 98,
      "Ģ": 99,
      "Ĵ": 100,
      "Ķ": 101,
      "Ĺ": 102,
      "Ł": 103,
      "Ń": 104,
      "Ġa": 105,
      "nt": 106,
      "st": 107,
      ">:": 108,
      "er": 109,
      "si": 110,
      "re": 111,
      "sta": 112,
      "ou": 113,
      "ssi": 114,
      "stant": 115,
      "ssistant": 116,
      "Ġi": 117,
      "Ġe": 118,
      "al": 119,
      "Ġare": 120,
      "li": 121,
      "he": 122,
      "em": 123,
      "us": 124,
      "me": 125,
      "ĠC": 126,
      "hu": 127,
      "Ġt": 128,
      "hud": 129,
      "GP": 130,
      "GPT": 131,
      "ĠChud": 132,
      "ĠChudGPT": 133,
      "user": 134,
      "assistant": 135,
      "per": 136,
      "ul": 137,
      "Ġex": 138,
      "ĠA": 139,
      "ĠY": 140,
      "peri": 141,
      "Ġexperi": 142,
      "ub": 143,
      "lic": 144,
      "ublic": 145,
      "Ġhe": 146,
      "ĠYou": 147,
      "Public": 148,
      "ment": 149,
      "Ġexperiment": 150,
      "Ġexperimental": 151,
      "ful": 152,
      "lp": 153,
      "ĠAI": 154,
      "Ġhelp": 155,
      "yst": 156,
      "Ġassistant": 157,
      "ystem": 158,
      "system": 159,
      "Ġhelpful": 160,
      "Ġ1": 161,
      "on": 162,
      "at": 163,
      "Ġs": 164,
      "Ġc": 165,
      "Ġg": 166,
      "ĠI": 167,
      "Ġm": 168,
      "an": 169,
      "rou": 170,
      "Ġis": 171,
      "Ġgrou": 172,
      "Ġgroup": 173,
      "Ġit": 174,
      "Ġ=": 175,
      "Ġin": 176,
      "Ġo": 177,
      "in": 178,
      "Ġ2": 179,
      "le": 180,
      "hat": 181,
      "ho": 182,
      "Ġw": 183,
      "de": 184,
      "ĠÃ": 185,
      "ri": 186,
      "ĠW": 187,
      "ly": 188,
      "Ġint": 189,
      "ĠÃ·": 190,
      "Ġp": 191,
      "Ġthe": 192,
      "``": 193,
      "ac": 194,
      "th": 195,
      "qu": 196,
      "Ġb": 197,
      "Ġn": 198,
      "ally": 199,
      "Ġsp": 200,
      "ems": 201,
      "Ġitems": 202,
      "nd": 203,
      "Ġf": 204,
      "or": 205,
      "Ġinto": 206,
      "Ġho": 207,
      "lit": 208,
      "Ġ-": 209,
      "Ġhow": 210,
      "ach": 211,
      "ĠIf": 212,
      "Ġman": 213,
      "Ġmany": 214,
      "Ġeach": 215,
      "Ġequ": 216,
      "Ġgroups": 217,
      "Ġsplit": 218,
      "Ġequally": 219,
      "es": 220,
      "Ġd": 221,
      "Ġre": 222,
      "as": 223,
      "ion": 224,
      "ber": 225,
      "ar": 226,
      "mber": 227,
      "Ġ3": 228,
      "Ġof": 229,
      "umber": 230,
      "Ġto": 231,
      "ed": 232,
      "Ġand": 233,
      "Ġco": 234,
      "ĠWhat": 235,
      "en": 236,
      "la": 237,
      "ver": 238,
      "Ġ4": 239,
      "ing": 240,
      "el": 241,
      "Ġy": 242,
      "ro": 243,
      "```": 244,
      "ec": 245,
      "ĠT": 246,
      "Ġthat": 247,
      "ic": 248,
      "Ġyou": 249,
      "Ġnumber": 250,
      "hi": 251,
      "ce": 252,
      "Ġ6": 253,
      "ĠP": 254,
      "av": 255,
      "Ġ5": 256,
      "iv": 257,
      "se": 258,
      "yth": 259,
      "ython": 260,
      "Ġli": 261,
      "Ġ7": 262,
      "lo": 263,
      "tion": 264,
      "Ġmo": 265,
      "Ġ8": 266,
      "Ġme": 267,
      "00": 268,
      "Ġon": 269,
      "Ġ9": 270,
      "te": 271,
      "ot": 272,
      "ĠE": 273,
      "very": 274,
      "Ġ15": 275,
      "Ġcan": 276,
      "gh": 277,
      "hy": 278,
      "Ġwi": 279,
      "Ġma": 280,
      "rite": 281,
      "ĠM": 282,
      "Ġam": 283,
      "ra": 284,
      "Ġ10": 285,
      "Ġor": 286,
      "mp": 287,
      "Ġth": 288,
      "un": 289,
      "Ġop": 290,
      "ate": 291,
      "Ġ11": 292,
      "Ġ16": 293,
      "ĠS": 294,
      "Ġ14": 295,
      "Ġ```": 296,
      "Ġdi": 297,
      "Ġ17": 298,
      "ĠPython": 299,
      "out": 300,
      "ĠWrite": 301,
      "ĠThe": 302,
      "Ġan": 303,
      "use": 304,
      "ke": 305,
      "Ġ13": 306,
      "ive": 307,
      "80": 308,
      "Ġ12": 309,
      "Ġdo": 310,
      "Ġh": 311,
      "ang": 312,
      "Ġde": 313,
      "ĠIn": 314,
      "Ġpu": 315,
      "ĠG": 316,
      "ell": 317,
      "40": 318,
      "del": 319,
      "Ġbec": 320,
      "Ġab": 321,
      "20": 322,
      "ai": 323,
      "zz": 324,
      "zzle": 325,
      "Ġbe": 326,
      "60": 327,
      "con": 328,
      "Ġcon": 329,
      "Ġfor": 330,
      "Ġpuzzle": 331,
      "number": 332,
      "ause": 333,
      "Ġmodel": 334,
      "Ġ18": 335,
      "ap": 336,
      "ep": 337,
      "ere": 338,
      "it": 339,
      "ld": 340,
      "Ġr": 341,
      "Ġwith": 342,
      "ght": 343,
      "ĠTell": 344,
      "Ġ20": 345,
      "sc": 346,
      "ur": 347,
      "Ġone": 348,
      "Ġbecause": 349,
      "ng": 350,
      "rint": 351,
      "lor": 352,
      "uc": 353,
      "Ġne": 354,
      "ue": 355,
      "Ġabout": 356,
      "Ġevery": 357,
      "ĠF": 358,
      "Ġ19": 359,
      "dex": 360,
      "Ġdoes": 361,
      "Ġv": 362,
      "ence": 363,
      "ag": 364,
      "Ġsi": 365,
      "ation": 366,
      "his": 367,
      "ore": 368,
      "Ġthis": 369,
      "Ġ21": 370,
      "Ġcolor": 371,
      "ll": 372,
      "ret": 373,
      ");": 374,
      "Ġflo": 375,
      "Ġla": 376,
      "Ġfloat": 377,
      "kes": 378,
      "ft": 379,
      "Ġst": 380,
      "ĠJ": 381,
      "oi": 382,
      "ould": 383,
      "ide": 384,
      "Ġsec": 385,
      "Ġsecret": 386,
      "ow": 387,
      "python": 388,
      "Ġ23": 389,
      "Ġwhat": 390,
      "so": 391,
      "rie": 392,
      "duc": 393,
      "Ġ+": 394,
      "50": 395,
      "bel": 396,
      "Ġlabel": 397,
      "Ġpro": 398,
      "Ġso": 399,
      "Ġoption": 400,
      "Ġby": 401,
      "Ġ24": 402,
      "rt": 403,
      "ĠH": 404,
      "oint": 405,
      "ent": 406,
      "pt": 407,
      "Ġwould": 408,
      "cri": 409,
      "Ġlikes": 410,
      "Ġcla": 411,
      "cript": 412,
      "cul": 413,
      "ath": 414,
      "const": 415,
      "Ġindex": 416,
      "Ġwhy": 417,
      "lain": 418,
      "fse": 419,
      "Ġoffse": 420,
      "hift": 421,
      "Ġoffset": 422,
      "hifted": 423,
      "Ġmin": 424,
      "Ġclamp": 425,
      "ĠU": 426,
      "Ġ22": 427,
      "Ġits": 428,
      "Ġsho": 429,
      "ts": 430,
      "uss": 431,
      "Ġle": 432,
      "vers": 433,
      "Ġconvers": 434,
      "Ġconversation": 435,
      "ĠWhy": 436,
      "âĢ": 437,
      "âĢĶ": 438,
      "Ġhas": 439,
      "et": 440,
      "Ġdisc": 441,
      "32": 442,
      "ail": 443,
      "alue": 444,
      "ĠCal": 445,
      "Ġdou": 446,
      "Ġdiscuss": 447,
      "we": 448,
      "Ġthan": 449,
      "ĠGot": 450,
      "ather": 451,
      "10": 452,
      "56": 453,
      "30": 454,
      "Ġus": 455,
      "ant": 456,
      "42": 457,
      "Ġcode": 458,
      "ener": 459,
      "Ġgener": 460,
      "Ġres": 461,
      "Ġshort": 462,
      "'s": 463,
      "are": 464,
      "ure": 465,
      "Ġ*": 466,
      "36": 467,
      "Ġper": 468,
      "Ġar": 469,
      "arth": 470,
      "ble": 471,
      "alk": 472,
      "Ġtalk": 473,
      "inion": 474,
      "Ġopinion": 475,
      "76": 476,
      "ous": 477,
      "Ġwat": 478,
      "culate": 479,
      "ĠCalculate": 480,
      "ĠEarth": 481,
      "ome": 482,
      "Ġat": 483,
      "Ġwater": 484,
      "ĠÃĹ": 485,
      "72": 486,
      "90": 487,
      "cent": 488,
      "Ġnew": 489,
      "Ġdiv": 490,
      "ided": 491,
      "Ġdivided": 492,
      "ĠFor": 493,
      "ĠMy": 494,
      "18": 495,
      "Ġgive": 496,
      "70": 497,
      "92": 498,
      "ason": 499,
      "ity": 500,
      "Ġcas": 501,
      "Ġcasu": 502,
      "age": 503,
      "54": 504,
      "ol": 505,
      "12": 506,
      "all": 507,
      "xt": 508,
      "ĠEvery": 509,
      "52": 510,
      "Ġ30": 511,
      "96": 512,
      "Ġl": 513,
      "58": 514,
      "Ġtr": 515,
      "Ġwant": 516,
      "ame": 517,
      "Ġtop": 518,
      "Ġtopic": 519,
      "16": 520,
      "rain": 521,
      "Ġprint": 522,
      "ok": 523,
      "ter": 524,
      "point": 525,
      "ext": 526,
      "ds": 527,
      "ms": 528,
      "Ġsta": 529,
      "log": 530,
      "Ġwill": 531,
      "print": 532,
      "ave": 533,
      "Ġad": 534,
      "Ġpar": 535,
      "Ġlist": 536,
      "urn": 537,
      "38": 538,
      "Ġmain": 539,
      "ect": 540,
      "ĠK": 541,
      "Ġcome": 542,
      "ores": 543,
      "Ġstores": 544,
      "Ġdouble": 545,
      "Ġpercent": 546,
      "Ġprints": 547,
      "riend": 548,
      "Ġintere": 549,
      "Ġreason": 550,
      "duction": 551,
      "Ġinterest": 552,
      "44": 553,
      "Ġcont": 554,
      "Ġrather": 555,
      "Ġfriend": 556,
      "Ġnot": 557,
      "ir": 558,
      "Ġdet": 559,
      "ans": 560,
      "88": 561,
      "51": 562,
      "Ġas": 563,
      "cle": 564,
      "od": 565,
      "mple": 566,
      "plain": 567,
      "Ġthem": 568,
      "Ġret": 569,
      "Ġide": 570,
      "ĠKe": 571,
      "Ġreturn": 572,
      "ust": 573,
      "Ġexperience": 574,
      "am": 575,
      "Ġmake": 576,
      "sole": 577,
      "46": 578,
      "75": 579,
      "tal": 580,
      "Ġ40": 581,
      "Ġsc": 582,
      "ard": 583,
      "unc": 584,
      "ct": 585,
      "Ġke": 586,
      "Ġwe": 587,
      "ĠWe": 588,
      "Ġ0": 589,
      "Ġreal": 590,
      "ĠKeep": 591,
      "98": 592,
      "Ġ25": 593,
      "ĠEx": 594,
      "35": 595,
      "ick": 596,
      "Ġintro": 597,
      "Ġgeneric": 598,
      "Ġdetail": 599,
      "Ġintroduction": 600,
      "78": 601,
      "Ġkeep": 602,
      "Ġch": 603,
      "15": 604,
      "95": 605,
      "oon": 606,
      "ĠN": 607,
      "94": 608,
      "uage": 609,
      "Ġhi": 610,
      "anguage": 611,
      "gn": 612,
      "Ġcho": 613,
      "ĠHow": 614,
      "Ġlanguage": 615,
      "ĠGive": 616,
      "26": 617,
      "Ġsent": 618,
      "Ġpart": 619,
      "Ġsentence": 620,
      "Ġnumbers": 621,
      "im": 622,
      "Ġ28": 623,
      "ĠExplain": 624,
      "ory": 625,
      "34": 626,
      "Ġhist": 627,
      "ĠD": 628,
      "Ġhu": 629,
      "ava": 630,
      "Ġmax": 631,
      "Ġstar": 632,
      "sing": 633,
      "Ġ50": 634,
      "Ġvi": 635,
      "Ġsqu": 636,
      "Ġ=>": 637,
      "Ġsquare": 638,
      "Script": 639,
      "pon": 640,
      "Ġsimple": 641,
      "ĠJava": 642,
      "Ġrespon": 643,
      "Ġcle": 644,
      "def": 645,
      "Ġpla": 646,
      "Ġ->": 647,
      "Ġcasual": 648,
      "Ġrespond": 649,
      "Ġclear": 650,
      "74": 651,
      "jav": 652,
      "ov": 653,
      "ascript": 654,
      "ray": 655,
      "Ġbet": 656,
      "console": 657,
      "Ġarray": 658,
      "ĠJavaScript": 659,
      "javascript": 660,
      "22": 661,
      "eed": 662,
      "Ġadds": 663,
      "Ġro": 664,
      "ay": 665,
      "map": 666,
      "shifted": 667,
      "Ġtri": 668,
      "Ġshifted": 669,
      "unction": 670,
      "ween": 671,
      "Ġbetween": 672,
      "))": 673,
      "value": 674,
      "Ġ26": 675,
      "Ġfunction": 676,
      "Ġclamps": 677,
      "ile": 678,
      "ĠL": 679,
      "Ġhave": 680,
      "ss": 681,
      "11": 682,
      "Ġbrie": 683,
      "ĠUse": 684,
      "Ġbrief": 685,
      "Ġlo": 686,
      "Ġ36": 687,
      "39": 688,
      "Ġwas": 689,
      "Ġtotal": 690,
      "rom": 691,
      "xag": 692,
      "Ġhexag": 693,
      "Ġcu": 694,
      "Ġhexagon": 695,
      "rious": 696,
      "Ġcurious": 697,
      "pp": 698,
      "ward": 699,
      "Ġter": 700,
      "di": 701,
      "nds": 702,
      "for": 703,
      "Ġreduc": 704,
      "Ġuses": 705,
      "thing": 706,
      "Ġhistory": 707,
      "48": 708,
      "ose": 709,
      "Ġcir": 710,
      "ased": 711,
      "Ġcircle": 712,
      "Ġfam": 713,
      "Ġ67": 714,
      "ange": 715,
      "Ġfami": 716,
      "co": 717,
      "ĠCo": 718,
      "Ġsai": 719,
      "Ġsaid": 720,
      "angle": 721,
      "Ġtriangle": 722,
      "Ġyour": 723,
      "Ġterms": 724,
      "mall": 725,
      "Ġcontext": 726,
      "71": 727,
      "lus": 728,
      "Ġche": 729,
      "ĠPlus": 730,
      "Ġlight": 731,
      "ĠDo": 732,
      "Ġplay": 733,
      "Ġsmall": 734,
      "Ġ60": 735,
      "Ġk": 736,
      "Ġcar": 737,
      "ĠB": 738,
      "Ġmind": 739,
      "ck": 740,
      "our": 741,
      "Ġoce": 742,
      "Ġfamily": 743,
      "91": 744,
      "nty": 745,
      "ink": 746,
      "Ġvalue": 747,
      "82": 748,
      "97": 749,
      "file": 750,
      "Ġprofile": 751,
      "55": 752,
      "86": 753,
      "las": 754,
      "avy": 755,
      "Ġmost": 756,
      "Ġpoint": 757,
      "ĠSure": 758,
      "Ġside": 759,
      "ĠYour": 760,
      "atter": 761,
      "Ġif": 762,
      "rib": 763,
      "Ġinterests": 764,
      "now": 765,
      "ĠR": 766,
      "Ġplain": 767,
      "Ġcheck": 768,
      "17": 769,
      "37": 770,
      "Ġz": 771,
      "Ġplayful": 772,
      "Ġknow": 773,
      "Ġsun": 774,
      "Ġhuh": 775,
      "99": 776,
      "ero": 777,
      "ff": 778,
      "ount": 779,
      "ong": 780,
      "Ġzero": 781,
      "lver": 782,
      "ving": 783,
      "xed": 784,
      "ĠCho": 785,
      "act": 786,
      "Ġsilver": 787,
      "Ġchose": 788,
      "Ġplainer": 789,
      "ĠChoose": 790,
      "Ġgre": 791,
      "ĠWho": 792,
      "arn": 793,
      "Ġlearn": 794,
      "31": 795,
      "47": 796,
      "Ġout": 797,
      "Ġtrans": 798,
      "rought": 799,
      "Ġbrought": 800,
      "Ġref": 801,
      "ives": 802,
      "Ġideas": 803,
      "ine": 804,
      "Ġreduced": 805,
      "ut": 806,
      "ult": 807,
      "Ġmem": 808,
      "ve": 809,
      "Ġcor": 810,
      "Ġspeed": 811,
      "Ġfrom": 812,
      "66": 813,
      "lue": 814,
      "ĠPro": 815,
      "ngth": 816,
      "ole": 817,
      "Ġse": 818,
      "Ġrela": 819,
      "Ġlime": 820,
      "Ġviole": 821,
      "Ġcoral": 822,
      "Ġviolet": 823,
      "il": 824,
      "Ġmar": 825,
      "ind": 826,
      "ins": 827,
      "Ġresult": 828,
      "Ġblue": 829,
      "Ġfail": 830,
      "24": 831,
      "based": 832,
      "iso": 833,
      "Ġamber": 834,
      "Ġends": 835,
      "ĠIndex": 836,
      "Ġrange": 837,
      "Ġindexes": 838,
      "Ġcheckpoint": 839,
      "Ġfails": 840,
      "ious": 841,
      "erent": 842,
      "fferent": 843,
      "Ġgives": 844,
      "Ġ75": 845,
      "Ġdifferent": 846,
      "Ġrelaxed": 847,
      "iper": 848,
      "lenty": 849,
      "Ġplenty": 850,
      "Ġmore": 851,
      "ĠMiso": 852,
      "uniper": 853,
      "Ġopinions": 854,
      "form": 855,
      "Ġmaroon": 856,
      "Ġmean": 857,
      "Ġneed": 858,
      "iz": 859,
      "ĠCome": 860,
      "Ġser": 861,
      "ix": 862,
      "ject": 863,
      "ug": 864,
      "yan": 865,
      "Ġcyan": 866,
      "Ġpre": 867,
      "ĠJuniper": 868,
      "ime": 869,
      "23": 870,
      "13": 871,
      "chi": 872,
      "avel": 873,
      "ĠComet": 874,
      "79": 875,
      "19": 876,
      "ch": 877,
      "gy": 878,
      "nce": 879,
      "Ġsou": 880,
      "Ġox": 881,
      "ĠSol": 882,
      "14": 883,
      "Ġnavy": 884,
      "ĠFind": 885,
      "ixel": 886,
      "est": 887,
      "ved": 888,
      "Ġ46": 889,
      "raining": 890,
      "Ġtravel": 891,
      "gra": 892,
      "ry": 893,
      "ative": 894,
      "Ġdro": 895,
      "ĠPixel": 896,
      "27": 897,
      "Ġfo": 898,
      "Ġarchi": 899,
      "cho": 900,
      "orts": 901,
      "ase": 902,
      "Ġthing": 903,
      "ĠMap": 904,
      "Ġthink": 905,
      "Ġtopics": 906,
      "Ġscore": 907,
      "ĠMaple": 908,
      "ĠPublic": 909,
      "Ġmi": 910,
      "imal": 911,
      "ĠSolve": 912,
      "ken": 913,
      "Ġj": 914,
      "light": 915,
      "Ġbeen": 916,
      "Ġsunlight": 917,
      "Ġthinking": 918,
      "25": 919,
      "hic": 920,
      "tlas": 921,
      "reative": 922,
      "ĠAtlas": 923,
      "Ġcreative": 924,
      "otic": 925,
      "Ġserving": 926,
      "hich": 927,
      "aotic": 928,
      "dic": 929,
      "is": 930,
      "wit": 931,
      "Ġqu": 932,
      "rough": 933,
      "ĠJust": 934,
      "witch": 935,
      "vi": 936,
      "stance": 937,
      "Ġsur": 938,
      "Ġmy": 939,
      "Ġ38": 940,
      "Ġ48": 941,
      "Ġanimal": 942,
      "Ġstr": 943,
      "Ġen": 944,
      "ĠSwitch": 945,
      "Ġtransform": 946,
      "Ġpick": 947,
      "Ġ34": 948,
      "68": 949,
      "77": 950,
      "ad": 951,
      "wer": 952,
      "Ġri": 953,
      "Ġlike": 954,
      "Ġinteresting": 955,
      "bot": 956,
      "orite": 957,
      "pri": 958,
      "Ġcap": 959,
      "Ġfav": 960,
      "Ġrem": 961,
      "low": 962,
      "ĠEcho": 963,
      "Ġcasually": 964,
      "ĠLet": 965,
      "Ġfavorite": 966,
      "ĠSome": 967,
      "Ġsurpri": 968,
      "ĠSomething": 969,
      "Ġsurprising": 970,
      "..": 971,
      "93": 972,
      "using": 973,
      "sic": 974,
      "Ġpredic": 975,
      "here": 976,
      "alth": 977,
      "Ġrep": 978,
      "Ġ44": 979,
      "Ġ70": 980,
      "ĠCode": 981,
      "sp": 982,
      "Ġpublic": 983,
      "Ġbo": 984,
      "Ġact": 985,
      "ĠWhich": 986,
      "Ġforms": 987,
      "ĠThat": 988,
      "Ġ66": 989,
      "Ġ86": 990,
      "ĠNov": 991,
      "ĠNova": 992,
      "ple": 993,
      "Ġred": 994,
      "Ġreco": 995,
      "Ġthrough": 996,
      "Ġgreen": 997,
      "59": 998,
      "um": 999,
      "Ġsa": 1000,
      "73": 1001,
      "swer": 1002,
      "Ġ80": 1003,
      "Ġsome": 1004,
      "Ġmeme": 1005,
      "Ġac": 1006,
      "Ġtraining": 1007,
      "ther": 1008,
      "Ġexp": 1009,
      "Ġbut": 1010,
      "ases": 1011,
      "oking": 1012,
      "Ġchaotic": 1013,
      "Ġremov": 1014,
      "28": 1015,
      "33": 1016,
      "Ġun": 1017,
      "ern": 1018,
      "leep": 1019,
      "ass": 1020,
      "Ġdough": 1021,
      "mm": 1022,
      "Ġproject": 1023,
      "Ġocean": 1024,
      "phy": 1025,
      "Ġrain": 1026,
      "Ġ100": 1027,
      "avi": 1028,
      "29": 1029,
      "ci": 1030,
      "mo": 1031,
      "ack": 1032,
      "Ġfall": 1033,
      "Ġ84": 1034,
      "Ġ88": 1035,
      "ear": 1036,
      "havi": 1037,
      "lan": 1038,
      "Ġra": 1039,
      "ough": 1040,
      "Ġtoward": 1041,
      "ides": 1042,
      "Ġweather": 1043,
      "Ġsound": 1044,
      "and": 1045,
      "Ġph": 1046,
      "br": 1047,
      "Ġ90": 1048,
      "Ġ98": 1049,
      "Ġbend": 1050,
      "Ġrobot": 1051,
      "64": 1052,
      "gen": 1053,
      "your": 1054,
      "ygen": 1055,
      "Ġ68": 1056,
      "Ġ78": 1057,
      "Ġoxygen": 1058,
      "Ġbro": 1059,
      "Ġdesc": 1060,
      "Ġdescrib": 1061,
      "ron": 1062,
      "Ġcal": 1063,
      "Ġgo": 1064,
      "Ġwor": 1065,
      "ĠMoon": 1066,
      "ĠBug": 1067,
      "Ġdescribe": 1068,
      "ĠBuggy": 1069,
      "date": 1070,
      "Ġiron": 1071,
      "hen": 1072,
      "Ġname": 1073,
      "Ġreac": 1074,
      "ast": 1075,
      "eo": 1076,
      "vent": 1077,
      "only": 1078,
      "Ġsleep": 1079,
      "Ġ32": 1080,
      "ize": 1081,
      "nity": 1082,
      "Ġnat": 1083,
      "Ġ116": 1084,
      "ĠUnity": 1085,
      "uce": 1086,
      "Ġgame": 1087,
      "Ġover": 1088,
      "Ġwave": 1089,
      "den": 1090,
      "arden": 1091,
      "Ġ64": 1092,
      "ĠMon": 1093,
      "Ġdid": 1094,
      "Ġbecome": 1095,
      "coins": 1096,
      "iel": 1097,
      "Ġuse": 1098,
      "lect": 1099,
      "Ġ92": 1100,
      "Ġmagn": 1101,
      "Ġchang": 1102,
      "Ġsee": 1103,
      "Ġsomething": 1104,
      "Ġexpan": 1105,
      "cise": 1106,
      "ield": 1107,
      "ori": 1108,
      "rav": 1109,
      "Ġgrav": 1110,
      "length": 1111,
      "riv": 1112,
      "Ġintent": 1113,
      "Ġ56": 1114,
      "pped": 1115,
      "Ġreflect": 1116,
      "Ġdrople": 1117,
      "Ġsaw": 1118,
      "Ġwavelength": 1119,
      "Ġmagnet": 1120,
      "Ġgravity": 1121,
      "Ġintention": 1122,
      "Ġdroplets": 1123,
      "Ġwavelengths": 1124,
      "pe": 1125,
      "sen": 1126,
      "Ġ180": 1127,
      "Ġ27": 1128,
      "lecul": 1129,
      "hool": 1130,
      "ical": 1131,
      "Ġmolecul": 1132,
      "Ġdec": 1133,
      "Ġschool": 1134,
      "Ġcarry": 1135,
      "Ġoceans": 1136,
      "ribu": 1137,
      "Ġmolecules": 1138,
      "57": 1139,
      "able": 1140,
      "lt": 1141,
      "tot": 1142,
      "ling": 1143,
      "Ġoil": 1144,
      "Ġtoken": 1145,
      "Ġsoap": 1146,
      "ĠUlt": 1147,
      "imate": 1148,
      "distance": 1149,
      "Ġlearned": 1150,
      "Ġintentionally": 1151,
      "total": 1152,
      "Ġoils": 1153,
      "Ġtokens": 1154,
      "ĠUltimate": 1155,
      "84": 1156,
      "if": 1157,
      "mat": 1158,
      "Ġexact": 1159,
      "led": 1160,
      "Ġplan": 1161,
      "Ġ33": 1162,
      "Ġcomp": 1163,
      "Ġ150": 1164,
      "ĠHe": 1165,
      "ameter": 1166,
      "Ġmista": 1167,
      "Be": 1168,
      "count": 1169,
      "oBe": 1170,
      "vel": 1171,
      "Ġabs": 1172,
      "ital": 1173,
      "score": 1174,
      "Ġtransformer": 1175,
      "Ġcapital": 1176,
      "haviour": 1177,
      "ĠMonoBe": 1178,
      "ĠMonoBehaviour": 1179,
      "ill": 1180,
      "sh": 1181,
      "usic": 1182,
      "Ġtext": 1183,
      "Ġpriv": 1184,
      "Ġ58": 1185,
      "Ġ89": 1186,
      "000": 1187,
      "Ġ174": 1188,
      "Ġ130": 1189,
      "Ġarchived": 1190,
      "Ġmistakes": 1191,
      "Ġprivate": 1192,
      "health": 1193,
      "Ġ31": 1194,
      "Ġ63": 1195,
      "Ġanswer": 1196,
      "Ġstill": 1197,
      "oder": 1198,
      "Ġpoints": 1199,
      "Ġunre": 1200,
      "Ġdecoder": 1201,
      "53": 1202,
      "ually": 1203,
      "Ġchat": 1204,
      "row": 1205,
      "Ġmovi": 1206,
      "Ġcalled": 1207,
      "Ġgames": 1208,
      "Ġmovies": 1209,
      "43": 1210,
      "63": 1211,
      "ting": 1212,
      "ware": 1213,
      "rent": 1214,
      "Ġcur": 1215,
      "ice": 1216,
      "Ġ170": 1217,
      "ftware": 1218,
      "Ġprogra": 1219,
      "Ġsoftware": 1220,
      "usts": 1221,
      "ĠNo": 1222,
      "Ġcheckpoints": 1223,
      "Ġcurrent": 1224,
      "Ġnor": 1225,
      "Ġlength": 1226,
      "Ġgenerate": 1227,
      "Ġidea": 1228,
      "Ġlearning": 1229,
      "matic": 1230,
      "duce": 1231,
      "fer": 1232,
      "ĠO": 1233,
      "erious": 1234,
      "Ġsk": 1235,
      "inn": 1236,
      "Ġ71": 1237,
      "Ġ91": 1238,
      "ĠHey": 1239,
      "62": 1240,
      "Qu": 1241,
      "csh": 1242,
      "dy": 1243,
      "ge": 1244,
      "Ġhear": 1245,
      "Ġmusic": 1246,
      "Ġno": 1247,
      "arp": 1248,
      "Ġ160": 1249,
      "Ġ243": 1250,
      "oks": 1251,
      "csharp": 1252,
      "ial": 1253,
      "lies": 1254,
      "onsen": 1255,
      "Ġnonsen": 1256,
      "Ġ37": 1257,
      "Ġreplies": 1258,
      "speed": 1259,
      "ls": 1260,
      "son": 1261,
      "ssing": 1262,
      "Ġmatter": 1263,
      "ded": 1264,
      "ace": 1265,
      "Ġ42": 1266,
      "hip": 1267,
      "Ġ94": 1268,
      "Ġproduce": 1269,
      "Ġperson": 1270,
      "Ġfood": 1271,
      "Ġnonsense": 1272,
      "67": 1273,
      "other": 1274,
      "Ġ{": 1275,
      "ĠAn": 1276,
      "les": 1277,
      "Ġday": 1278,
      "Ġ79": 1279,
      "Ġmess": 1280,
      "Ġ151": 1281,
      "Ġ153": 1282,
      "Ġ140": 1283,
      "Ġdeli": 1284,
      "bo": 1285,
      "ne": 1286,
      "not": 1287,
      "ses": 1288,
      "Ġrecent": 1289,
      "Ġ47": 1290,
      "Ġ51": 1291,
      "Ġcannot": 1292,
      "Ġ149": 1293,
      "Ġ248": 1294,
      "Ġcomedy": 1295,
      "Ġanimals": 1296,
      "Ġrecogn": 1297,
      "Ġver": 1298,
      "Ġpatter": 1299,
      "Ġsports": 1300,
      "Ġcooking": 1301,
      "Ġ43": 1302,
      "Ġ108": 1303,
      "Ġ147": 1304,
      "Ġ148": 1305,
      "Ġbeing": 1306,
      "Ġ188": 1307,
      "Ġ237": 1308,
      "Ġpattern": 1309,
      "tect": 1310,
      "Ġu": 1311,
      "roll": 1312,
      "Ġ168": 1313,
      "Ġ213": 1314,
      "Ġenough": 1315,
      "Ġmessage": 1316,
      "tecture": 1317,
      "upp": 1318,
      "Ġapp": 1319,
      "read": 1320,
      "Ġsupp": 1321,
      "Ġ72": 1322,
      "tions": 1323,
      "Ġonly": 1324,
      "Ġ217": 1325,
      "ĠHel": 1326,
      "Ġconversational": 1327,
      "Ġstrong": 1328,
      "Ġbooks": 1329,
      "Ġrobots": 1330,
      "ific": 1331,
      "ain": 1332,
      "mb": 1333,
      "to": 1334,
      "ty": 1335,
      "Ġtw": 1336,
      "Ġgarden": 1337,
      "Ġ45": 1338,
      "Ġ74": 1339,
      "Ġ120": 1340,
      "Ġ186": 1341,
      "Ġparameter": 1342,
      "Ġcars": 1343,
      "Ġsupports": 1344,
      "()": 1345,
      "ten": 1346,
      "uum": 1347,
      "Ġal": 1348,
      "hoto": 1349,
      "acuum": 1350,
      "Ġbrain": 1351,
      "Ġ39": 1352,
      "Ġoften": 1353,
      "Ġ54": 1354,
      "Ġ172": 1355,
      "Ġ126": 1356,
      "Ġconsc": 1357,
      "Ġrusts": 1358,
      "Ġ201": 1359,
      "Ġvacuum": 1360,
      "Ġ238": 1361,
      "Ġpartic": 1362,
      "Ġrole": 1363,
      "Ġlook": 1364,
      "graphy": 1365,
      "Ġrises": 1366,
      "Ġacc": 1367,
      "hotography": 1368,
      "Ġconscious": 1369,
      "ks": 1370,
      "ĠQu": 1371,
      "Ġart": 1372,
      "ĠYes": 1373,
      "Ġslow": 1374,
      "ĠIs": 1375,
      "qui": 1376,
      "Ġ82": 1377,
      "Ġ101": 1378,
      "unn": 1379,
      "Ġ171": 1380,
      "Ġhere": 1381,
      "Ġ192": 1382,
      "ations": 1383,
      "asons": 1384,
      "Ġroll": 1385,
      "Ġseasons": 1386,
      "Ġfox": 1387,
      "ernet": 1388,
      "Ġphases": 1389,
      "bj": 1390,
      "bow": 1391,
      "ew": 1392,
      "oling": 1393,
      "ermo": 1394,
      "ercise": 1395,
      "ates": 1396,
      "ary": 1397,
      "Ġcooling": 1398,
      "ects": 1399,
      "Ġ61": 1400,
      "aves": 1401,
      "Ġ76": 1402,
      "Ġthermo": 1403,
      "Ġ176": 1404,
      "Ġ178": 1405,
      "Ġdepe": 1406,
      "Ġ183": 1407,
      "Ġrate": 1408,
      "Ġnear": 1409,
      "Ġ215": 1410,
      "Ġfloats": 1411,
      "Ġless": 1412,
      "Ġtalking": 1413,
      "ises": 1414,
      "Ġrainbow": 1415,
      "Ġraises": 1416,
      "Ġheart": 1417,
      "Ġslows": 1418,
      "bjects": 1419,
      "Ġthermos": 1420,
      "nts": 1421,
      "Ġ29": 1422,
      "Ġwhere": 1423,
      "nder": 1424,
      "Ġ41": 1425,
      "Ġ52": 1426,
      "Ġ57": 1427,
      "ivity": 1428,
      "Ġ81": 1429,
      "Ġ87": 1430,
      "Ġ162": 1431,
      "ized": 1432,
      "estion": 1433,
      "Ġquestion": 1434,
      "Ġener": 1435,
      "...": 1436,
      "Ġactivity": 1437,
      "ears": 1438,
      "Ġcompass": 1439,
      "Ġnorth": 1440,
      "Ġappears": 1441,
      "Ġstrongly": 1442,
      "Ġtides": 1443,
      "Ġwho": 1444,
      "Ġphotography": 1445,
      "Ġspace": 1446,
      "Ġ158": 1447,
      "Ġ118": 1448,
      "Ġ144": 1449,
      "Ġ206": 1450,
      "inkle": 1451,
      "Ġgrease": 1452,
      "Ġarchitecture": 1453,
      "Ġpicked": 1454,
      "Ġremoves": 1455,
      "Ġsky": 1456,
      "Ġtwinkle": 1457,
      "lu": 1458,
      "ship": 1459,
      "line": 1460,
      "one": 1461,
      "Ġ240": 1462,
      "Ġ250": 1463,
      "Ġ62": 1464,
      "Ġ53": 1465,
      "Ġ97": 1466,
      "Ġ121": 1467,
      "Ġ187": 1468,
      "Ġ202": 1469,
      "Ġright": 1470,
      "cal": 1471,
      "ntion": 1472,
      "alty": 1473,
      "Ġtra": 1474,
      "Ġsalty": 1475,
      "level": 1476,
      "ĠPick": 1477,
      "Ġ55": 1478,
      "Ġlibr": 1479,
      "Ġonline": 1480,
      "tention": 1481,
      "ramatic": 1482,
      "Ġ106": 1483,
      "Ġ110": 1484,
      "ĠSun": 1485,
      "ĠGame": 1486,
      "ĠFrom": 1487,
      "Ġ230": 1488,
      "Ġ224": 1489,
      "Ġconversations": 1490,
      "Ġattention": 1491,
      "mming": 1492,
      "Ġuseful": 1493,
      "Ġprogramming": 1494,
      "Ġgardening": 1495,
      "Ġlibrary": 1496,
      "lse": 1497,
      "Ġ[": 1498,
      "Ġelse": 1499,
      "like": 1500,
      "Ġ69": 1501,
      "Ġ77": 1502,
      "Ġ96": 1503,
      "Ġmay": 1504,
      "Ġ103": 1505,
      "Ġ117": 1506,
      "Ġ146": 1507,
      "Ġ138": 1508,
      "Ġ122": 1509,
      "uch": 1510,
      "Ġ218": 1511,
      "Ġ235": 1512,
      "Ġchoice": 1513,
      "Ġpredicting": 1514,
      "ialize": 1515,
      "320": 1516,
      "Ġusing": 1517,
      "Ġmuch": 1518,
      "Ġwhen": 1519,
      "Ġfol": 1520,
      "Ġ35": 1521,
      "Ġ59": 1522,
      "Ġ157": 1523,
      "Ġ104": 1524,
      "Ġ105": 1525,
      "ung": 1526,
      "Ġ113": 1527,
      "Ġ136": 1528,
      "Ġ128": 1529,
      "Ġru": 1530,
      "oid": 1531,
      "lass": 1532,
      "Ġnature": 1533,
      "Ġfollow": 1534,
      "om": 1535,
      "ta": 1536,
      "xis": 1537,
      "Ġ:": 1538,
      "ntime": 1539,
      "Ġsep": 1540,
      "Ġcount": 1541,
      "Ġbased": 1542,
      "ord": 1543,
      "arate": 1544,
      "Ġ700": 1545,
      "Ġ99": 1546,
      "Ġ1600": 1547,
      "Ġ182": 1548,
      "Ġ209": 1549,
      "Ġ212": 1550,
      "ĠHi": 1551,
      "ilt": 1552,
      "Ġjo": 1553,
      "Ġquick": 1554,
      "view": 1555,
      "Ġruntime": 1556,
      "Ġseparate": 1557,
      "public": 1558,
      "Ġ}": 1559,
      "sion": 1560,
      "Ġclass": 1561,
      "Ġins": 1562,
      "Ġcomm": 1563,
      "Ġ65": 1564,
      "Ġ83": 1565,
      "mpare": 1566,
      "Ġ141": 1567,
      "Ġ135": 1568,
      "Ġ127": 1569,
      "Ġvoid": 1570,
      "Ġ242": 1571,
      "Ġlong": 1572,
      "Ġfriendship": 1573,
      "ĠCompare": 1574,
      "Ġneeds": 1575,
      "andom": 1576,
      "Ġgoing": 1577,
      "Ġoverview": 1578,
      "Ġenergy": 1579,
      "cus": 1580,
      "ight": 1581,
      "ysterious": 1582,
      "Ġmysterious": 1583,
      "Ġpass": 1584,
      "Ġnow": 1585,
      "Ġ73": 1586,
      "Ġ85": 1587,
      "Ġ107": 1588,
      "Ġ111": 1589,
      "Ġ165": 1590,
      "Ġmodels": 1591,
      "Ġ234": 1592,
      "Ġ236": 1593,
      "Ġ227": 1594,
      "Ġreaction": 1595,
      "Ġversion": 1596,
      "PI": 1597,
      "bon": 1598,
      "east": 1599,
      "ox": 1600,
      "pack": 1601,
      "nter": 1602,
      "store": 1603,
      "Ġevent": 1604,
      "lidate": 1605,
      "ĠAPI": 1606,
      "Ġhelps": 1607,
      "Ġgue": 1608,
      "Ġinvent": 1609,
      "Ġ220": 1610,
      "leases": 1611,
      "Ġwhi": 1612,
      "Ġtheir": 1613,
      "Ġbread": 1614,
      "Ġfact": 1615,
      "Ġrestore": 1616,
      "Ġreleases": 1617,
      "Ġcoins": 1618,
      "Ġ49": 1619,
      "Ġyeast": 1620,
      "Ġmetal": 1621,
      "Ġ152": 1622,
      "Ġ1500": 1623,
      "Ġ102": 1624,
      "Ġ114": 1625,
      "Ġ142": 1626,
      "Ġdiox": 1627,
      "Ġ137": 1628,
      "Ġ124": 1629,
      "Ġconso": 1630,
      "Ġform": 1631,
      "its": 1632,
      "Ġ205": 1633,
      "ngine": 1634,
      "Ġ211": 1635,
      "ols": 1636,
      "gned": 1637,
      "Ġvibr": 1638,
      "Ġcarbon": 1639,
      "Ġmemori": 1640,
      "Ġoxides": 1641,
      "Ġbroken": 1642,
      "Ġreacts": 1643,
      "Ġbecomes": 1644,
      "Ġchanges": 1645,
      "Ġpatterns": 1646,
      "ĠHello": 1647,
      "Ġalong": 1648,
      "Ġparticles": 1649,
      "Ġwhose": 1650,
      "Ġtrapped": 1651,
      "Ġjoke": 1652,
      "Ġlonger": 1653,
      "Ġguessing": 1654,
      "Ġwhile": 1655,
      "Ġdioxide": 1656,
      "Ġconsolidate": 1657,
      "Ġvibrations": 1658,
      "Ġmemories": 1659,
      "!!": 1660,
      "Engine": 1661,
      "Field": 1662,
      "Ser": 1663,
      "Time": 1664,
      "bs": 1665,
      "bits": 1666,
      "gle": 1667,
      "ker": 1668,
      "nse": 1669,
      "pdate": 1670,
      "ture": 1671,
      "yer": 1672,
      "Ġali": 1673,
      "Ġaxis": 1674,
      "erates": 1675,
      "stal": 1676,
      "Ġice": 1677,
      "alf": 1678,
      "met": 1679,
      "Ġtilt": 1680,
      "ated": 1681,
      "Ġcry": 1682,
      "Ġpor": 1683,
      "Ġblo": 1684,
      "Ġhor": 1685,
      "Ġ336": 1686,
      "Ġyear": 1687,
      "ĠTime": 1688,
      "Ġliqui": 1689,
      "Ġmov": 1690,
      "Ġorbits": 1691,
      "Ġ177": 1692,
      "Ġangle": 1693,
      "Ġ131": 1694,
      "Ġ1300": 1695,
      "Ġhalf": 1696,
      "Ġdense": 1697,
      "delta": 1698,
      "Ġ204": 1699,
      "ucture": 1700,
      "Ġ190": 1701,
      "Ġ210": 1702,
      "Ġ214": 1703,
      "ĠUpdate": 1704,
      "Ġscatter": 1705,
      "Ġsmaller": 1706,
      "Ġsunlit": 1707,
      "Ġstructure": 1708,
      "Ġprediction": 1709,
      "ĠUnityEngine": 1710,
      "Ġexpands": 1711,
      "Ġdepend": 1712,
      "ializeField": 1713,
      "SerializeField": 1714,
      "Ġalign": 1715,
      "Ġtilted": 1716,
      "Ġcrystal": 1717,
      "Ġportions": 1718,
      "Ġliquid": 1719,
      "deltaTime": 1720,
      "Ob": 1721,
      "ophy": 1722,
      "ract": 1723,
      "ven": 1724,
      "vec": 1725,
      "Ġaw": 1726,
      "Ġair": 1727,
      "eral": 1728,
      "Ġear": 1729,
      "liable": 1730,
      "uscle": 1731,
      "ulation": 1732,
      "ulls": 1733,
      "Ġexercise": 1734,
      "Ġheat": 1735,
      "Ġheavy": 1736,
      "Ġcent": 1737,
      "Ġmuscle": 1738,
      "Ġold": 1739,
      "Ġobjects": 1740,
      "Ġwast": 1741,
      "Ġpulls": 1742,
      "Ġfield": 1743,
      "orbs": 1744,
      "Ġdar": 1745,
      "Ġredi": 1746,
      "Ġcomb": 1747,
      "Ġcools": 1748,
      "elerates": 1749,
      "Ġ109": 1750,
      "Ġ112": 1751,
      "Ġ167": 1752,
      "Ġdistance": 1753,
      "Ġconduction": 1754,
      "Ġconvec": 1755,
      "apor": 1756,
      "lorophy": 1757,
      "Ġ195": 1758,
      "Ġ198": 1759,
      "Ġvapor": 1760,
      "Ġcolors": 1761,
      "Ġ244": 1762,
      "Ġleaves": 1763,
      "Ġgeneral": 1764,
      "Ġshorter": 1765,
      "ector": 1766,
      "Ġcontribu": 1767,
      "Ġchlorophy": 1768,
      "diation": 1769,
      "Ġreduces": 1770,
      "Ġtransfer": 1771,
      "Ġrefract": 1772,
      "Ġneedle": 1773,
      "Ġmight": 1774,
      "Ġboth": 1775,
      "Ġactive": 1776,
      "Ġrecovery": 1777,
      "Ġremove": 1778,
      "Ġradiation": 1779,
      "Ġexpanded": 1780,
      "Ġreflecting": 1781,
      "Ġmagnetic": 1782,
      "Ġmagnetized": 1783,
      "Ġabsorbs": 1784,
      "Ġdeliver": 1785,
      "Ġaccelerates": 1786,
      "ĠGameOb": 1787,
      "Ġinsulation": 1788,
      "cused": 1789,
      "Ġeventually": 1790,
      "Ġblood": 1791,
      "Ġaligns": 1792,
      "Ġearly": 1793,
      "Ġcenter": 1794,
      "Ġmuscles": 1795,
      "Ġwaste": 1796,
      "Ġdarker": 1797,
      "Ġcombine": 1798,
      "Ġconvection": 1799,
      "Ġcontribution": 1800,
      "Ġchlorophyll": 1801,
      "ĠGameObject": 1802,
      "45": 1803,
      "EG": 1804,
      "HU": 1805,
      "Vector": 1806,
      "ari": 1807,
      "fo": 1808,
      "lved": 1809,
      "mon": 1810,
      "mit": 1811,
      "nap": 1812,
      "rth": 1813,
      "sho": 1814,
      "sso": 1815,
      "tach": 1816,
      "then": 1817,
      "ntity": 1818,
      "stribu": 1819,
      "ĠCHU": 1820,
      "Ġsnap": 1821,
      "Ġcell": 1822,
      "Ġcause": 1823,
      "Ġgeo": 1824,
      "Ġgrow": 1825,
      "Ġ200": 1826,
      "acke": 1827,
      "Ġback": 1828,
      "Ġmoving": 1829,
      "Ġ93": 1830,
      "ĠMEG": 1831,
      "Ġamount": 1832,
      "Ġ166": 1833,
      "Ġ169": 1834,
      "Ġ143": 1835,
      "Ġdire": 1836,
      "Ġdisso": 1837,
      "Ġ132": 1838,
      "ngthen": 1839,
      "Ġ197": 1840,
      "Ġlayer": 1841,
      "Ġmineral": 1842,
      "Ġshorth": 1843,
      "Ġlengthen": 1844,
      "Ġatmo": 1845,
      "Ġattach": 1846,
      "logical": 1847,
      "Ġidentity": 1848,
      "Ġstars": 1849,
      "Ġplants": 1850,
      "Ġlost": 1851,
      "Ġjacke": 1852,
      "Ġreply": 1853,
      "sphere": 1854,
      "Ġweathering": 1855,
      "Ġchanging": 1856,
      "Ġunreliable": 1857,
      "Ġunder": 1858,
      "Ġhormon": 1859,
      "Ġaway": 1860,
      "Ġredistribu": 1861,
      "focused": 1862,
      "shots": 1863,
      "ĠCHUD": 1864,
      "Ġsnapshots": 1865,
      "Ġcells": 1866,
      "Ġgeological": 1867,
      "Ġgrowth": 1868,
      "ĠMEGA": 1869,
      "Ġamounts": 1870,
      "Ġdissolved": 1871,
      "Ġlayers": 1872,
      "Ġminerals": 1873,
      "Ġshorthand": 1874,
      "Ġatmosphere": 1875,
      "Ġjacket": 1876,
      "Ġhormones": 1877,
      "Ġredistribute": 1878,
      "ample": 1879,
      "ding": 1880,
      "int": 1881,
      "ycle": 1882,
      "rend": 1883,
      "stand": 1884,
      "ember": 1885,
      "Ġtung": 1886,
      "Ġtrend": 1887,
      "Ġexample": 1888,
      "Ġget": 1889,
      "Ġmath": 1890,
      "Ġmug": 1891,
      "lease": 1892,
      "Ġbic": 1893,
      "Ġspec": 1894,
      "ĠPlease": 1895,
      "Ġ156": 1896,
      "Ġ145": 1897,
      "Ġ175": 1898,
      "Ġ139": 1899,
      "Ġ123": 1900,
      "Ġ246": 1901,
      "Ġ247": 1902,
      "Ġcontroll": 1903,
      "Ġlol": 1904,
      "Ġsounds": 1905,
      "Ġdropped": 1906,
      "Ġphr": 1907,
      "Ġbackpack": 1908,
      "Ġunderstand": 1909,
      "Ġbicycle": 1910,
      "Ġspecific": 1911,
      "Ġcontroller": 1912,
      "49": 1913,
      "Tr": 1914,
      "be": 1915,
      "late": 1916,
      "lang": 1917,
      "ert": 1918,
      "Ġexplain": 1919,
      "Ġhealth": 1920,
      "Ġfr": 1921,
      "Ġ159": 1922,
      "Ġ196": 1923,
      "anslate": 1924,
      "Ġask": 1925,
      "Ġprofiles": 1926,
      "Ġnatur": 1927,
      "Ġoverall": 1928,
      "Ġrecognize": 1929,
      "Ġmoves": 1930,
      "Ġolder": 1931,
      "Translate": 1932,
      "Zo": 1933,
      "ads": 1934,
      "asic": 1935,
      "gin": 1936,
      "hould": 1937,
      "ĊĊ": 1938,
      "Ġenter": 1939,
      "ĠCan": 1940,
      "Ġtin": 1941,
      "Ġslang": 1942,
      "Ġbasic": 1943,
      "Ġreads": 1944,
      "Ġ119": 1945,
      "ĠSystem": 1946,
      "Ġanother": 1947,
      "Ġ129": 1948,
      "Ġdesi": 1949,
      "Ġ203": 1950,
      "urd": 1951,
      "Ġ241": 1952,
      "Ġhistori": 1953,
      "Ġhuge": 1954,
      "aya": 1955,
      "iley": 1956,
      "Ġabsurd": 1957,
      "ordan": 1958,
      "Ġphrase": 1959,
      "Zoe": 1960,
      "Ġtiny": 1961,
      "Ġhistorical": 1962,
      "Mo": 1963,
      "clu": 1964,
      "lated": 1965,
      "Ġunc": 1966,
      "erence": 1967,
      "emember": 1968,
      "Ġtone": 1969,
      "Ġtold": 1970,
      "Ġ95": 1971,
      "Ġ115": 1972,
      "Ġ173": 1973,
      "Ġdef": 1974,
      "ainty": 1975,
      "Ġforward": 1976,
      "Ġ181": 1977,
      "Ġ185": 1978,
      "Ġ189": 1979,
      "Ġvari": 1980,
      "ĠForward": 1981,
      "Ġlar": 1982,
      "Ġadmit": 1983,
      "forward": 1984,
      "ĠRemember": 1985,
      "Ġreference": 1986,
      "Ġunrelated": 1987,
      "unny": 1988,
      "Ġcommun": 1989,
      "ertainty": 1990,
      "Ġdesigned": 1991,
      "Mover": 1992,
      "Ġuncertainty": 1993,
      "ĠForwardMover": 1994,
      "85": 1995,
      "pret": 1996,
      "nternet": 1997,
      "erpret": 1998,
      "Ġtell": 1999,
      "Ġshould": 2000,
      "ĠInternet": 2001,
      "Ġori": 2002,
      "Ġinterpret": 2003,
      "tebo": 2004,
      "Ġ155": 2005,
      "Ġthough": 2006,
      "Ġ163": 2007,
      "Ġ164": 2008,
      "ĠSt": 2009,
      "Ġdoing": 2010,
      "Ġ194": 2011,
      "Ġ219": 2012,
      "Ġ249": 2013,
      "Ġ221": 2014,
      "Ġ222": 2015,
      "ected": 2016,
      "Ġdetected": 2017,
      "Ġvibe": 2018,
      "inner": 2019,
      "Ġnotebo": 2020,
      "Ġentered": 2021,
      "Ġcommunity": 2022,
      "Ġorigin": 2023,
      "Ġnotebook": 2024,
      "mag": 2025,
      "ost": 2026,
      "ata": 2027,
      "Ġinclu": 2028,
      "ora": 2029,
      "Ġdata": 2030,
      "Ġ125": 2031,
      "Ġ228": 2032,
      "Ġ229": 2033,
      "ĠQuick": 2034,
      "100": 2035,
      "bar": 2036,
      "gain": 2037,
      "tter": 2038,
      "ybar": 2039,
      "Ġaft": 2040,
      "Ġagain": 2041,
      "era": 2042,
      "Ġeven": 2043,
      "Ġcrow": 2044,
      "Ġow": 2045,
      "Ġotter": 2046,
      "Ġdog": 2047,
      "608": 2048,
      "Ġ193": 2049,
      "Ġ231": 2050,
      "Ġ223": 2051,
      "568": 2052,
      "424": 2053,
      "184": 2054,
      "ody": 2055,
      "amera": 2056,
      "Ġcapybar": 2057,
      "body": 2058,
      "op": 2059,
      "ybo": 2060,
      "Ġaut": 2061,
      "Ġcould": 2062,
      "right": 2063,
      "Ġread": 2064,
      "Ġ392": 2065,
      "ross": 2066,
      "Ġthere": 2067,
      "ĠSp": 2068,
      "Ġwithout": 2069,
      "Ġ216": 2070,
      "Ġ226": 2071,
      "ĠDramatic": 2072,
      "Ġacross": 2073,
      "Ġnobody": 2074,
      "ĠAnswer": 2075,
      "Ġparameters": 2076,
      "oster": 2077,
      "yboard": 2078,
      "160": 2079,
      "bor": 2080,
      "ction": 2081,
      "Ġlog": 2082,
      "sius": 2083,
      "ĠCel": 2084,
      "Ġtur": 2085,
      "lph": 2086,
      "onest": 2087,
      "Ġcat": 2088,
      "Ġcity": 2089,
      "ĠImag": 2090,
      "Ġoct": 2091,
      "arbor": 2092,
      "Ġ382": 2093,
      "ĠTraining": 2094,
      "Ġ161": 2095,
      "Ġdolph": 2096,
      "Ġpur": 2097,
      "Ġbeg": 2098,
      "Ġ232": 2099,
      "Ġ239": 2100,
      "ĠHarbor": 2101,
      "Ġ225": 2102,
      "Ġadj": 2103,
      "Ġtries": 2104,
      "Ġlooking": 2105,
      "ĠBe": 2106,
      "Ġworks": 2107,
      "ĠAnother": 2108,
      "Ġnaturally": 2109,
      "Ġincluding": 2110,
      "ĠCelsius": 2111,
      "Ġturt": 2112,
      "ĠImagine": 2113,
      "Ġoctop": 2114,
      "day": 2115,
      "ood": 2116,
      "ðŁ": 2117,
      "ĠðŁ": 2118,
      "ĴĢ": 2119,
      "Ġ252": 2120,
      "Ġ370": 2121,
      "Ġ480": 2122,
      "Ġ208": 2123,
      "Ġ199": 2124,
      "Ġstory": 2125,
      "Ġ233": 2126,
      "Ġ245": 2127,
      "544": 2128,
      "Ġweight": 2129,
      "Ġ287": 2130,
      "ference": 2131,
      "ĠðŁĴĢ": 2132,
      "Ġweights": 2133,
      "180": 2134,
      "ĠIt": 2135,
      "Ġ294": 2136,
      "Ġ312": 2137,
      "ĠPla": 2138,
      "Ġ154": 2139,
      "Ġconf": 2140,
      "Ġlevel": 2141,
      "984": 2142,
      "ssure": 2143,
      "Ġreplying": 2144,
      "Ġbeginner": 2145,
      "gre": 2146,
      "ĠAll": 2147,
      "Ġ280": 2148,
      "Ġ271": 2149,
      "Ġ300": 2150,
      "ĠSerious": 2151,
      "ĠGarden": 2152,
      "antern": 2153,
      "ĠLantern": 2154,
      "Ġdirect": 2155,
      "Ġconfide": 2156,
      "ah": 2157,
      "wor": 2158,
      "ĠZoe": 2159,
      "ĠAvery": 2160,
      "Ġ290": 2161,
      "Ġ254": 2162,
      "acts": 2163,
      "quest": 2164,
      "Ġfacts": 2165,
      "Ġrequest": 2166,
      "berate": 2167,
      "Ġ350": 2168,
      "Ġ376": 2169,
      "ĠMaya": 2170,
      "Ġ133": 2171,
      "Ġhonest": 2172,
      "408": 2173,
      "Ġ207": 2174,
      "ĠJordan": 2175,
      "326": 2176,
      "ared": 2177,
      "908": 2178,
      "584": 2179,
      "386": 2180,
      "448": 2181,
      "Ġ267": 2182,
      "ĠLeo": 2183,
      "ĠRiley": 2184,
      "Ġdeliberate": 2185,
      "ĠQuinn": 2186,
      "Ġfoxs": 2187,
      "Ġcrows": 2188,
      "Ġowls": 2189,
      "Ġotters": 2190,
      "Ġdogs": 2191,
      "Ġcapybaras": 2192,
      "work": 2193,
      "400": 2194,
      "Con": 2195,
      "Line": 2196,
      "Next": 2197,
      "Sh": 2198,
      "Write": 2199,
      "bi": 2200,
      "bl": 2201,
      "fore": 2202,
      "sided": 2203,
      "ound": 2204,
      "ance": 2205,
      "Ġ272": 2206,
      "Ġinternet": 2207,
      "ars": 2208,
      "Ġ356": 2209,
      "Ġ326": 2210,
      "Ġ311": 2211,
      "Ġ355": 2212,
      "Ġ347": 2213,
      "Ġdie": 2214,
      "Ġrandom": 2215,
      "Ġprobl": 2216,
      "ĠCalm": 2217,
      "304": 2218,
      "Ġused": 2219,
      "368": 2220,
      "928": 2221,
      "Ġ283": 2222,
      "ĠRandom": 2223,
      "Ġdeliberately": 2224,
      "Console": 2225,
      "Shared": 2226,
      "WriteLine": 2227,
      "300": 2228,
      "89": 2229,
      "kay": 2230,
      "pen": 2231,
      "tok": 2232,
      "Ġau": 2233,
      "Ġtrain": 2234,
      "ĠArt": 2235,
      "ating": 2236,
      "Ġ276": 2237,
      "Ġ251": 2238,
      "Ġ297": 2239,
      "Ġrece": 2240,
      "Ġ374": 2241,
      "Ġ331": 2242,
      "Ġ446": 2243,
      "Ġ417": 2244,
      "Ġ638": 2245,
      "Ġ526": 2246,
      "008": 2247,
      "Ġ934": 2248,
      "tely": 2249,
      "405": 2250,
      "Ġrunn": 2251,
      "904": 2252,
      "188": 2253,
      "ĠKai": 2254,
      "468": 2255,
      "ĠNora": 2256,
      "Ġhum": 2257,
      "Ġ362": 2258,
      "ĠRo": 2259,
      "Ġ462": 2260,
      "Ġjust": 2261,
      "Ġwork": 2262,
      "Ġprogram": 2263,
      "Ġafter": 2264,
      "Ġcats": 2265,
      "Ġdolphins": 2266,
      "Ġturtles": 2267,
      "Ġoctopuss": 2268,
      "token": 2269,
      "170": 2270,
      "480": 2271,
      "61": 2272,
      "omatic": 2273,
      "zy": 2274,
      "ĠCh": 2275,
      "ĠCamera": 2276,
      "Ġother": 2277,
      "Ġ275": 2278,
      "Ġdramatic": 2279,
      "Ġ332": 2280,
      "Ġ352": 2281,
      "Ġ315": 2282,
      "Ġ432": 2283,
      "Ġ430": 2284,
      "Ġ179": 2285,
      "Ġ134": 2286,
      "air": 2287,
      "Ġconcise": 2288,
      "Ġnext": 2289,
      "ĠFair": 2290,
      "Ġ191": 2291,
      "725": 2292,
      "186": 2293,
      "Ġ309": 2294,
      "Ġ402": 2295,
      "ĠNice": 2296,
      "391": 2297,
      "Ġmeaning": 2298,
      "Ġplanet": 2299,
      "Ġdefine": 2300,
      "Ġvariant": 2301,
      "Ġautomatic": 2302,
      "ĠRobot": 2303,
      "Ġautomatically": 2304,
      "120": 2305,
      "420": 2306,
      "ak": 2307,
      "par": 2308,
      "put": 2309,
      "range": 2310,
      "Ġsay": 2311,
      "ĠIts": 2312,
      "Ġinst": 2313,
      "Ġ256": 2314,
      "Ġ295": 2315,
      "ndard": 2316,
      "Ġfe": 2317,
      "Ġ378": 2318,
      "Ġ397": 2319,
      "Ġ337": 2320,
      "Ġ323": 2321,
      "Ġ450": 2322,
      "Ġ422": 2323,
      "Ġ642": 2324,
      "ĠPoster": 2325,
      "Ġ854": 2326,
      "ĠSam": 2327,
      "Ġpure": 2328,
      "Ġbehavi": 2329,
      "ĠFunny": 2330,
      "328": 2331,
      "182": 2332,
      "124": 2333,
      "Ġ302": 2334,
      "968": 2335,
      "Ġstandard": 2336,
      "ĠKeyboard": 2337,
      "Ġ257": 2338,
      "ĠBright": 2339,
      "Ġpressure": 2340,
      "Ġpredicts": 2341,
      "Ġgood": 2342,
      "Ġworse": 2343,
      "Ġlarg": 2344,
      "ĠStrange": 2345,
      "Ġtrained": 2346,
      "Ġhuman": 2347,
      "ĠChaotic": 2348,
      "Ġvariants": 2349,
      "parameter": 2350,
      "Ġbehavior": 2351,
      "144": 2352,
      "65": 2353,
      "920": 2354,
      "LM": 2355,
      "gence": 2356,
      "ning": 2357,
      "pose": 2358,
      "ror": 2359,
      "tle": 2360,
      "list": 2361,
      "ligence": 2362,
      "hort": 2363,
      "Ġintel": 2364,
      "ess": 2365,
      "Ġ360": 2366,
      "Ġ354": 2367,
      "Ġ316": 2368,
      "Ġcover": 2369,
      "Ġ440": 2370,
      "Ġ426": 2371,
      "Ġmoment": 2372,
      "ĠShort": 2373,
      "Ġconsole": 2374,
      "eturn": 2375,
      "528": 2376,
      "Ġ306": 2377,
      "165": 2378,
      "385": 2379,
      "Ġcontin": 2380,
      "755": 2381,
      "ĠLe": 2382,
      "ĠLLM": 2383,
      "Ġloc": 2384,
      "Ġ361": 2385,
      "ĠReturn": 2386,
      "Ġexplan": 2387,
      "Ġverif": 2388,
      "Ġrolls": 2389,
      "Ġpurpose": 2390,
      "Ġintelligence": 2391,
      "Ġcoverage": 2392,
      "024": 2393,
      "ixed": 2394,
      "ibi": 2395,
      "mical": 2396,
      "ymb": 2397,
      "Ġari": 2398,
      "Ġtas": 2399,
      "Ġsymb": 2400,
      "Ġ296": 2401,
      "Ġ288": 2402,
      "thmet": 2403,
      "Ġfin": 2404,
      "Ġ380": 2405,
      "Ġ340": 2406,
      "Ġ351": 2407,
      "Ġ335": 2408,
      "Ġ456": 2409,
      "Ġ470": 2410,
      "Ġ415": 2411,
      "rot": 2412,
      "Ġ500": 2413,
      "Ġ546": 2414,
      "108": 2415,
      "306": 2416,
      "308": 2417,
      "Ġusually": 2418,
      "768": 2419,
      "702": 2420,
      "168": 2421,
      "228": 2422,
      "Ġ363": 2423,
      "Ġchemical": 2424,
      "999": 2425,
      "Ġ389": 2426,
      "Ġnorm": 2427,
      "Ġskibi": 2428,
      "ĠHelmet": 2429,
      "ificial": 2430,
      "Ġlogo": 2431,
      "Ġrunnable": 2432,
      "Ġlargest": 2433,
      "Ġlocally": 2434,
      "Ġarithmet": 2435,
      "Ġsymbol": 2436,
      "Ġskibidi": 2437,
      "Ġarithmetic": 2438,
      "154": 2439,
      "195": 2440,
      "240": 2441,
      "336": 2442,
      "go": 2443,
      "ition": 2444,
      "ruc": 2445,
      "uzzle": 2446,
      "Ġer": 2447,
      "erical": 2448,
      "ality": 2449,
      "hether": 2450,
      "Ġ260": 2451,
      "Ġ258": 2452,
      "Ġ274": 2453,
      "Ġ277": 2454,
      "Ġpath": 2455,
      "Ġnum": 2456,
      "Ġfunny": 2457,
      "Ġ358": 2458,
      "Ġcook": 2459,
      "Ġ420": 2460,
      "Ġ411": 2461,
      "Ġ482": 2462,
      "Ġ427": 2463,
      "Ġ632": 2464,
      "Ġ622": 2465,
      "ĠPuzzle": 2466,
      "Ġlive": 2467,
      "Ġ939": 2468,
      "ĠSo": 2469,
      "406": 2470,
      "Ġbefore": 2471,
      "604": 2472,
      "ural": 2473,
      "Ġneural": 2474,
      "Ġeveryday": 2475,
      "Ġclaim": 2476,
      "104": 2477,
      "106": 2478,
      "428": 2479,
      "Ġperform": 2480,
      "Ġ307": 2481,
      "ustr": 2482,
      "Ġ266": 2483,
      "Ġ367": 2484,
      "ĠCont": 2485,
      "714": 2486,
      "Ġ345": 2487,
      "Ġword": 2488,
      "Ġrecognition": 2489,
      "Ġlarge": 2490,
      "Ġready": 2491,
      "ĠArtificial": 2492,
      "Ġinstruc": 2493,
      "Ġverify": 2494,
      "Ġtasks": 2495,
      "Ġnormally": 2496,
      "Ġerror": 2497,
      "Ġnumerical": 2498,
      "Ġinstructions": 2499,
      "(\"": 2500,
      "376": 2501,
      "520": 2502,
      "560": 2503,
      "750": 2504,
      "??": 2505,
      "der": 2506,
      "fy": 2507,
      "get": 2508,
      "ies": 2509,
      "itely": 2510,
      "lve": 2511,
      "the": 2512,
      "twork": 2513,
      "Ġrough": 2514,
      "side": 2515,
      "sider": 2516,
      "Ġearth": 2517,
      "hur": 2518,
      "ular": 2519,
      "ĠAre": 2520,
      "Ġsav": 2521,
      "Ġsure": 2522,
      "Ġinput": 2523,
      "Ġinside": 2524,
      "initely": 2525,
      "Ġ293": 2526,
      "less": 2527,
      "rived": 2528,
      "Ġfive": 2529,
      "Ġfixed": 2530,
      "Ġdur": 2531,
      "Ġrequi": 2532,
      "Ġ320": 2533,
      "Ġ390": 2534,
      "Ġ388": 2535,
      "Ġ395": 2536,
      "Ġ399": 2537,
      "Ġ313": 2538,
      "Ġ379": 2539,
      "Ġ410": 2540,
      "Ġ472": 2541,
      "Ġ492": 2542,
      "Ġ451": 2543,
      "cean": 2544,
      "cessing": 2545,
      "Ġ658": 2546,
      "Ġ678": 2547,
      "Ġ627": 2548,
      "Ġ799": 2549,
      "Ġmoon": 2550,
      "Ġ840": 2551,
      "Ġ860": 2552,
      "Ġ848": 2553,
      "Ġonce": 2554,
      "Ġ917": 2555,
      "ĠMet": 2556,
      "Ġ1022": 2557,
      "Ġ1139": 2558,
      "ĠSleep": 2559,
      "ĠSound": 2560,
      "808": 2561,
      "Ġconsider": 2562,
      "Ġnetwork": 2563,
      "ĠJu": 2564,
      "duces": 2565,
      "504": 2566,
      "Ġprogre": 2567,
      "Ġprocessing": 2568,
      "Ġproduces": 2569,
      "Ġsolve": 2570,
      "ĠHere": 2571,
      "ĠUnder": 2572,
      "425": 2573,
      "Ġarrived": 2574,
      "185": 2575,
      "924": 2576,
      "Ġtry": 2577,
      "Ġstate": 2578,
      "Ġreasoning": 2579,
      "514": 2580,
      "Ġ407": 2581,
      "9800": 2582,
      "ĠExercise": 2583,
      "159": 2584,
      "Ġchoose": 2585,
      "imum": 2586,
      "Ġmaximum": 2587,
      "Ġ508": 2588,
      "Ġ263": 2589,
      "ĠBread": 2590,
      "ĠRome": 2591,
      "Ġstrange": 2592,
      "Ġactually": 2593,
      "Ġreduce": 2594,
      "Ġplanning": 2595,
      "ĠObjects": 2596,
      "ĠOcean": 2597,
      "Ġmatters": 2598,
      "Ġbrainrot": 2599,
      "Ġparticular": 2600,
      "Ġaccess": 2601,
      "Ġdirection": 2602,
      "Ġexamples": 2603,
      "Ġdefinitely": 2604,
      "Ġvariable": 2605,
      "Ġadjust": 2606,
      "Ġadjusts": 2607,
      "ĠPlants": 2608,
      "Ġconfidence": 2609,
      "Ġproblems": 2610,
      "Ġaura": 2611,
      "ĠLeaves": 2612,
      "ĠContext": 2613,
      "Ġsaved": 2614,
      "Ġduring": 2615,
      "Ġrequire": 2616,
      "ĠMetal": 2617,
      "Ġprogress": 2618,
      "112": 2619,
      "330": 2620,
      "416": 2621,
      "620": 2622,
      "dating": 2623,
      "ith": 2624,
      "lf": 2625,
      "ln": 2626,
      "lle": 2627,
      "mfor": 2628,
      "pdating": 2629,
      "Ġ<": 2630,
      "Ġrou": 2631,
      "Ġlit": 2632,
      "Ġhy": 2633,
      "Ġaff": 2634,
      "stood": 2635,
      "alance": 2636,
      "liar": 2637,
      "hed": 2638,
      "ĠIce": 2639,
      "Ġinference": 2640,
      "Ġ298": 2641,
      "Ġ278": 2642,
      "Ġ291": 2643,
      "Ġ273": 2644,
      "Ġwhich": 2645,
      "ĠWith": 2646,
      "aces": 2647,
      "Ġbalance": 2648,
      "Ġnah": 2649,
      "Ġ310": 2650,
      "Ġ342": 2651,
      "Ġ318": 2652,
      "Ġ396": 2653,
      "Ġ346": 2654,
      "Ġ394": 2655,
      "Ġ317": 2656,
      "Ġcolle": 2657,
      "Ġcomfor": 2658,
      "Ġ436": 2659,
      "Ġ435": 2660,
      "Ġ474": 2661,
      "Ġ466": 2662,
      "cept": 2663,
      "Ġ651": 2664,
      "Ġ540": 2665,
      "Ġ542": 2666,
      "Ġ597": 2667,
      "Ġ547": 2668,
      "Ġ579": 2669,
      "Ġ726": 2670,
      "Ġ896": 2671,
      "Ġ878": 2672,
      "Ġ1526": 2673,
      "Ġwild": 2674,
      "Ġ1054": 2675,
      "Ġhap": 2676,
      "ĠInference": 2677,
      "Ġable": 2678,
      "502": 2679,
      "Ġlet": 2680,
      "427": 2681,
      "Ġgenerates": 2682,
      "764": 2683,
      "724": 2684,
      "926": 2685,
      "548": 2686,
      "Ġ301": 2687,
      "Ġstage": 2688,
      "384": 2689,
      "444": 2690,
      "Ġchosen": 2691,
      "Ġ282": 2692,
      "Ġ502": 2693,
      "Ġ262": 2694,
      "Ġlocal": 2695,
      "Ġ364": 2696,
      "Ġ368": 2697,
      "486": 2698,
      "Ġfamiliar": 2699,
      "ĠRain": 2700,
      "Ġserious": 2701,
      "Ġ467": 2702,
      "Ġscored": 2703,
      "Ġquality": 2704,
      "Ġ487": 2705,
      "Ġaccept": 2706,
      "Ġunless": 2707,
      "Ġupdating": 2708,
      "Ġdepends": 2709,
      "Ġlesson": 2710,
      "ĠStars": 2711,
      "Ġrandomly": 2712,
      "Ġreceives": 2713,
      "ĠSoap": 2714,
      "ĠUnderstood": 2715,
      "Ġhype": 2716,
      "Ġaffect": 2717,
      "aceship": 2718,
      "Ġcollection": 2719,
      "Ġcomfort": 2720,
      "Ġhappen": 2721,
      "Ġaccepted": 2722,
      "140": 2723,
      "142": 2724,
      "158": 2725,
      "116": 2726,
      "332": 2727,
      "310": 2728,
      "339": 2729,
      "69": 2730,
      "700": 2731,
      "720": 2732,
      "Avery": 2733,
      "Jordan": 2734,
      "Leo": 2735,
      "Maya": 2736,
      "Riley": 2737,
      "bug": 2738,
      "Ġ'": 2739,
      "Ġsame": 2740,
      "Ġclo": 2741,
      "ĠItal": 2742,
      "Ġ270": 2743,
      "Ġ292": 2744,
      "ĠWhere": 2745,
      "ort": 2746,
      "Ġ338": 2747,
      "Ġ344": 2748,
      "Ġ375": 2749,
      "Ġ322": 2750,
      "Ġ371": 2751,
      "Ġ391": 2752,
      "Ġtoday": 2753,
      "Ġ400": 2754,
      "Ġ442": 2755,
      "Ġ488": 2756,
      "Ġ423": 2757,
      "Ġ419": 2758,
      "Ġ477": 2759,
      "Ġ630": 2760,
      "Ġ636": 2761,
      "Ġ512": 2762,
      "Ġ558": 2763,
      "Ġ577": 2764,
      "Ġ734": 2765,
      "Ġ830": 2766,
      "Ġ870": 2767,
      "Ġ858": 2768,
      "Ġ923": 2769,
      "Ġ1510": 2770,
      "Ġ1042": 2771,
      "mport": 2772,
      "Ġ1182": 2773,
      "Ġ1694": 2774,
      "809": 2775,
      "Ġ1278": 2776,
      "Ġdebug": 2777,
      "324": 2778,
      "566": 2779,
      "Ġ308": 2780,
      "962": 2781,
      "966": 2782,
      "888": 2783,
      "515": 2784,
      "519": 2785,
      "466": 2786,
      "784": 2787,
      "ĠCozy": 2788,
      "ished": 2789,
      "Ġ449": 2790,
      "Ġsahur": 2791,
      "ĠOkay": 2792,
      "Quinn": 2793,
      "Ġlogic": 2794,
      "Ġfinished": 2795,
      "Ġhappened": 2796,
      "150": 2797,
      "272": 2798,
      "380": 2799,
      "440": 2800,
      "430": 2801,
      "413": 2802,
      "500": 2803,
      "900": 2804,
      "960": 2805,
      "944": 2806,
      "Kai": 2807,
      "Nora": 2808,
      "df": 2809,
      "dks": 2810,
      "eal": 2811,
      "eah": 2812,
      "ging": 2813,
      "js": 2814,
      "kdf": 2815,
      "rong": 2816,
      "rect": 2817,
      "ali": 2818,
      "ement": 2819,
      "Ġteal": 2820,
      "ĠYeah": 2821,
      "Ġhel": 2822,
      "Ġsum": 2823,
      "Ġcamera": 2824,
      "Ġindi": 2825,
      "Ġway": 2826,
      "Ġwhether": 2827,
      "Ġwrong": 2828,
      "Ġpage": 2829,
      "Ġposter": 2830,
      "Ġbright": 2831,
      "Ġfit": 2832,
      "Ġ372": 2833,
      "Ġ348": 2834,
      "Ġ325": 2835,
      "verse": 2836,
      "Ġ452": 2837,
      "Ġ458": 2838,
      "Ġ444": 2839,
      "Ġ498": 2840,
      "Ġ491": 2841,
      "Ġ486": 2842,
      "ellow": 2843,
      "Ġyellow": 2844,
      "Ġ660": 2845,
      "Ġ618": 2846,
      "Ġ686": 2847,
      "Ġ699": 2848,
      "Ġ590": 2849,
      "Ġ518": 2850,
      "Ġ732": 2851,
      "Ġ756": 2852,
      "Ġ716": 2853,
      "Ġ771": 2854,
      "Ġ766": 2855,
      "Ġ724": 2856,
      "Ġ729": 2857,
      "Ġ810": 2858,
      "Ġ842": 2859,
      "Ġ950": 2860,
      "Ġ910": 2861,
      "Ġorange": 2862,
      "Ġ1630": 2863,
      "Ġ1691": 2864,
      "Ġ1668": 2865,
      "Ġ1423": 2866,
      "Ġ1726": 2867,
      "Ġ184": 2868,
      "508": 2869,
      "565": 2870,
      "303": 2871,
      "762": 2872,
      "767": 2873,
      "183": 2874,
      "923": 2875,
      "122": 2876,
      "526": 2877,
      "162": 2878,
      "Ġ403": 2879,
      "Ġkeyboard": 2880,
      "953": 2881,
      "349": 2882,
      "Ġ507": 2883,
      "745": 2884,
      "Ġkind": 2885,
      "ĠBo": 2886,
      "373": 2887,
      "Ġ469": 2888,
      "Ġjdks": 2889,
      "eople": 2890,
      "Ġpersonal": 2891,
      "Ġcommonly": 2892,
      "Ġevening": 2893,
      "Ġpurple": 2894,
      "Ġconfident": 2895,
      "Ġexplanation": 2896,
      "lfjs": 2897,
      "Ġlittle": 2898,
      "Ġclose": 2899,
      "Ġdebugging": 2900,
      "Ġindigo": 2901,
      "Ġjdkslfjs": 2902,
      "Ġjdkslfjskdf": 2903,
      "190": 2904,
      "276": 2905,
      "258": 2906,
      "275": 2907,
      "342": 2908,
      "410": 2909,
      "572": 2910,
      "596": 2911,
      "575": 2912,
      "780": 2913,
      "736": 2914,
      "950": 2915,
      "912": 2916,
      "Sam": 2917,
      "ao": 2918,
      "ex": 2919,
      "ez": 2920,
      "eling": 2921,
      "mt": 2922,
      "rance": 2923,
      "yle": 2924,
      "ylist": 2925,
      "zil": 2926,
      "Ġassi": 2927,
      "reez": 2928,
      "liet": 2929,
      "ĠCars": 2930,
      "ĠAustr": 2931,
      "atch": 2932,
      "Ġcall": 2933,
      "Ġ==": 2934,
      "Ġinform": 2935,
      "Ġokay": 2936,
      "Ġ279": 2937,
      "hor": 2938,
      "Ġplu": 2939,
      "Ġboi": 2940,
      "Ġfun": 2941,
      "Ġfreez": 2942,
      "Ġ393": 2943,
      "Ġ357": 2944,
      "Ġ490": 2945,
      "Ġ497": 2946,
      "Ġ455": 2947,
      "Ġ425": 2948,
      "Ġyo": 2949,
      "ĠThis": 2950,
      "ĠTung": 2951,
      "ĠTex": 2952,
      "Ġ640": 2953,
      "Ġ672": 2954,
      "Ġ654": 2955,
      "Ġ646": 2956,
      "Ġ617": 2957,
      "Ġ647": 2958,
      "Ġ560": 2959,
      "Ġ554": 2960,
      "Ġ552": 2961,
      "Ġ515": 2962,
      "Ġ582": 2963,
      "Ġ790": 2964,
      "Ġ800": 2965,
      "Ġ832": 2966,
      "Ġ856": 2967,
      "Ġ891": 2968,
      "007": 2969,
      "Ġ942": 2970,
      "Ġ954": 2971,
      "Ġ958": 2972,
      "Ġ924": 2973,
      "Ġ968": 2974,
      "Ġmade": 2975,
      "razil": 2976,
      "Ġ1692": 2977,
      "Ġ1470": 2978,
      "Ġ1780": 2979,
      "Ġ1720": 2980,
      "Ġ1766": 2981,
      "Ġ1342": 2982,
      "Ġ1386": 2983,
      "Ġ1230": 2984,
      "Ġ1222": 2985,
      "Ġ1286": 2986,
      "Ġdegre": 2987,
      "404": 2988,
      "apan": 2989,
      "Ġeveryone": 2990,
      "ĠFrance": 2991,
      "Ġsix": 2992,
      "Ġsimp": 2993,
      "ĠJapan": 2994,
      "ents": 2995,
      "ĠCall": 2996,
      "1088": 2997,
      "302": 2998,
      "426": 2999,
      "362": 3000,
      "367": 3001,
      "522": 3002,
      "524": 3003,
      "588": 3004,
      "Ġstay": 3005,
      "Ġadd": 3006,
      "883": 3007,
      "Ġ405": 3008,
      "269": 3009,
      "Ġ286": 3010,
      "ĠDi": 3011,
      "Ġ264": 3012,
      "Ġterm": 3013,
      "Ġ607": 3014,
      "ĠBrazil": 3015,
      "824": 3016,
      "Ġsides": 3017,
      "662": 3018,
      "1380": 3019,
      "ĠSolar": 3020,
      "Ġ465": 3021,
      "Ġdrop": 3022,
      "ada": 3023,
      "Ġ665": 3024,
      "Ġ806": 3025,
      "284": 3026,
      "ernoon": 3027,
      "Ġ787": 3028,
      "Ġgold": 3029,
      "Ġ1302": 3030,
      "Ġ1707": 3031,
      "Ġhearing": 3032,
      "Ġrecognized": 3033,
      "Ġ1107": 3034,
      "ĠGames": 3035,
      "ĠCanada": 3036,
      "Ġafternoon": 3037,
      "Ġauthor": 3038,
      "ĠSpain": 3039,
      "ĠPlaylist": 3040,
      "Ġsaying": 3041,
      "Ġfeeling": 3042,
      "Ġcontinents": 3043,
      "Ġcooked": 3044,
      "Ġ34540": 3045,
      "ĠJuliet": 3046,
      "ĠRomeo": 3047,
      "ĠItaly": 3048,
      "alia": 3049,
      "Ġclosest": 3050,
      "ĠAustralia": 3051,
      "Ġinformation": 3052,
      "Ġpluh": 3053,
      "Ġboiling": 3054,
      "Ġfreezing": 3055,
      "ĠTexas": 3056,
      "Ġdegrees": 3057,
      "++": 3058,
      "130": 3059,
      "136": 3060,
      "172": 3061,
      "118": 3062,
      "226": 3063,
      "595": 3064,
      "940": 3065,
      "932": 3066,
      "ever": 3067,
      "fe": 3068,
      "hh": 3069,
      "ofy": 3070,
      "pre": 3071,
      "rchi": 3072,
      "Ġour": 3073,
      "Ġahh": 3074,
      "ntern": 3075,
      "heck": 3076,
      "ĠCheck": 3077,
      "Ġton": 3078,
      "Ġturn": 3079,
      "Ġtime": 3080,
      "ĠArchi": 3081,
      "atel": 3082,
      "Ġsatel": 3083,
      "Ġchud": 3084,
      "Ġmate": 3085,
      "round": 3086,
      "Ġwere": 3087,
      "dent": 3088,
      "depen": 3089,
      "Ġpeople": 3090,
      "Ġbr": 3091,
      "Ġfound": 3092,
      "lite": 3093,
      "Ġ334": 3094,
      "Ġ339": 3095,
      "Ġ314": 3096,
      "Ġ327": 3097,
      "Ġ377": 3098,
      "Ġ359": 3099,
      "Ġ373": 3100,
      "Ġ329": 3101,
      "Ġcozy": 3102,
      "Ġ460": 3103,
      "Ġ454": 3104,
      "Ġ412": 3105,
      "Ġ424": 3106,
      "Ġ414": 3107,
      "Ġ457": 3108,
      "Ġyes": 3109,
      "Ġ676": 3110,
      "Ġ694": 3111,
      "Ġ639": 3112,
      "Ġ536": 3113,
      "Ġ574": 3114,
      "Ġ586": 3115,
      "Ġ566": 3116,
      "Ġ760": 3117,
      "Ġ758": 3118,
      "Ġ739": 3119,
      "Ġ748": 3120,
      "Ġ782": 3121,
      "Ġ888": 3122,
      "Ġ846": 3123,
      "Ġ875": 3124,
      "Ġ835": 3125,
      "Ġ894": 3126,
      "Ġ859": 3127,
      "Ġ920": 3128,
      "Ġ996": 3129,
      "Ġ915": 3130,
      "Ġ922": 3131,
      "Ġ997": 3132,
      "Ġ947": 3133,
      "Ġ914": 3134,
      "Ġ1535": 3135,
      "Ġ1534": 3136,
      "Ġ1522": 3137,
      "Ġ1566": 3138,
      "Ġ1525": 3139,
      "ĠMov": 3140,
      "Ġ1060": 3141,
      "Ġ1030": 3142,
      "Ġ1070": 3143,
      "Ġ1075": 3144,
      "Ġ1120": 3145,
      "Ġ1115": 3146,
      "Ġ1179": 3147,
      "Ġ1660": 3148,
      "ĠScho": 3149,
      "Ġ1411": 3150,
      "Ġ1462": 3151,
      "Ġ1467": 3152,
      "Ġ1715": 3153,
      "Ġ1350": 3154,
      "Ġ1318": 3155,
      "Ġ1334": 3156,
      "Ġ1377": 3157,
      "Ġ1256": 3158,
      "Ġ1227": 3159,
      "403": 3160,
      "208": 3161,
      "Ġ1860": 3162,
      "Ġ1892": 3163,
      "Ġ1948": 3164,
      "Ġlantern": 3165,
      "Ġstep": 3166,
      "Ġstyle": 3167,
      "culation": 3168,
      "322": 3169,
      "563": 3170,
      "564": 3171,
      "567": 3172,
      "423": 3173,
      "703": 3174,
      "706": 3175,
      "925": 3176,
      "125": 3177,
      "Ġ305": 3178,
      "Ġtrack": 3179,
      "381": 3180,
      "Ġcomes": 3181,
      "Ġ259": 3182,
      "353": 3183,
      "355": 3184,
      "787": 3185,
      "789": 3186,
      "343": 3187,
      "347": 3188,
      "Ġ269": 3189,
      "Ġlow": 3190,
      "Ġ369": 3191,
      "484": 3192,
      "Ġplaylist": 3193,
      "Ġ606": 3194,
      "ĠRight": 3195,
      "313": 3196,
      "3115": 3197,
      "Ġ387": 3198,
      "Ġlikely": 3199,
      "Ġ707": 3200,
      "Ġ708": 3201,
      "Ġ804": 3202,
      "Ġremoved": 3203,
      "Ġcalculation": 3204,
      "Ġgoofy": 3205,
      "Ġ1163": 3206,
      "Ġanswers": 3207,
      "ĠOn": 3208,
      "ĠOne": 3209,
      "Ġ421": 3210,
      "Ġ1483": 3211,
      "Ġenerget": 3212,
      "Ġnatural": 3213,
      "Ġ22800": 3214,
      "ĠSpace": 3215,
      "Ġproblem": 3216,
      "Ġreceiv": 3217,
      "ĠRobots": 3218,
      "Ġcontinue": 3219,
      "Ġhelmet": 3220,
      "ĠBooks": 3221,
      "Ġassign": 3222,
      "Ġsimply": 3223,
      "Ġstays": 3224,
      "ĠDirect": 3225,
      "Ġtonight": 3226,
      "ĠArchitecture": 3227,
      "Ġsatellite": 3228,
      "dependent": 3229,
      "ĠMovies": 3230,
      "ĠSchool": 3231,
      "Ġenergetic": 3232,
      "138": 3233,
      "210": 3234,
      "236": 3235,
      "218": 3236,
      "244": 3237,
      "234": 3238,
      "318": 3239,
      "316": 3240,
      "375": 3241,
      "337": 3242,
      "488": 3243,
      "455": 3244,
      "542": 3245,
      "576": 3246,
      "535": 3247,
      "660": 3248,
      "672": 3249,
      "710": 3250,
      "775": 3251,
      "800": 3252,
      "980": 3253,
      "930": 3254,
      "992": 3255,
      "916": 3256,
      "Go": 3257,
      "[]": 3258,
      "assi": 3259,
      "cord": 3260,
      "ied": 3261,
      "iet": 3262,
      "jo": 3263,
      "ped": 3264,
      "sel": 3265,
      "ussing": 3266,
      "ype": 3267,
      "Ġ\"": 3268,
      "Ġperi": 3269,
      "reak": 3270,
      "Ġimport": 3271,
      "lish": 3272,
      "emand": 3273,
      "mework": 3274,
      "ulous": 3275,
      "Ġsor": 3276,
      "Ġcame": 3277,
      "Ġgent": 3278,
      "Ġob": 3279,
      "Ġpai": 3280,
      "Ġbore": 3281,
      "Ġbreak": 3282,
      "Ġspaceship": 3283,
      "Ġhoped": 3284,
      "Ġhomework": 3285,
      "Ġdinner": 3286,
      "Ġdemand": 3287,
      "Ġreli": 3288,
      "Ġreverse": 3289,
      "Ġrecord": 3290,
      "Ġ353": 3291,
      "Ġcomple": 3292,
      "Ġ496": 3293,
      "Ġ416": 3294,
      "Ġ438": 3295,
      "Ġ495": 3296,
      "Ġ413": 3297,
      "Ġ479": 3298,
      "Ġ493": 3299,
      "Ġ600": 3300,
      "Ġ680": 3301,
      "Ġ692": 3302,
      "Ġ688": 3303,
      "Ġ626": 3304,
      "Ġ611": 3305,
      "Ġ682": 3306,
      "Ġ624": 3307,
      "Ġ623": 3308,
      "Ġ572": 3309,
      "Ġ575": 3310,
      "Ġ535": 3311,
      "Ġ571": 3312,
      "Ġ710": 3313,
      "Ġ715": 3314,
      "Ġ737": 3315,
      "Ġ747": 3316,
      "Ġ719": 3317,
      "Ġ725": 3318,
      "Ġ793": 3319,
      "Ġ880": 3320,
      "Ġ813": 3321,
      "002": 3322,
      "Ġ960": 3323,
      "Ġ936": 3324,
      "Ġ972": 3325,
      "Ġ990": 3326,
      "Ġ952": 3327,
      "Ġ916": 3328,
      "Ġ988": 3329,
      "Ġ951": 3330,
      "Ġ978": 3331,
      "Ġ911": 3332,
      "Ġ963": 3333,
      "text": 3334,
      "Ġ1536": 3335,
      "Ġ1572": 3336,
      "Ġ1512": 3337,
      "Ġ1558": 3338,
      "Ġ1551": 3339,
      "Ġ1515": 3340,
      "Ġ1539": 3341,
      "Ġ1599": 3342,
      "Ġ1563": 3343,
      "ĠMe": 3344,
      "ĠMusic": 3345,
      "Ġ1010": 3346,
      "Ġ1046": 3347,
      "Ġ1035": 3348,
      "Ġ1071": 3349,
      "Ġ1091": 3350,
      "Ġ1086": 3351,
      "Ġ1019": 3352,
      "Ġ1062": 3353,
      "Ġopen": 3354,
      "Ġ1132": 3355,
      "Ġ1198": 3356,
      "Ġ1195": 3357,
      "Ġ1155": 3358,
      "Ġ1199": 3359,
      "Ġ1127": 3360,
      "Ġ1646": 3361,
      "Ġ1627": 3362,
      "Ġ1442": 3363,
      "Ġ1422": 3364,
      "Ġ1486": 3365,
      "Ġ1425": 3366,
      "Ġ1443": 3367,
      "Ġ1774": 3368,
      "Ġ1739": 3369,
      "Ġ1755": 3370,
      "Ġ1747": 3371,
      "Ġ1757": 3372,
      "Ġ1784": 3373,
      "Ġ1390": 3374,
      "Ġ1395": 3375,
      "Ġ1328": 3376,
      "806": 3377,
      "Ġ1260": 3378,
      "Ġ1292": 3379,
      "Ġ1238": 3380,
      "Ġ1282": 3381,
      "Ġ1243": 3382,
      "Ġdeci": 3383,
      "ĠInit": 3384,
      "ĠGood": 3385,
      "402": 3386,
      "206": 3387,
      "602": 3388,
      "Ġformat": 3389,
      "Ġ1870": 3390,
      "Ġ1812": 3391,
      "Ġ1897": 3392,
      "Ġ2018": 3393,
      "ĠFood": 3394,
      "Ġ2142": 3395,
      "Ġ2398": 3396,
      "Ġwhatever": 3397,
      "507": 3398,
      "Ġpromp": 3399,
      "rting": 3400,
      "Ġ2238": 3401,
      "Ġshower": 3402,
      "Ġdiscussing": 3403,
      "321": 3404,
      "429": 3405,
      "365": 3406,
      "765": 3407,
      "728": 3408,
      "909": 3409,
      "708": 3410,
      "126": 3411,
      "128": 3412,
      "5280": 3413,
      "583": 3414,
      "585": 3415,
      "164": 3416,
      "tern": 3417,
      "Ġstarting": 3418,
      "387": 3419,
      "388": 3420,
      "4412": 3421,
      "Ġ404": 3422,
      "Ġ408": 3423,
      "982": 3424,
      "983": 3425,
      "986": 3426,
      "Ġ255": 3427,
      "Ġ2594": 3428,
      "Ġ2537": 3429,
      "785": 3430,
      "Ġchao": 3431,
      "153": 3432,
      "ĠNew": 3433,
      "945": 3434,
      "Ġ268": 3435,
      "Ġ2660": 3436,
      "ĠLis": 3437,
      "119": 3438,
      "Ġbriefly": 3439,
      "dience": 3440,
      "489": 3441,
      "ĠCooking": 3442,
      "Ġyoursel": 3443,
      "719": 3444,
      "Ġ603": 3445,
      "863": 3446,
      "669": 3447,
      "iler": 3448,
      "Ġprecise": 3449,
      "Ġthings": 3450,
      "diculous": 3451,
      "Ġquiet": 3452,
      "Ġ3811": 3453,
      "Ġ3400": 3454,
      "Ġridiculous": 3455,
      "Ġremix": 3456,
      "Ġ443": 3457,
      "Ġ662": 3458,
      "Ġsafe": 3459,
      "285": 3460,
      "Ġunassi": 3461,
      "Ġ904": 3462,
      "Ġ785": 3463,
      "Ġcalm": 3464,
      "Ġ643": 3465,
      "ĠMona": 3466,
      "Ġ562": 3467,
      "Ġ3320": 3468,
      "Ġcompiler": 3469,
      "Ġ1502": 3470,
      "ĠHelp": 3471,
      "Ġ6380": 3472,
      "6720": 3473,
      "Ġ1406": 3474,
      "Ġ1206": 3475,
      "Ġtrade": 3476,
      "Ġdepending": 3477,
      "Ġ10980": 3478,
      "Ġasked": 3479,
      "Ġowl": 3480,
      "Ġcapybara": 3481,
      "Ġdolphin": 3482,
      "ĠBefore": 3483,
      "Ġturtle": 3484,
      "Ġoctopus": 3485,
      "ĠGardening": 3486,
      "Ġaudience": 3487,
      "Ġsays": 3488,
      "Ġfeel": 3489,
      "Ġ26680": 3490,
      "???": 3491,
      "Ġ<<": 3492,
      "Ġroute": 3493,
      "Ġcomfortable": 3494,
      "pressure": 3495,
      "Ġreceiving": 3496,
      "Ġperiod": 3497,
      "Ġimportant": 3498,
      "Ġsorry": 3499,
      "Ġgentle": 3500,
      "Ġpainter": 3501,
      "Ġbored": 3502,
      "Ġcompletely": 3503,
      "Ġdeciding": 3504,
      "ĠInitialize": 3505,
      "Ġ223860": 3506,
      "Ġchaos": 3507,
      "ĠLisa": 3508,
      "Ġyourself": 3509,
      "Ġunassigned": 3510,
      "156": 3511,
      "194": 3512,
      "191": 3513,
      "200": 3514,
      "250": 3515,
      "256": 3516,
      "360": 3517,
      "344": 3518,
      "442": 3519,
      "470": 3520,
      "458": 3521,
      "550": 3522,
      "556": 3523,
      "536": 3524,
      "592": 3525,
      "558": 3526,
      "577": 3527,
      "740": 3528,
      "760": 3529,
      "718": 3530,
      "ake": 3531,
      "driv": 3532,
      "ef": 3533,
      "ilit": 3534,
      "ravel": 3535,
      "vious": 3536,
      "yone": 3537,
      "Ġ(": 3538,
      "story": 3539,
      "ale": 3540,
      "Ġtho": 3541,
      "Ġtest": 3542,
      "ĠYo": 3543,
      "Ġassistants": 3544,
      "ature": 3545,
      "Ġset": 3546,
      "Ġslog": 3547,
      "Ġ2000": 3548,
      "Ġwai": 3549,
      "rify": 3550,
      "Ġbu": 3551,
      "Ġbus": 3552,
      "aring": 3553,
      "Ġ386": 3554,
      "lay": 3555,
      "Ġ476": 3556,
      "Ġ475": 3557,
      "Ġ434": 3558,
      "Ġ437": 3559,
      "Ġ431": 3560,
      "Ġ447": 3561,
      "Ġ459": 3562,
      "Ġ453": 3563,
      "ech": 3564,
      "ĠTravel": 3565,
      "Ġ612": 3566,
      "Ġ696": 3567,
      "Ġ675": 3568,
      "Ġ635": 3569,
      "Ġ637": 3570,
      "Ġ631": 3571,
      "Ġ619": 3572,
      "Ġ625": 3573,
      "Ġ520": 3574,
      "Ġ550": 3575,
      "Ġ532": 3576,
      "Ġ576": 3577,
      "Ġ578": 3578,
      "Ġ595": 3579,
      "Ġ594": 3580,
      "Ġ522": 3581,
      "Ġ523": 3582,
      "Ġ513": 3583,
      "Ġ527": 3584,
      "Ġ559": 3585,
      "Ġ533": 3586,
      "Ġ736": 3587,
      "Ġ738": 3588,
      "Ġ751": 3589,
      "Ġ723": 3590,
      "Ġ768": 3591,
      "Ġ743": 3592,
      "Ġmood": 3593,
      "Ġ872": 3594,
      "Ġ890": 3595,
      "Ġ851": 3596,
      "Ġ898": 3597,
      "Ġ834": 3598,
      "Ġ886": 3599,
      "Ġ817": 3600,
      "Ġ866": 3601,
      "Ġ814": 3602,
      "004": 3603,
      "Ġ992": 3604,
      "Ġ926": 3605,
      "Ġ974": 3606,
      "Ġ971": 3607,
      "Ġ931": 3608,
      "Ġ927": 3609,
      "Ġ925": 3610,
      "ĠEng": 3611,
      "Ġ1532": 3612,
      "Ġ1552": 3613,
      "Ġ1594": 3614,
      "Ġ1573": 3615,
      "Ġ1096": 3616,
      "Ġ1098": 3617,
      "Ġ1033": 3618,
      "Ġ1180": 3619,
      "Ġ1140": 3620,
      "Ġ1130": 3621,
      "Ġ1142": 3622,
      "Ġ1190": 3623,
      "Ġ1158": 3624,
      "Ġ1174": 3625,
      "Ġ1171": 3626,
      "Ġ1117": 3627,
      "Ġ1173": 3628,
      "Ġ1690": 3629,
      "Ġ1612": 3630,
      "Ġ1652": 3631,
      "Ġ1675": 3632,
      "Ġ1624": 3633,
      "Ġ1440": 3634,
      "Ġ1438": 3635,
      "Ġ1451": 3636,
      "Ġ1437": 3637,
      "Ġ1419": 3638,
      "Ġ1750": 3639,
      "Ġ1758": 3640,
      "Ġ1759": 3641,
      "Ġ1763": 3642,
      "Ġanyone": 3643,
      "keting": 3644,
      "Ġ1380": 3645,
      "Ġ1332": 3646,
      "Ġ1398": 3647,
      "Ġ1371": 3648,
      "Ġ1368": 3649,
      "Ġ1384": 3650,
      "801": 3651,
      "804": 3652,
      "Ġ1251": 3653,
      "Ġ1275": 3654,
      "Ġ1235": 3655,
      "Ġ1234": 3656,
      "Ġ1219": 3657,
      "Ġdelay": 3658,
      "Ġabilit": 3659,
      "204": 3660,
      "205": 3661,
      "209": 3662,
      "Ġ1875": 3663,
      "Ġ1884": 3664,
      "itive": 3665,
      "Ġ1972": 3666,
      "Ġ1954": 3667,
      "Ġ1998": 3668,
      "Ġ1995": 3669,
      "Ġlast": 3670,
      "Ġclarify": 3671,
      "Ġ2240": 3672,
      "Ġ2296": 3673,
      "etitive": 3674,
      "329": 3675,
      "101": 3676,
      "105": 3677,
      "109": 3678,
      "366": 3679,
      "369": 3680,
      "Ġarg": 3681,
      "907": 3682,
      "704": 3683,
      "709": 3684,
      "922": 3685,
      "Ġ304": 3686,
      "964": 3687,
      "Ġstat": 3688,
      "Ġnotes": 3689,
      "462": 3690,
      "464": 3691,
      "465": 3692,
      "Ġ401": 3693,
      "359": 3694,
      "781": 3695,
      "155": 3696,
      "959": 3697,
      "ĠNature": 3698,
      "948": 3699,
      "Ġhim": 3700,
      "261": 3701,
      "264": 3702,
      "Ġ281": 3703,
      "747": 3704,
      "223": 3705,
      "ssed": 3706,
      "114": 3707,
      "Ġlose": 3708,
      "Ġ673": 3709,
      "Ġ602": 3710,
      "913": 3711,
      "919": 3712,
      "Ġchecked": 3713,
      "379": 3714,
      "3736": 3715,
      "Ġrelax": 3716,
      "Ġmarketing": 3717,
      "indow": 3718,
      "141": 3719,
      "Ġmissed": 3720,
      "Ġ383": 3721,
      "Ġ483": 3722,
      "Ġ485": 3723,
      "Ġ702": 3724,
      "Ġ867": 3725,
      "Ġ802": 3726,
      "Ġ845": 3727,
      "Ġ902": 3728,
      "Ġ907": 3729,
      "Ġ321": 3730,
      "Ġdecide": 3731,
      "Ġexactly": 3732,
      "Ġcomparing": 3733,
      "Ġcompetitive": 3734,
      "Ġ587": 3735,
      "Ġ1307": 3736,
      "Ġappro": 3737,
      "Ġ1203": 3738,
      "Ġ1207": 3739,
      "Ġaltern": 3740,
      "Ġ17840": 3741,
      "Ġquestions": 3742,
      "Ġ5960": 3743,
      "Ġfollowing": 3744,
      "ĠHistory": 3745,
      "Ġfrustr": 3746,
      "Ġreading": 3747,
      "ĠSports": 3748,
      "ĠSpaceship": 3749,
      "Ġ22620": 3750,
      "Ġexplanations": 3751,
      "getting": 3752,
      "ĠWithout": 3753,
      "Ġobvious": 3754,
      "Ġrelief": 3755,
      "Ġprompts": 3756,
      "driven": 3757,
      "Ġsettle": 3758,
      "Ġslogan": 3759,
      "Ġwaiting": 3760,
      "ĠEnglish": 3761,
      "Ġalternative": 3762,
      "Ġfrustrating": 3763,
      "!\"": 3764,
      "!(\"": 3765,
      "\",": 3766,
      "\");": 3767,
      "192": 3768,
      "196": 3769,
      "175": 3770,
      "198": 3771,
      "134": 3772,
      "1188": 3773,
      "230": 3774,
      "291": 3775,
      "213": 3776,
      "352": 3777,
      "396": 3778,
      "394": 3779,
      "334": 3780,
      "456": 3781,
      "412": 3782,
      "478": 3783,
      "494": 3784,
      "434": 3785,
      "497": 3786,
      "632": 3787,
      "654": 3788,
      "652": 3789,
      "616": 3790,
      "695": 3791,
      "682": 3792,
      "732": 3793,
      "754": 3794,
      "735": 3795,
      "715": 3796,
      "81": 3797,
      "83": 3798,
      "835": 3799,
      "848": 3800,
      "942": 3801,
      "976": 3802,
      "997": 3803,
      "::": 3804,
      "Axis": 3805,
      "Get": 3806,
      "Print": 3807,
      "Ra": 3808,
      "Rot": 3809,
      "akes": 3810,
      "ces": 3811,
      "cout": 3812,
      "cur": 3813,
      "end": 3814,
      "even": 3815,
      "fn": 3816,
      "func": 3817,
      "fmt": 3818,
      "ga": 3819,
      "gu": 3820,
      "hakes": 3821,
      "import": 3822,
      "nical": 3823,
      "pes": 3824,
      "pit": 3825,
      "ras": 3826,
      "rust": 3827,
      "tate": 3828,
      "tta": 3829,
      "ua": 3830,
      "uth": 3831,
      "wa": 3832,
      "wn": 3833,
      "yo": 3834,
      "{}": 3835,
      "ÃŃ": 3836,
      "Ġ%": 3837,
      "ĠV": 3838,
      "ĠVector": 3839,
      "nto": 3840,
      "ercur": 3841,
      "lia": 3842,
      "liam": 3843,
      "ĠAu": 3844,
      "ĠAust": 3845,
      "ator": 3846,
      "Ġindependent": 3847,
      "Ġonto": 3848,
      "Ġwrite": 3849,
      "Ġwindow": 3850,
      "rid": 3851,
      "ĠWil": 3852,
      "ĠWhether": 3853,
      "Ġflue": 3854,
      "Ġfmt": 3855,
      "oring": 3856,
      "berra": 3857,
      "Ġ330": 3858,
      "Ġ319": 3859,
      "Ġ39800": 3860,
      "Ġtoo": 3861,
      "Ġcovers": 3862,
      "Ġ494": 3863,
      "Ġ448": 3864,
      "Ġ471": 3865,
      "Ġ499": 3866,
      "Ġ473": 3867,
      "Ġ428": 3868,
      "Ġ433": 3869,
      "Ġ4124": 3870,
      "Ġ4486": 3871,
      "ĠTok": 3872,
      "ĠTech": 3873,
      "Ġ656": 3874,
      "Ġ615": 3875,
      "Ġ634": 3876,
      "Ġ659": 3877,
      "Ġ628": 3878,
      "Ġ629": 3879,
      "ĠPhotography": 3880,
      "ĠPari": 3881,
      "Ġ580": 3882,
      "Ġ510": 3883,
      "Ġ592": 3884,
      "Ġ596": 3885,
      "Ġ538": 3886,
      "Ġ598": 3887,
      "Ġ555": 3888,
      "Ġ517": 3889,
      "Ġ524": 3890,
      "Ġ525": 3891,
      "Ġ568": 3892,
      "Ġ557": 3893,
      "Ġ543": 3894,
      "Ġ780": 3895,
      "Ġ750": 3896,
      "Ġ742": 3897,
      "Ġ718": 3898,
      "Ġ792": 3899,
      "Ġ752": 3900,
      "Ġ774": 3901,
      "Ġ797": 3902,
      "Ġ777": 3903,
      "Ġ764": 3904,
      "Ġ763": 3905,
      "Ġ762": 3906,
      "Ġ767": 3907,
      "Ġ7391": 3908,
      "Ġ876": 3909,
      "Ġ822": 3910,
      "Ġ871": 3911,
      "Ġ824": 3912,
      "Ġ893": 3913,
      "Ġ833": 3914,
      "Ġ8424": 3915,
      "006": 3916,
      "0048": 3917,
      "Ġ940": 3918,
      "Ġ970": 3919,
      "Ġ944": 3920,
      "Ġ955": 3921,
      "Ġ986": 3922,
      "Ġ999": 3923,
      "Ġ919": 3924,
      "Ġ957": 3925,
      "Ġ9320": 3926,
      "otator": 3927,
      "Ġ1550": 3928,
      "Ġ1542": 3929,
      "Ġ1590": 3930,
      "Ġ1518": 3931,
      "Ġ1571": 3932,
      "Ġ1517": 3933,
      "Ġ1547": 3934,
      "Ġ1579": 3935,
      "Ġ1519": 3936,
      "ĠMad": 3937,
      "ĠMercur": 3938,
      "Ġambi": 3939,
      "Ġ1080": 3940,
      "Ġ1020": 3941,
      "Ġ1018": 3942,
      "Ġ1052": 3943,
      "Ġ1088": 3944,
      "Ġ1051": 3945,
      "Ġ1094": 3946,
      "Ġ1034": 3947,
      "Ġ1099": 3948,
      "Ġ1043": 3949,
      "Ġ1063": 3950,
      "Ġ1150": 3951,
      "Ġ1156": 3952,
      "Ġ1112": 3953,
      "Ġ1144": 3954,
      "Ġ1188": 3955,
      "Ġ1146": 3956,
      "Ġ1194": 3957,
      "Ġ1122": 3958,
      "Ġ1147": 3959,
      "Ġ1166": 3960,
      "Ġ1113": 3961,
      "Ġ1114": 3962,
      "Ġ1680": 3963,
      "Ġ1650": 3964,
      "Ġ1670": 3965,
      "Ġ1654": 3966,
      "Ġ1638": 3967,
      "Ġ1651": 3968,
      "Ġ1678": 3969,
      "Ġ1622": 3970,
      "Ġ1611": 3971,
      "Ġ1648": 3972,
      "Ġ1637": 3973,
      "Ġ1679": 3974,
      "Ġ1614": 3975,
      "Ġ1659": 3976,
      "Ġ1663": 3977,
      "ĠShakes": 3978,
      "Ġ1400": 3979,
      "Ġ1430": 3980,
      "Ġ1476": 3981,
      "Ġ1454": 3982,
      "Ġ1416": 3983,
      "Ġ1444": 3984,
      "Ġ1446": 3985,
      "Ġ1478": 3986,
      "Ġ1495": 3987,
      "Ġ1455": 3988,
      "Ġ1479": 3989,
      "Ġ1459": 3990,
      "Ġ1710": 3991,
      "Ġ1790": 3992,
      "Ġ1751": 3993,
      "Ġ1795": 3994,
      "Ġ1731": 3995,
      "Ġ1779": 3996,
      "Ġ1768": 3997,
      "Ġ1764": 3998,
      "Ġ1320": 3999,
      "Ġ1338": 4000,
      "Ġ1379": 4001,
      "Ġ1314": 4002,
      "Ġ1364": 4003,
      "Ġ1367": 4004,
      "8032": 4005,
      "Ġ1250": 4006,
      "Ġ1236": 4007,
      "Ġ1272": 4008,
      "Ġ1296": 4009,
      "Ġ1216": 4010,
      "Ġ1271": 4011,
      "Ġ1299": 4012,
      "Ġ1293": 4013,
      "Ġdown": 4014,
      "Ġhard": 4015,
      "ĠInput": 4016,
      "ĠGo": 4017,
      "201": 4018,
      "2082": 4019,
      "Ġbest": 4020,
      "609": 4021,
      "Ġ1840": 4022,
      "Ġ1820": 4023,
      "Ġ1850": 4024,
      "Ġ1856": 4025,
      "Ġ1842": 4026,
      "Ġ1854": 4027,
      "Ġ1817": 4028,
      "Ġ1847": 4029,
      "Ġ1868": 4030,
      "Ġ1828": 4031,
      "Ġ18480": 4032,
      "Ġ2036": 4033,
      "Ġ2066": 4034,
      "Ġ2079": 4035,
      "Ġ2057": 4036,
      "ĠFriend": 4037,
      "Ġ1988": 4038,
      "Ġ1922": 4039,
      "Ġ1984": 4040,
      "Ġ2180": 4041,
      "Ġ2168": 4042,
      "Ġflower": 4043,
      "Ġstd": 4044,
      "Ġ2351": 4045,
      "501": 4046,
      "506": 4047,
      "Ġ2474": 4048,
      "ĠHonest": 4049,
      "Ġ2258": 4050,
      "Ġ22000": 4051,
      "3224": 4052,
      "1056": 4053,
      "1044": 4054,
      "562": 4055,
      "5690": 4056,
      "305": 4057,
      "4256": 4058,
      "727": 4059,
      "7256": 4060,
      "7238": 4061,
      "187": 4062,
      "189": 4063,
      "1800": 4064,
      "701": 4065,
      "707": 4066,
      "921": 4067,
      "541": 4068,
      "545": 4069,
      "547": 4070,
      "Ġ303": 4071,
      "967": 4072,
      "Ġlatch": 4073,
      "Ġtruth": 4074,
      "161": 4075,
      "166": 4076,
      "167": 4077,
      "1640": 4078,
      "Ġprintln": 4079,
      "441": 4080,
      "443": 4081,
      "445": 4082,
      "446": 4083,
      "517": 4084,
      "467": 4085,
      "4696": 4086,
      "757": 4087,
      "Ġ406": 4088,
      "Ġ4046": 4089,
      "Ġ4023": 4090,
      "Ġscale": 4091,
      "Ġscoring": 4092,
      "Ġweak": 4093,
      "ĠWeather": 4094,
      "989": 4095
    },
    "merges": [
      [
        "Ġ",
        "a"
      ],
      [
        "n",
        "t"
      ],
      [
        "s",
        "t"
      ],
      [
        ">",
        ":"
      ],
      [
        "e",
        "r"
      ],
      [
        "s",
        "i"
      ],
      [
        "r",
        "e"
      ],
      [
        "st",
        "a"
      ],
      [
        "o",
        "u"
      ],
      [
        "s",
        "si"
      ],
      [
        "sta",
        "nt"
      ],
      [
        "ssi",
        "stant"
      ],
      [
        "Ġ",
        "i"
      ],
      [
        "Ġ",
        "e"
      ],
      [
        "a",
        "l"
      ],
      [
        "Ġa",
        "re"
      ],
      [
        "l",
        "i"
      ],
      [
        "h",
        "e"
      ],
      [
        "e",
        "m"
      ],
      [
        "u",
        "s"
      ],
      [
        "m",
        "e"
      ],
      [
        "Ġ",
        "C"
      ],
      [
        "h",
        "u"
      ],
      [
        "Ġ",
        "t"
      ],
      [
        "hu",
        "d"
      ],
      [
        "G",
        "P"
      ],
      [
        "GP",
        "T"
      ],
      [
        "ĠC",
        "hud"
      ],
      [
        "ĠChud",
        "GPT"
      ],
      [
        "us",
        "er"
      ],
      [
        "a",
        "ssistant"
      ],
      [
        "p",
        "er"
      ],
      [
        "u",
        "l"
      ],
      [
        "Ġe",
        "x"
      ],
      [
        "Ġ",
        "A"
      ],
      [
        "Ġ",
        "Y"
      ],
      [
        "per",
        "i"
      ],
      [
        "Ġex",
        "peri"
      ],
      [
        "u",
        "b"
      ],
      [
        "li",
        "c"
      ],
      [
        "ub",
        "lic"
      ],
      [
        "Ġ",
        "he"
      ],
      [
        "ĠY",
        "ou"
      ],
      [
        "P",
        "ublic"
      ],
      [
        "me",
        "nt"
      ],
      [
        "Ġexperi",
        "ment"
      ],
      [
        "Ġexperiment",
        "al"
      ],
      [
        "f",
        "ul"
      ],
      [
        "l",
        "p"
      ],
      [
        "ĠA",
        "I"
      ],
      [
        "Ġhe",
        "lp"
      ],
      [
        "y",
        "st"
      ],
      [
        "Ġa",
        "ssistant"
      ],
      [
        "yst",
        "em"
      ],
      [
        "s",
        "ystem"
      ],
      [
        "Ġhelp",
        "ful"
      ],
      [
        "Ġ",
        "1"
      ],
      [
        "o",
        "n"
      ],
      [
        "a",
        "t"
      ],
      [
        "Ġ",
        "s"
      ],
      [
        "Ġ",
        "c"
      ],
      [
        "Ġ",
        "g"
      ],
      [
        "Ġ",
        "I"
      ],
      [
        "Ġ",
        "m"
      ],
      [
        "a",
        "n"
      ],
      [
        "r",
        "ou"
      ],
      [
        "Ġi",
        "s"
      ],
      [
        "Ġg",
        "rou"
      ],
      [
        "Ġgrou",
        "p"
      ],
      [
        "Ġi",
        "t"
      ],
      [
        "Ġ",
        "="
      ],
      [
        "Ġi",
        "n"
      ],
      [
        "Ġ",
        "o"
      ],
      [
        "i",
        "n"
      ],
      [
        "Ġ",
        "2"
      ],
      [
        "l",
        "e"
      ],
      [
        "h",
        "at"
      ],
      [
        "h",
        "o"
      ],
      [
        "Ġ",
        "w"
      ],
      [
        "d",
        "e"
      ],
      [
        "Ġ",
        "Ã"
      ],
      [
        "r",
        "i"
      ],
      [
        "Ġ",
        "W"
      ],
      [
        "l",
        "y"
      ],
      [
        "Ġi",
        "nt"
      ],
      [
        "ĠÃ",
        "·"
      ],
      [
        "Ġ",
        "p"
      ],
      [
        "Ġt",
        "he"
      ],
      [
        "`",
        "`"
      ],
      [
        "a",
        "c"
      ],
      [
        "t",
        "h"
      ],
      [
        "q",
        "u"
      ],
      [
        "Ġ",
        "b"
      ],
      [
        "Ġ",
        "n"
      ],
      [
        "al",
        "ly"
      ],
      [
        "Ġs",
        "p"
      ],
      [
        "em",
        "s"
      ],
      [
        "Ġit",
        "ems"
      ],
      [
        "n",
        "d"
      ],
      [
        "Ġ",
        "f"
      ],
      [
        "o",
        "r"
      ],
      [
        "Ġint",
        "o"
      ],
      [
        "Ġ",
        "ho"
      ],
      [
        "li",
        "t"
      ],
      [
        "Ġ",
        "-"
      ],
      [
        "Ġho",
        "w"
      ],
      [
        "ac",
        "h"
      ],
      [
        "ĠI",
        "f"
      ],
      [
        "Ġm",
        "an"
      ],
      [
        "Ġman",
        "y"
      ],
      [
        "Ġe",
        "ach"
      ],
      [
        "Ġe",
        "qu"
      ],
      [
        "Ġgroup",
        "s"
      ],
      [
        "Ġsp",
        "lit"
      ],
      [
        "Ġequ",
        "ally"
      ],
      [
        "e",
        "s"
      ],
      [
        "Ġ",
        "d"
      ],
      [
        "Ġ",
        "re"
      ],
      [
        "a",
        "s"
      ],
      [
        "i",
        "on"
      ],
      [
        "b",
        "er"
      ],
      [
        "a",
        "r"
      ],
      [
        "m",
        "ber"
      ],
      [
        "Ġ",
        "3"
      ],
      [
        "Ġo",
        "f"
      ],
      [
        "u",
        "mber"
      ],
      [
        "Ġt",
        "o"
      ],
      [
        "e",
        "d"
      ],
      [
        "Ġa",
        "nd"
      ],
      [
        "Ġc",
        "o"
      ],
      [
        "ĠW",
        "hat"
      ],
      [
        "e",
        "n"
      ],
      [
        "l",
        "a"
      ],
      [
        "v",
        "er"
      ],
      [
        "Ġ",
        "4"
      ],
      [
        "in",
        "g"
      ],
      [
        "e",
        "l"
      ],
      [
        "Ġ",
        "y"
      ],
      [
        "r",
        "o"
      ],
      [
        "``",
        "`"
      ],
      [
        "e",
        "c"
      ],
      [
        "Ġ",
        "T"
      ],
      [
        "Ġt",
        "hat"
      ],
      [
        "i",
        "c"
      ],
      [
        "Ġy",
        "ou"
      ],
      [
        "Ġn",
        "umber"
      ],
      [
        "h",
        "i"
      ],
      [
        "c",
        "e"
      ],
      [
        "Ġ",
        "6"
      ],
      [
        "Ġ",
        "P"
      ],
      [
        "a",
        "v"
      ],
      [
        "Ġ",
        "5"
      ],
      [
        "i",
        "v"
      ],
      [
        "s",
        "e"
      ],
      [
        "y",
        "th"
      ],
      [
        "yth",
        "on"
      ],
      [
        "Ġ",
        "li"
      ],
      [
        "Ġ",
        "7"
      ],
      [
        "l",
        "o"
      ],
      [
        "t",
        "ion"
      ],
      [
        "Ġm",
        "o"
      ],
      [
        "Ġ",
        "8"
      ],
      [
        "Ġ",
        "me"
      ],
      [
        "0",
        "0"
      ],
      [
        "Ġ",
        "on"
      ],
      [
        "Ġ",
        "9"
      ],
      [
        "t",
        "e"
      ],
      [
        "o",
        "t"
      ],
      [
        "Ġ",
        "E"
      ],
      [
        "ver",
        "y"
      ],
      [
        "Ġ1",
        "5"
      ],
      [
        "Ġc",
        "an"
      ],
      [
        "g",
        "h"
      ],
      [
        "h",
        "y"
      ],
      [
        "Ġw",
        "i"
      ],
      [
        "Ġm",
        "a"
      ],
      [
        "ri",
        "te"
      ],
      [
        "Ġ",
        "M"
      ],
      [
        "Ġa",
        "m"
      ],
      [
        "r",
        "a"
      ],
      [
        "Ġ1",
        "0"
      ],
      [
        "Ġo",
        "r"
      ],
      [
        "m",
        "p"
      ],
      [
        "Ġt",
        "h"
      ],
      [
        "u",
        "n"
      ],
      [
        "Ġo",
        "p"
      ],
      [
        "at",
        "e"
      ],
      [
        "Ġ1",
        "1"
      ],
      [
        "Ġ1",
        "6"
      ],
      [
        "Ġ",
        "S"
      ],
      [
        "Ġ1",
        "4"
      ],
      [
        "Ġ",
        "```"
      ],
      [
        "Ġd",
        "i"
      ],
      [
        "Ġ1",
        "7"
      ],
      [
        "ĠP",
        "ython"
      ],
      [
        "ou",
        "t"
      ],
      [
        "ĠW",
        "rite"
      ],
      [
        "ĠT",
        "he"
      ],
      [
        "Ġa",
        "n"
      ],
      [
        "us",
        "e"
      ],
      [
        "k",
        "e"
      ],
      [
        "Ġ1",
        "3"
      ],
      [
        "iv",
        "e"
      ],
      [
        "8",
        "0"
      ],
      [
        "Ġ1",
        "2"
      ],
      [
        "Ġd",
        "o"
      ],
      [
        "Ġ",
        "h"
      ],
      [
        "an",
        "g"
      ],
      [
        "Ġ",
        "de"
      ],
      [
        "ĠI",
        "n"
      ],
      [
        "Ġp",
        "u"
      ],
      [
        "Ġ",
        "G"
      ],
      [
        "el",
        "l"
      ],
      [
        "4",
        "0"
      ],
      [
        "de",
        "l"
      ],
      [
        "Ġb",
        "ec"
      ],
      [
        "Ġa",
        "b"
      ],
      [
        "2",
        "0"
      ],
      [
        "a",
        "i"
      ],
      [
        "z",
        "z"
      ],
      [
        "zz",
        "le"
      ],
      [
        "Ġb",
        "e"
      ],
      [
        "6",
        "0"
      ],
      [
        "c",
        "on"
      ],
      [
        "Ġc",
        "on"
      ],
      [
        "Ġf",
        "or"
      ],
      [
        "Ġpu",
        "zzle"
      ],
      [
        "n",
        "umber"
      ],
      [
        "a",
        "use"
      ],
      [
        "Ġmo",
        "del"
      ],
      [
        "Ġ1",
        "8"
      ],
      [
        "a",
        "p"
      ],
      [
        "e",
        "p"
      ],
      [
        "er",
        "e"
      ],
      [
        "i",
        "t"
      ],
      [
        "l",
        "d"
      ],
      [
        "Ġ",
        "r"
      ],
      [
        "Ġwi",
        "th"
      ],
      [
        "gh",
        "t"
      ],
      [
        "ĠT",
        "ell"
      ],
      [
        "Ġ2",
        "0"
      ],
      [
        "s",
        "c"
      ],
      [
        "u",
        "r"
      ],
      [
        "Ġon",
        "e"
      ],
      [
        "Ġbec",
        "ause"
      ],
      [
        "n",
        "g"
      ],
      [
        "ri",
        "nt"
      ],
      [
        "l",
        "or"
      ],
      [
        "u",
        "c"
      ],
      [
        "Ġn",
        "e"
      ],
      [
        "u",
        "e"
      ],
      [
        "Ġab",
        "out"
      ],
      [
        "Ġe",
        "very"
      ],
      [
        "Ġ",
        "F"
      ],
      [
        "Ġ1",
        "9"
      ],
      [
        "de",
        "x"
      ],
      [
        "Ġdo",
        "es"
      ],
      [
        "Ġ",
        "v"
      ],
      [
        "en",
        "ce"
      ],
      [
        "a",
        "g"
      ],
      [
        "Ġ",
        "si"
      ],
      [
        "at",
        "ion"
      ],
      [
        "hi",
        "s"
      ],
      [
        "o",
        "re"
      ],
      [
        "Ġt",
        "his"
      ],
      [
        "Ġ2",
        "1"
      ],
      [
        "Ġco",
        "lor"
      ],
      [
        "l",
        "l"
      ],
      [
        "re",
        "t"
      ],
      [
        ")",
        ";"
      ],
      [
        "Ġf",
        "lo"
      ],
      [
        "Ġ",
        "la"
      ],
      [
        "Ġflo",
        "at"
      ],
      [
        "k",
        "es"
      ],
      [
        "f",
        "t"
      ],
      [
        "Ġ",
        "st"
      ],
      [
        "Ġ",
        "J"
      ],
      [
        "o",
        "i"
      ],
      [
        "ou",
        "ld"
      ],
      [
        "i",
        "de"
      ],
      [
        "Ġs",
        "ec"
      ],
      [
        "Ġsec",
        "ret"
      ],
      [
        "o",
        "w"
      ],
      [
        "p",
        "ython"
      ],
      [
        "Ġ2",
        "3"
      ],
      [
        "Ġw",
        "hat"
      ],
      [
        "s",
        "o"
      ],
      [
        "ri",
        "e"
      ],
      [
        "d",
        "uc"
      ],
      [
        "Ġ",
        "+"
      ],
      [
        "5",
        "0"
      ],
      [
        "b",
        "el"
      ],
      [
        "Ġla",
        "bel"
      ],
      [
        "Ġp",
        "ro"
      ],
      [
        "Ġs",
        "o"
      ],
      [
        "Ġop",
        "tion"
      ],
      [
        "Ġb",
        "y"
      ],
      [
        "Ġ2",
        "4"
      ],
      [
        "r",
        "t"
      ],
      [
        "Ġ",
        "H"
      ],
      [
        "oi",
        "nt"
      ],
      [
        "e",
        "nt"
      ],
      [
        "p",
        "t"
      ],
      [
        "Ġw",
        "ould"
      ],
      [
        "c",
        "ri"
      ],
      [
        "Ġli",
        "kes"
      ],
      [
        "Ġc",
        "la"
      ],
      [
        "cri",
        "pt"
      ],
      [
        "c",
        "ul"
      ],
      [
        "at",
        "h"
      ],
      [
        "con",
        "st"
      ],
      [
        "Ġin",
        "dex"
      ],
      [
        "Ġw",
        "hy"
      ],
      [
        "la",
        "in"
      ],
      [
        "f",
        "se"
      ],
      [
        "Ġof",
        "fse"
      ],
      [
        "hi",
        "ft"
      ],
      [
        "Ġoffse",
        "t"
      ],
      [
        "hift",
        "ed"
      ],
      [
        "Ġm",
        "in"
      ],
      [
        "Ġcla",
        "mp"
      ],
      [
        "Ġ",
        "U"
      ],
      [
        "Ġ2",
        "2"
      ],
      [
        "Ġit",
        "s"
      ],
      [
        "Ġs",
        "ho"
      ],
      [
        "t",
        "s"
      ],
      [
        "us",
        "s"
      ],
      [
        "Ġ",
        "le"
      ],
      [
        "ver",
        "s"
      ],
      [
        "Ġcon",
        "vers"
      ],
      [
        "Ġconvers",
        "ation"
      ],
      [
        "ĠW",
        "hy"
      ],
      [
        "â",
        "Ģ"
      ],
      [
        "âĢ",
        "Ķ"
      ],
      [
        "Ġh",
        "as"
      ],
      [
        "e",
        "t"
      ],
      [
        "Ġdi",
        "sc"
      ],
      [
        "3",
        "2"
      ],
      [
        "ai",
        "l"
      ],
      [
        "al",
        "ue"
      ],
      [
        "ĠC",
        "al"
      ],
      [
        "Ġd",
        "ou"
      ],
      [
        "Ġdisc",
        "uss"
      ],
      [
        "w",
        "e"
      ],
      [
        "Ġth",
        "an"
      ],
      [
        "ĠG",
        "ot"
      ],
      [
        "ath",
        "er"
      ],
      [
        "1",
        "0"
      ],
      [
        "5",
        "6"
      ],
      [
        "3",
        "0"
      ],
      [
        "Ġ",
        "us"
      ],
      [
        "a",
        "nt"
      ],
      [
        "4",
        "2"
      ],
      [
        "Ġco",
        "de"
      ],
      [
        "en",
        "er"
      ],
      [
        "Ġg",
        "ener"
      ],
      [
        "Ġre",
        "s"
      ],
      [
        "Ġsho",
        "rt"
      ],
      [
        "'",
        "s"
      ],
      [
        "a",
        "re"
      ],
      [
        "u",
        "re"
      ],
      [
        "Ġ",
        "*"
      ],
      [
        "3",
        "6"
      ],
      [
        "Ġ",
        "per"
      ],
      [
        "Ġa",
        "r"
      ],
      [
        "ar",
        "th"
      ],
      [
        "b",
        "le"
      ],
      [
        "al",
        "k"
      ],
      [
        "Ġt",
        "alk"
      ],
      [
        "in",
        "ion"
      ],
      [
        "Ġop",
        "inion"
      ],
      [
        "7",
        "6"
      ],
      [
        "ou",
        "s"
      ],
      [
        "Ġw",
        "at"
      ],
      [
        "cul",
        "ate"
      ],
      [
        "ĠCal",
        "culate"
      ],
      [
        "ĠE",
        "arth"
      ],
      [
        "o",
        "me"
      ],
      [
        "Ġa",
        "t"
      ],
      [
        "Ġwat",
        "er"
      ],
      [
        "ĠÃ",
        "Ĺ"
      ],
      [
        "7",
        "2"
      ],
      [
        "9",
        "0"
      ],
      [
        "ce",
        "nt"
      ],
      [
        "Ġne",
        "w"
      ],
      [
        "Ġd",
        "iv"
      ],
      [
        "ide",
        "d"
      ],
      [
        "Ġdiv",
        "ided"
      ],
      [
        "ĠF",
        "or"
      ],
      [
        "ĠM",
        "y"
      ],
      [
        "1",
        "8"
      ],
      [
        "Ġg",
        "ive"
      ],
      [
        "7",
        "0"
      ],
      [
        "9",
        "2"
      ],
      [
        "as",
        "on"
      ],
      [
        "it",
        "y"
      ],
      [
        "Ġc",
        "as"
      ],
      [
        "Ġcas",
        "u"
      ],
      [
        "ag",
        "e"
      ],
      [
        "5",
        "4"
      ],
      [
        "o",
        "l"
      ],
      [
        "1",
        "2"
      ],
      [
        "al",
        "l"
      ],
      [
        "x",
        "t"
      ],
      [
        "ĠE",
        "very"
      ],
      [
        "5",
        "2"
      ],
      [
        "Ġ3",
        "0"
      ],
      [
        "9",
        "6"
      ],
      [
        "Ġ",
        "l"
      ],
      [
        "5",
        "8"
      ],
      [
        "Ġt",
        "r"
      ],
      [
        "Ġw",
        "ant"
      ],
      [
        "a",
        "me"
      ],
      [
        "Ġto",
        "p"
      ],
      [
        "Ġtop",
        "ic"
      ],
      [
        "1",
        "6"
      ],
      [
        "ra",
        "in"
      ],
      [
        "Ġp",
        "rint"
      ],
      [
        "o",
        "k"
      ],
      [
        "t",
        "er"
      ],
      [
        "p",
        "oint"
      ],
      [
        "e",
        "xt"
      ],
      [
        "d",
        "s"
      ],
      [
        "m",
        "s"
      ],
      [
        "Ġ",
        "sta"
      ],
      [
        "lo",
        "g"
      ],
      [
        "Ġwi",
        "ll"
      ],
      [
        "p",
        "rint"
      ],
      [
        "av",
        "e"
      ],
      [
        "Ġa",
        "d"
      ],
      [
        "Ġp",
        "ar"
      ],
      [
        "Ġli",
        "st"
      ],
      [
        "ur",
        "n"
      ],
      [
        "3",
        "8"
      ],
      [
        "Ġma",
        "in"
      ],
      [
        "ec",
        "t"
      ],
      [
        "Ġ",
        "K"
      ],
      [
        "Ġco",
        "me"
      ],
      [
        "ore",
        "s"
      ],
      [
        "Ġst",
        "ores"
      ],
      [
        "Ġdou",
        "ble"
      ],
      [
        "Ġper",
        "cent"
      ],
      [
        "Ġprint",
        "s"
      ],
      [
        "rie",
        "nd"
      ],
      [
        "Ġint",
        "ere"
      ],
      [
        "Ġre",
        "ason"
      ],
      [
        "duc",
        "tion"
      ],
      [
        "Ġintere",
        "st"
      ],
      [
        "4",
        "4"
      ],
      [
        "Ġco",
        "nt"
      ],
      [
        "Ġr",
        "ather"
      ],
      [
        "Ġf",
        "riend"
      ],
      [
        "Ġn",
        "ot"
      ],
      [
        "i",
        "r"
      ],
      [
        "Ġde",
        "t"
      ],
      [
        "an",
        "s"
      ],
      [
        "8",
        "8"
      ],
      [
        "5",
        "1"
      ],
      [
        "Ġa",
        "s"
      ],
      [
        "c",
        "le"
      ],
      [
        "o",
        "d"
      ],
      [
        "mp",
        "le"
      ],
      [
        "p",
        "lain"
      ],
      [
        "Ġthe",
        "m"
      ],
      [
        "Ġre",
        "t"
      ],
      [
        "Ġi",
        "de"
      ],
      [
        "ĠK",
        "e"
      ],
      [
        "Ġret",
        "urn"
      ],
      [
        "u",
        "st"
      ],
      [
        "Ġexperi",
        "ence"
      ],
      [
        "a",
        "m"
      ],
      [
        "Ġma",
        "ke"
      ],
      [
        "so",
        "le"
      ],
      [
        "4",
        "6"
      ],
      [
        "7",
        "5"
      ],
      [
        "t",
        "al"
      ],
      [
        "Ġ4",
        "0"
      ],
      [
        "Ġs",
        "c"
      ],
      [
        "ar",
        "d"
      ],
      [
        "un",
        "c"
      ],
      [
        "c",
        "t"
      ],
      [
        "Ġ",
        "ke"
      ],
      [
        "Ġw",
        "e"
      ],
      [
        "ĠW",
        "e"
      ],
      [
        "Ġ",
        "0"
      ],
      [
        "Ġre",
        "al"
      ],
      [
        "ĠKe",
        "ep"
      ],
      [
        "9",
        "8"
      ],
      [
        "Ġ2",
        "5"
      ],
      [
        "ĠE",
        "x"
      ],
      [
        "3",
        "5"
      ],
      [
        "ic",
        "k"
      ],
      [
        "Ġint",
        "ro"
      ],
      [
        "Ġgener",
        "ic"
      ],
      [
        "Ġdet",
        "ail"
      ],
      [
        "Ġintro",
        "duction"
      ],
      [
        "7",
        "8"
      ],
      [
        "Ġke",
        "ep"
      ],
      [
        "Ġc",
        "h"
      ],
      [
        "1",
        "5"
      ],
      [
        "9",
        "5"
      ],
      [
        "o",
        "on"
      ],
      [
        "Ġ",
        "N"
      ],
      [
        "9",
        "4"
      ],
      [
        "u",
        "age"
      ],
      [
        "Ġ",
        "hi"
      ],
      [
        "ang",
        "uage"
      ],
      [
        "g",
        "n"
      ],
      [
        "Ġc",
        "ho"
      ],
      [
        "ĠH",
        "ow"
      ],
      [
        "Ġl",
        "anguage"
      ],
      [
        "ĠG",
        "ive"
      ],
      [
        "2",
        "6"
      ],
      [
        "Ġs",
        "ent"
      ],
      [
        "Ġpar",
        "t"
      ],
      [
        "Ġsent",
        "ence"
      ],
      [
        "Ġnumber",
        "s"
      ],
      [
        "i",
        "m"
      ],
      [
        "Ġ2",
        "8"
      ],
      [
        "ĠEx",
        "plain"
      ],
      [
        "or",
        "y"
      ],
      [
        "3",
        "4"
      ],
      [
        "Ġhi",
        "st"
      ],
      [
        "Ġ",
        "D"
      ],
      [
        "Ġ",
        "hu"
      ],
      [
        "av",
        "a"
      ],
      [
        "Ġma",
        "x"
      ],
      [
        "Ġsta",
        "r"
      ],
      [
        "si",
        "ng"
      ],
      [
        "Ġ5",
        "0"
      ],
      [
        "Ġv",
        "i"
      ],
      [
        "Ġs",
        "qu"
      ],
      [
        "Ġ=",
        ">"
      ],
      [
        "Ġsqu",
        "are"
      ],
      [
        "S",
        "cript"
      ],
      [
        "p",
        "on"
      ],
      [
        "Ġsi",
        "mple"
      ],
      [
        "ĠJ",
        "ava"
      ],
      [
        "Ġres",
        "pon"
      ],
      [
        "Ġc",
        "le"
      ],
      [
        "de",
        "f"
      ],
      [
        "Ġp",
        "la"
      ],
      [
        "Ġ-",
        ">"
      ],
      [
        "Ġcasu",
        "al"
      ],
      [
        "Ġrespon",
        "d"
      ],
      [
        "Ġcle",
        "ar"
      ],
      [
        "7",
        "4"
      ],
      [
        "j",
        "av"
      ],
      [
        "o",
        "v"
      ],
      [
        "as",
        "cript"
      ],
      [
        "ra",
        "y"
      ],
      [
        "Ġbe",
        "t"
      ],
      [
        "con",
        "sole"
      ],
      [
        "Ġar",
        "ray"
      ],
      [
        "ĠJava",
        "Script"
      ],
      [
        "jav",
        "ascript"
      ],
      [
        "2",
        "2"
      ],
      [
        "e",
        "ed"
      ],
      [
        "Ġad",
        "ds"
      ],
      [
        "Ġ",
        "ro"
      ],
      [
        "a",
        "y"
      ],
      [
        "m",
        "ap"
      ],
      [
        "s",
        "hifted"
      ],
      [
        "Ġt",
        "ri"
      ],
      [
        "Ġs",
        "hifted"
      ],
      [
        "unc",
        "tion"
      ],
      [
        "we",
        "en"
      ],
      [
        "Ġbet",
        "ween"
      ],
      [
        ")",
        ")"
      ],
      [
        "v",
        "alue"
      ],
      [
        "Ġ2",
        "6"
      ],
      [
        "Ġf",
        "unction"
      ],
      [
        "Ġclamp",
        "s"
      ],
      [
        "i",
        "le"
      ],
      [
        "Ġ",
        "L"
      ],
      [
        "Ġh",
        "ave"
      ],
      [
        "s",
        "s"
      ],
      [
        "1",
        "1"
      ],
      [
        "Ġb",
        "rie"
      ],
      [
        "ĠU",
        "se"
      ],
      [
        "Ġbrie",
        "f"
      ],
      [
        "Ġ",
        "lo"
      ],
      [
        "Ġ3",
        "6"
      ],
      [
        "3",
        "9"
      ],
      [
        "Ġw",
        "as"
      ],
      [
        "Ġto",
        "tal"
      ],
      [
        "ro",
        "m"
      ],
      [
        "x",
        "ag"
      ],
      [
        "Ġhe",
        "xag"
      ],
      [
        "Ġc",
        "u"
      ],
      [
        "Ġhexag",
        "on"
      ],
      [
        "ri",
        "ous"
      ],
      [
        "Ġcu",
        "rious"
      ],
      [
        "p",
        "p"
      ],
      [
        "w",
        "ard"
      ],
      [
        "Ġt",
        "er"
      ],
      [
        "d",
        "i"
      ],
      [
        "nd",
        "s"
      ],
      [
        "f",
        "or"
      ],
      [
        "Ġre",
        "duc"
      ],
      [
        "Ġus",
        "es"
      ],
      [
        "th",
        "ing"
      ],
      [
        "Ġhist",
        "ory"
      ],
      [
        "4",
        "8"
      ],
      [
        "o",
        "se"
      ],
      [
        "Ġc",
        "ir"
      ],
      [
        "as",
        "ed"
      ],
      [
        "Ġcir",
        "cle"
      ],
      [
        "Ġf",
        "am"
      ],
      [
        "Ġ6",
        "7"
      ],
      [
        "ang",
        "e"
      ],
      [
        "Ġfam",
        "i"
      ],
      [
        "c",
        "o"
      ],
      [
        "ĠC",
        "o"
      ],
      [
        "Ġs",
        "ai"
      ],
      [
        "Ġsai",
        "d"
      ],
      [
        "ang",
        "le"
      ],
      [
        "Ġtri",
        "angle"
      ],
      [
        "Ġyou",
        "r"
      ],
      [
        "Ġter",
        "ms"
      ],
      [
        "m",
        "all"
      ],
      [
        "Ġcont",
        "ext"
      ],
      [
        "7",
        "1"
      ],
      [
        "l",
        "us"
      ],
      [
        "Ġc",
        "he"
      ],
      [
        "ĠP",
        "lus"
      ],
      [
        "Ġli",
        "ght"
      ],
      [
        "ĠD",
        "o"
      ],
      [
        "Ġpla",
        "y"
      ],
      [
        "Ġs",
        "mall"
      ],
      [
        "Ġ6",
        "0"
      ],
      [
        "Ġ",
        "k"
      ],
      [
        "Ġc",
        "ar"
      ],
      [
        "Ġ",
        "B"
      ],
      [
        "Ġmin",
        "d"
      ],
      [
        "c",
        "k"
      ],
      [
        "ou",
        "r"
      ],
      [
        "Ġo",
        "ce"
      ],
      [
        "Ġfami",
        "ly"
      ],
      [
        "9",
        "1"
      ],
      [
        "nt",
        "y"
      ],
      [
        "in",
        "k"
      ],
      [
        "Ġv",
        "alue"
      ],
      [
        "8",
        "2"
      ],
      [
        "9",
        "7"
      ],
      [
        "f",
        "ile"
      ],
      [
        "Ġpro",
        "file"
      ],
      [
        "5",
        "5"
      ],
      [
        "8",
        "6"
      ],
      [
        "l",
        "as"
      ],
      [
        "av",
        "y"
      ],
      [
        "Ġmo",
        "st"
      ],
      [
        "Ġp",
        "oint"
      ],
      [
        "ĠS",
        "ure"
      ],
      [
        "Ġsi",
        "de"
      ],
      [
        "ĠYou",
        "r"
      ],
      [
        "at",
        "ter"
      ],
      [
        "Ġi",
        "f"
      ],
      [
        "ri",
        "b"
      ],
      [
        "Ġinterest",
        "s"
      ],
      [
        "n",
        "ow"
      ],
      [
        "Ġ",
        "R"
      ],
      [
        "Ġp",
        "lain"
      ],
      [
        "Ġche",
        "ck"
      ],
      [
        "1",
        "7"
      ],
      [
        "3",
        "7"
      ],
      [
        "Ġ",
        "z"
      ],
      [
        "Ġplay",
        "ful"
      ],
      [
        "Ġk",
        "now"
      ],
      [
        "Ġs",
        "un"
      ],
      [
        "Ġhu",
        "h"
      ],
      [
        "9",
        "9"
      ],
      [
        "er",
        "o"
      ],
      [
        "f",
        "f"
      ],
      [
        "ou",
        "nt"
      ],
      [
        "on",
        "g"
      ],
      [
        "Ġz",
        "ero"
      ],
      [
        "l",
        "ver"
      ],
      [
        "v",
        "ing"
      ],
      [
        "x",
        "ed"
      ],
      [
        "ĠC",
        "ho"
      ],
      [
        "ac",
        "t"
      ],
      [
        "Ġsi",
        "lver"
      ],
      [
        "Ġcho",
        "se"
      ],
      [
        "Ġplain",
        "er"
      ],
      [
        "ĠCho",
        "ose"
      ],
      [
        "Ġg",
        "re"
      ],
      [
        "ĠW",
        "ho"
      ],
      [
        "ar",
        "n"
      ],
      [
        "Ġle",
        "arn"
      ],
      [
        "3",
        "1"
      ],
      [
        "4",
        "7"
      ],
      [
        "Ġ",
        "out"
      ],
      [
        "Ġtr",
        "ans"
      ],
      [
        "rou",
        "ght"
      ],
      [
        "Ġb",
        "rought"
      ],
      [
        "Ġre",
        "f"
      ],
      [
        "iv",
        "es"
      ],
      [
        "Ġide",
        "as"
      ],
      [
        "in",
        "e"
      ],
      [
        "Ġreduc",
        "ed"
      ],
      [
        "u",
        "t"
      ],
      [
        "ul",
        "t"
      ],
      [
        "Ġm",
        "em"
      ],
      [
        "v",
        "e"
      ],
      [
        "Ġc",
        "or"
      ],
      [
        "Ġsp",
        "eed"
      ],
      [
        "Ġf",
        "rom"
      ],
      [
        "6",
        "6"
      ],
      [
        "l",
        "ue"
      ],
      [
        "ĠP",
        "ro"
      ],
      [
        "ng",
        "th"
      ],
      [
        "o",
        "le"
      ],
      [
        "Ġs",
        "e"
      ],
      [
        "Ġre",
        "la"
      ],
      [
        "Ġli",
        "me"
      ],
      [
        "Ġvi",
        "ole"
      ],
      [
        "Ġcor",
        "al"
      ],
      [
        "Ġviole",
        "t"
      ],
      [
        "i",
        "l"
      ],
      [
        "Ġm",
        "ar"
      ],
      [
        "in",
        "d"
      ],
      [
        "in",
        "s"
      ],
      [
        "Ġres",
        "ult"
      ],
      [
        "Ġb",
        "lue"
      ],
      [
        "Ġf",
        "ail"
      ],
      [
        "2",
        "4"
      ],
      [
        "b",
        "ased"
      ],
      [
        "i",
        "so"
      ],
      [
        "Ġa",
        "mber"
      ],
      [
        "Ġe",
        "nds"
      ],
      [
        "ĠIn",
        "dex"
      ],
      [
        "Ġr",
        "ange"
      ],
      [
        "Ġindex",
        "es"
      ],
      [
        "Ġcheck",
        "point"
      ],
      [
        "Ġfail",
        "s"
      ],
      [
        "i",
        "ous"
      ],
      [
        "ere",
        "nt"
      ],
      [
        "ff",
        "erent"
      ],
      [
        "Ġg",
        "ives"
      ],
      [
        "Ġ7",
        "5"
      ],
      [
        "Ġdi",
        "fferent"
      ],
      [
        "Ġrela",
        "xed"
      ],
      [
        "i",
        "per"
      ],
      [
        "le",
        "nty"
      ],
      [
        "Ġp",
        "lenty"
      ],
      [
        "Ġmo",
        "re"
      ],
      [
        "ĠM",
        "iso"
      ],
      [
        "un",
        "iper"
      ],
      [
        "Ġopinion",
        "s"
      ],
      [
        "for",
        "m"
      ],
      [
        "Ġmar",
        "oon"
      ],
      [
        "Ġme",
        "an"
      ],
      [
        "Ġne",
        "ed"
      ],
      [
        "i",
        "z"
      ],
      [
        "ĠC",
        "ome"
      ],
      [
        "Ġs",
        "er"
      ],
      [
        "i",
        "x"
      ],
      [
        "j",
        "ect"
      ],
      [
        "u",
        "g"
      ],
      [
        "y",
        "an"
      ],
      [
        "Ġc",
        "yan"
      ],
      [
        "Ġp",
        "re"
      ],
      [
        "ĠJ",
        "uniper"
      ],
      [
        "i",
        "me"
      ],
      [
        "2",
        "3"
      ],
      [
        "1",
        "3"
      ],
      [
        "c",
        "hi"
      ],
      [
        "av",
        "el"
      ],
      [
        "ĠCome",
        "t"
      ],
      [
        "7",
        "9"
      ],
      [
        "1",
        "9"
      ],
      [
        "c",
        "h"
      ],
      [
        "g",
        "y"
      ],
      [
        "n",
        "ce"
      ],
      [
        "Ġs",
        "ou"
      ],
      [
        "Ġo",
        "x"
      ],
      [
        "ĠS",
        "ol"
      ],
      [
        "1",
        "4"
      ],
      [
        "Ġn",
        "avy"
      ],
      [
        "ĠF",
        "ind"
      ],
      [
        "ix",
        "el"
      ],
      [
        "e",
        "st"
      ],
      [
        "v",
        "ed"
      ],
      [
        "Ġ4",
        "6"
      ],
      [
        "rain",
        "ing"
      ],
      [
        "Ġtr",
        "avel"
      ],
      [
        "g",
        "ra"
      ],
      [
        "r",
        "y"
      ],
      [
        "at",
        "ive"
      ],
      [
        "Ġd",
        "ro"
      ],
      [
        "ĠP",
        "ixel"
      ],
      [
        "2",
        "7"
      ],
      [
        "Ġf",
        "o"
      ],
      [
        "Ġar",
        "chi"
      ],
      [
        "c",
        "ho"
      ],
      [
        "or",
        "ts"
      ],
      [
        "as",
        "e"
      ],
      [
        "Ġth",
        "ing"
      ],
      [
        "ĠM",
        "ap"
      ],
      [
        "Ġth",
        "ink"
      ],
      [
        "Ġtopic",
        "s"
      ],
      [
        "Ġsc",
        "ore"
      ],
      [
        "ĠMap",
        "le"
      ],
      [
        "Ġ",
        "Public"
      ],
      [
        "Ġm",
        "i"
      ],
      [
        "im",
        "al"
      ],
      [
        "ĠSol",
        "ve"
      ],
      [
        "k",
        "en"
      ],
      [
        "Ġ",
        "j"
      ],
      [
        "li",
        "ght"
      ],
      [
        "Ġbe",
        "en"
      ],
      [
        "Ġsun",
        "light"
      ],
      [
        "Ġthink",
        "ing"
      ],
      [
        "2",
        "5"
      ],
      [
        "h",
        "ic"
      ],
      [
        "t",
        "las"
      ],
      [
        "re",
        "ative"
      ],
      [
        "ĠA",
        "tlas"
      ],
      [
        "Ġc",
        "reative"
      ],
      [
        "ot",
        "ic"
      ],
      [
        "Ġser",
        "ving"
      ],
      [
        "hic",
        "h"
      ],
      [
        "a",
        "otic"
      ],
      [
        "d",
        "ic"
      ],
      [
        "i",
        "s"
      ],
      [
        "w",
        "it"
      ],
      [
        "Ġ",
        "qu"
      ],
      [
        "rou",
        "gh"
      ],
      [
        "ĠJ",
        "ust"
      ],
      [
        "wit",
        "ch"
      ],
      [
        "v",
        "i"
      ],
      [
        "sta",
        "nce"
      ],
      [
        "Ġs",
        "ur"
      ],
      [
        "Ġm",
        "y"
      ],
      [
        "Ġ3",
        "8"
      ],
      [
        "Ġ4",
        "8"
      ],
      [
        "Ġan",
        "imal"
      ],
      [
        "Ġst",
        "r"
      ],
      [
        "Ġe",
        "n"
      ],
      [
        "ĠS",
        "witch"
      ],
      [
        "Ġtrans",
        "form"
      ],
      [
        "Ġp",
        "ick"
      ],
      [
        "Ġ3",
        "4"
      ],
      [
        "6",
        "8"
      ],
      [
        "7",
        "7"
      ],
      [
        "a",
        "d"
      ],
      [
        "w",
        "er"
      ],
      [
        "Ġ",
        "ri"
      ],
      [
        "Ġli",
        "ke"
      ],
      [
        "Ġinterest",
        "ing"
      ],
      [
        "b",
        "ot"
      ],
      [
        "o",
        "rite"
      ],
      [
        "p",
        "ri"
      ],
      [
        "Ġc",
        "ap"
      ],
      [
        "Ġf",
        "av"
      ],
      [
        "Ġre",
        "m"
      ],
      [
        "lo",
        "w"
      ],
      [
        "ĠE",
        "cho"
      ],
      [
        "Ġcasu",
        "ally"
      ],
      [
        "ĠL",
        "et"
      ],
      [
        "Ġfav",
        "orite"
      ],
      [
        "ĠS",
        "ome"
      ],
      [
        "Ġsur",
        "pri"
      ],
      [
        "ĠSome",
        "thing"
      ],
      [
        "Ġsurpri",
        "sing"
      ],
      [
        ".",
        "."
      ],
      [
        "9",
        "3"
      ],
      [
        "u",
        "sing"
      ],
      [
        "si",
        "c"
      ],
      [
        "Ġpre",
        "dic"
      ],
      [
        "h",
        "ere"
      ],
      [
        "al",
        "th"
      ],
      [
        "Ġre",
        "p"
      ],
      [
        "Ġ4",
        "4"
      ],
      [
        "Ġ7",
        "0"
      ],
      [
        "ĠCo",
        "de"
      ],
      [
        "s",
        "p"
      ],
      [
        "Ġp",
        "ublic"
      ],
      [
        "Ġb",
        "o"
      ],
      [
        "Ġa",
        "ct"
      ],
      [
        "ĠW",
        "hich"
      ],
      [
        "Ġfor",
        "ms"
      ],
      [
        "ĠT",
        "hat"
      ],
      [
        "Ġ6",
        "6"
      ],
      [
        "Ġ8",
        "6"
      ],
      [
        "ĠN",
        "ov"
      ],
      [
        "ĠNov",
        "a"
      ],
      [
        "p",
        "le"
      ],
      [
        "Ġre",
        "d"
      ],
      [
        "Ġre",
        "co"
      ],
      [
        "Ġth",
        "rough"
      ],
      [
        "Ġgre",
        "en"
      ],
      [
        "5",
        "9"
      ],
      [
        "u",
        "m"
      ],
      [
        "Ġs",
        "a"
      ],
      [
        "7",
        "3"
      ],
      [
        "s",
        "wer"
      ],
      [
        "Ġ8",
        "0"
      ],
      [
        "Ġso",
        "me"
      ],
      [
        "Ġmem",
        "e"
      ],
      [
        "Ġa",
        "c"
      ],
      [
        "Ġt",
        "raining"
      ],
      [
        "th",
        "er"
      ],
      [
        "Ġex",
        "p"
      ],
      [
        "Ġb",
        "ut"
      ],
      [
        "as",
        "es"
      ],
      [
        "ok",
        "ing"
      ],
      [
        "Ġch",
        "aotic"
      ],
      [
        "Ġrem",
        "ov"
      ],
      [
        "2",
        "8"
      ],
      [
        "3",
        "3"
      ],
      [
        "Ġ",
        "un"
      ],
      [
        "er",
        "n"
      ],
      [
        "le",
        "ep"
      ],
      [
        "as",
        "s"
      ],
      [
        "Ġdou",
        "gh"
      ],
      [
        "m",
        "m"
      ],
      [
        "Ġpro",
        "ject"
      ],
      [
        "Ġoce",
        "an"
      ],
      [
        "p",
        "hy"
      ],
      [
        "Ġ",
        "rain"
      ],
      [
        "Ġ1",
        "00"
      ],
      [
        "av",
        "i"
      ],
      [
        "2",
        "9"
      ],
      [
        "c",
        "i"
      ],
      [
        "m",
        "o"
      ],
      [
        "ac",
        "k"
      ],
      [
        "Ġf",
        "all"
      ],
      [
        "Ġ8",
        "4"
      ],
      [
        "Ġ8",
        "8"
      ],
      [
        "e",
        "ar"
      ],
      [
        "h",
        "avi"
      ],
      [
        "l",
        "an"
      ],
      [
        "Ġ",
        "ra"
      ],
      [
        "ou",
        "gh"
      ],
      [
        "Ġto",
        "ward"
      ],
      [
        "ide",
        "s"
      ],
      [
        "Ġwe",
        "ather"
      ],
      [
        "Ġsou",
        "nd"
      ],
      [
        "an",
        "d"
      ],
      [
        "Ġp",
        "h"
      ],
      [
        "b",
        "r"
      ],
      [
        "Ġ9",
        "0"
      ],
      [
        "Ġ9",
        "8"
      ],
      [
        "Ġbe",
        "nd"
      ],
      [
        "Ġro",
        "bot"
      ],
      [
        "6",
        "4"
      ],
      [
        "g",
        "en"
      ],
      [
        "y",
        "our"
      ],
      [
        "y",
        "gen"
      ],
      [
        "Ġ6",
        "8"
      ],
      [
        "Ġ7",
        "8"
      ],
      [
        "Ġox",
        "ygen"
      ],
      [
        "Ġb",
        "ro"
      ],
      [
        "Ġde",
        "sc"
      ],
      [
        "Ġdesc",
        "rib"
      ],
      [
        "r",
        "on"
      ],
      [
        "Ġc",
        "al"
      ],
      [
        "Ġg",
        "o"
      ],
      [
        "Ġw",
        "or"
      ],
      [
        "ĠM",
        "oon"
      ],
      [
        "ĠB",
        "ug"
      ],
      [
        "Ġdescrib",
        "e"
      ],
      [
        "ĠBug",
        "gy"
      ],
      [
        "d",
        "ate"
      ],
      [
        "Ġi",
        "ron"
      ],
      [
        "he",
        "n"
      ],
      [
        "Ġn",
        "ame"
      ],
      [
        "Ġre",
        "ac"
      ],
      [
        "a",
        "st"
      ],
      [
        "e",
        "o"
      ],
      [
        "v",
        "ent"
      ],
      [
        "on",
        "ly"
      ],
      [
        "Ġs",
        "leep"
      ],
      [
        "Ġ3",
        "2"
      ],
      [
        "iz",
        "e"
      ],
      [
        "n",
        "ity"
      ],
      [
        "Ġn",
        "at"
      ],
      [
        "Ġ11",
        "6"
      ],
      [
        "ĠU",
        "nity"
      ],
      [
        "u",
        "ce"
      ],
      [
        "Ġg",
        "ame"
      ],
      [
        "Ġo",
        "ver"
      ],
      [
        "Ġw",
        "ave"
      ],
      [
        "de",
        "n"
      ],
      [
        "ar",
        "den"
      ],
      [
        "Ġ6",
        "4"
      ],
      [
        "ĠM",
        "on"
      ],
      [
        "Ġdi",
        "d"
      ],
      [
        "Ġbec",
        "ome"
      ],
      [
        "co",
        "ins"
      ],
      [
        "i",
        "el"
      ],
      [
        "Ġ",
        "use"
      ],
      [
        "le",
        "ct"
      ],
      [
        "Ġ9",
        "2"
      ],
      [
        "Ġma",
        "gn"
      ],
      [
        "Ġch",
        "ang"
      ],
      [
        "Ġse",
        "e"
      ],
      [
        "Ġsome",
        "thing"
      ],
      [
        "Ġexp",
        "an"
      ],
      [
        "ci",
        "se"
      ],
      [
        "iel",
        "d"
      ],
      [
        "o",
        "ri"
      ],
      [
        "r",
        "av"
      ],
      [
        "Ġg",
        "rav"
      ],
      [
        "le",
        "ngth"
      ],
      [
        "ri",
        "v"
      ],
      [
        "Ġint",
        "ent"
      ],
      [
        "Ġ5",
        "6"
      ],
      [
        "pp",
        "ed"
      ],
      [
        "Ġref",
        "lect"
      ],
      [
        "Ġdro",
        "ple"
      ],
      [
        "Ġsa",
        "w"
      ],
      [
        "Ġwave",
        "length"
      ],
      [
        "Ġmagn",
        "et"
      ],
      [
        "Ġgrav",
        "ity"
      ],
      [
        "Ġintent",
        "ion"
      ],
      [
        "Ġdrople",
        "ts"
      ],
      [
        "Ġwavelength",
        "s"
      ],
      [
        "p",
        "e"
      ],
      [
        "s",
        "en"
      ],
      [
        "Ġ1",
        "80"
      ],
      [
        "Ġ2",
        "7"
      ],
      [
        "le",
        "cul"
      ],
      [
        "ho",
        "ol"
      ],
      [
        "ic",
        "al"
      ],
      [
        "Ġmo",
        "lecul"
      ],
      [
        "Ġde",
        "c"
      ],
      [
        "Ġsc",
        "hool"
      ],
      [
        "Ġcar",
        "ry"
      ],
      [
        "Ġoce",
        "ans"
      ],
      [
        "rib",
        "u"
      ],
      [
        "Ġmolecul",
        "es"
      ],
      [
        "5",
        "7"
      ],
      [
        "a",
        "ble"
      ],
      [
        "l",
        "t"
      ],
      [
        "t",
        "ot"
      ],
      [
        "li",
        "ng"
      ],
      [
        "Ġo",
        "il"
      ],
      [
        "Ġto",
        "ken"
      ],
      [
        "Ġso",
        "ap"
      ],
      [
        "ĠU",
        "lt"
      ],
      [
        "im",
        "ate"
      ],
      [
        "di",
        "stance"
      ],
      [
        "Ġlearn",
        "ed"
      ],
      [
        "Ġintention",
        "ally"
      ],
      [
        "tot",
        "al"
      ],
      [
        "Ġoil",
        "s"
      ],
      [
        "Ġtoken",
        "s"
      ],
      [
        "ĠUlt",
        "imate"
      ],
      [
        "8",
        "4"
      ],
      [
        "i",
        "f"
      ],
      [
        "m",
        "at"
      ],
      [
        "Ġex",
        "act"
      ],
      [
        "le",
        "d"
      ],
      [
        "Ġp",
        "lan"
      ],
      [
        "Ġ3",
        "3"
      ],
      [
        "Ġco",
        "mp"
      ],
      [
        "Ġ15",
        "0"
      ],
      [
        "ĠH",
        "e"
      ],
      [
        "ame",
        "ter"
      ],
      [
        "Ġmi",
        "sta"
      ],
      [
        "B",
        "e"
      ],
      [
        "c",
        "ount"
      ],
      [
        "o",
        "Be"
      ],
      [
        "v",
        "el"
      ],
      [
        "Ġab",
        "s"
      ],
      [
        "it",
        "al"
      ],
      [
        "sc",
        "ore"
      ],
      [
        "Ġtransform",
        "er"
      ],
      [
        "Ġcap",
        "ital"
      ],
      [
        "havi",
        "our"
      ],
      [
        "ĠMon",
        "oBe"
      ],
      [
        "ĠMonoBe",
        "haviour"
      ],
      [
        "i",
        "ll"
      ],
      [
        "s",
        "h"
      ],
      [
        "u",
        "sic"
      ],
      [
        "Ġt",
        "ext"
      ],
      [
        "Ġp",
        "riv"
      ],
      [
        "Ġ5",
        "8"
      ],
      [
        "Ġ8",
        "9"
      ],
      [
        "00",
        "0"
      ],
      [
        "Ġ17",
        "4"
      ],
      [
        "Ġ13",
        "0"
      ],
      [
        "Ġarchi",
        "ved"
      ],
      [
        "Ġmista",
        "kes"
      ],
      [
        "Ġpriv",
        "ate"
      ],
      [
        "he",
        "alth"
      ],
      [
        "Ġ3",
        "1"
      ],
      [
        "Ġ6",
        "3"
      ],
      [
        "Ġan",
        "swer"
      ],
      [
        "Ġst",
        "ill"
      ],
      [
        "od",
        "er"
      ],
      [
        "Ġpoint",
        "s"
      ],
      [
        "Ġun",
        "re"
      ],
      [
        "Ġdec",
        "oder"
      ],
      [
        "5",
        "3"
      ],
      [
        "u",
        "ally"
      ],
      [
        "Ġc",
        "hat"
      ],
      [
        "ro",
        "w"
      ],
      [
        "Ġmo",
        "vi"
      ],
      [
        "Ġcal",
        "led"
      ],
      [
        "Ġgame",
        "s"
      ],
      [
        "Ġmovi",
        "es"
      ],
      [
        "4",
        "3"
      ],
      [
        "6",
        "3"
      ],
      [
        "t",
        "ing"
      ],
      [
        "w",
        "are"
      ],
      [
        "re",
        "nt"
      ],
      [
        "Ġc",
        "ur"
      ],
      [
        "ic",
        "e"
      ],
      [
        "Ġ17",
        "0"
      ],
      [
        "ft",
        "ware"
      ],
      [
        "Ġpro",
        "gra"
      ],
      [
        "Ġso",
        "ftware"
      ],
      [
        "ust",
        "s"
      ],
      [
        "ĠN",
        "o"
      ],
      [
        "Ġcheckpoint",
        "s"
      ],
      [
        "Ġcur",
        "rent"
      ],
      [
        "Ġn",
        "or"
      ],
      [
        "Ġle",
        "ngth"
      ],
      [
        "Ġgener",
        "ate"
      ],
      [
        "Ġide",
        "a"
      ],
      [
        "Ġlearn",
        "ing"
      ],
      [
        "mat",
        "ic"
      ],
      [
        "d",
        "uce"
      ],
      [
        "f",
        "er"
      ],
      [
        "Ġ",
        "O"
      ],
      [
        "er",
        "ious"
      ],
      [
        "Ġs",
        "k"
      ],
      [
        "in",
        "n"
      ],
      [
        "Ġ7",
        "1"
      ],
      [
        "Ġ9",
        "1"
      ],
      [
        "ĠHe",
        "y"
      ],
      [
        "6",
        "2"
      ],
      [
        "Q",
        "u"
      ],
      [
        "c",
        "sh"
      ],
      [
        "d",
        "y"
      ],
      [
        "g",
        "e"
      ],
      [
        "Ġhe",
        "ar"
      ],
      [
        "Ġm",
        "usic"
      ],
      [
        "Ġn",
        "o"
      ],
      [
        "ar",
        "p"
      ],
      [
        "Ġ16",
        "0"
      ],
      [
        "Ġ24",
        "3"
      ],
      [
        "ok",
        "s"
      ],
      [
        "csh",
        "arp"
      ],
      [
        "i",
        "al"
      ],
      [
        "li",
        "es"
      ],
      [
        "on",
        "sen"
      ],
      [
        "Ġn",
        "onsen"
      ],
      [
        "Ġ3",
        "7"
      ],
      [
        "Ġrep",
        "lies"
      ],
      [
        "sp",
        "eed"
      ],
      [
        "l",
        "s"
      ],
      [
        "s",
        "on"
      ],
      [
        "ssi",
        "ng"
      ],
      [
        "Ġm",
        "atter"
      ],
      [
        "de",
        "d"
      ],
      [
        "ac",
        "e"
      ],
      [
        "Ġ4",
        "2"
      ],
      [
        "hi",
        "p"
      ],
      [
        "Ġ9",
        "4"
      ],
      [
        "Ġpro",
        "duce"
      ],
      [
        "Ġper",
        "son"
      ],
      [
        "Ġfo",
        "od"
      ],
      [
        "Ġnonsen",
        "se"
      ],
      [
        "6",
        "7"
      ],
      [
        "o",
        "ther"
      ],
      [
        "Ġ",
        "{"
      ],
      [
        "ĠA",
        "n"
      ],
      [
        "le",
        "s"
      ],
      [
        "Ġd",
        "ay"
      ],
      [
        "Ġ7",
        "9"
      ],
      [
        "Ġme",
        "ss"
      ],
      [
        "Ġ15",
        "1"
      ],
      [
        "Ġ15",
        "3"
      ],
      [
        "Ġ14",
        "0"
      ],
      [
        "Ġde",
        "li"
      ],
      [
        "b",
        "o"
      ],
      [
        "n",
        "e"
      ],
      [
        "n",
        "ot"
      ],
      [
        "s",
        "es"
      ],
      [
        "Ġre",
        "cent"
      ],
      [
        "Ġ4",
        "7"
      ],
      [
        "Ġ5",
        "1"
      ],
      [
        "Ġcan",
        "not"
      ],
      [
        "Ġ14",
        "9"
      ],
      [
        "Ġ24",
        "8"
      ],
      [
        "Ġcome",
        "dy"
      ],
      [
        "Ġanimal",
        "s"
      ],
      [
        "Ġreco",
        "gn"
      ],
      [
        "Ġ",
        "ver"
      ],
      [
        "Ġp",
        "atter"
      ],
      [
        "Ġsp",
        "orts"
      ],
      [
        "Ġco",
        "oking"
      ],
      [
        "Ġ4",
        "3"
      ],
      [
        "Ġ10",
        "8"
      ],
      [
        "Ġ14",
        "7"
      ],
      [
        "Ġ14",
        "8"
      ],
      [
        "Ġbe",
        "ing"
      ],
      [
        "Ġ18",
        "8"
      ],
      [
        "Ġ23",
        "7"
      ],
      [
        "Ġpatter",
        "n"
      ],
      [
        "t",
        "ect"
      ],
      [
        "Ġ",
        "u"
      ],
      [
        "ro",
        "ll"
      ],
      [
        "Ġ16",
        "8"
      ],
      [
        "Ġ21",
        "3"
      ],
      [
        "Ġen",
        "ough"
      ],
      [
        "Ġmess",
        "age"
      ],
      [
        "tect",
        "ure"
      ],
      [
        "u",
        "pp"
      ],
      [
        "Ġa",
        "pp"
      ],
      [
        "re",
        "ad"
      ],
      [
        "Ġs",
        "upp"
      ],
      [
        "Ġ7",
        "2"
      ],
      [
        "tion",
        "s"
      ],
      [
        "Ġon",
        "ly"
      ],
      [
        "Ġ21",
        "7"
      ],
      [
        "ĠH",
        "el"
      ],
      [
        "Ġconversation",
        "al"
      ],
      [
        "Ġstr",
        "ong"
      ],
      [
        "Ġbo",
        "oks"
      ],
      [
        "Ġrobot",
        "s"
      ],
      [
        "if",
        "ic"
      ],
      [
        "a",
        "in"
      ],
      [
        "m",
        "b"
      ],
      [
        "t",
        "o"
      ],
      [
        "t",
        "y"
      ],
      [
        "Ġt",
        "w"
      ],
      [
        "Ġg",
        "arden"
      ],
      [
        "Ġ4",
        "5"
      ],
      [
        "Ġ7",
        "4"
      ],
      [
        "Ġ12",
        "0"
      ],
      [
        "Ġ18",
        "6"
      ],
      [
        "Ġpar",
        "ameter"
      ],
      [
        "Ġcar",
        "s"
      ],
      [
        "Ġsupp",
        "orts"
      ],
      [
        "(",
        ")"
      ],
      [
        "t",
        "en"
      ],
      [
        "u",
        "um"
      ],
      [
        "Ġa",
        "l"
      ],
      [
        "ho",
        "to"
      ],
      [
        "ac",
        "uum"
      ],
      [
        "Ġb",
        "rain"
      ],
      [
        "Ġ3",
        "9"
      ],
      [
        "Ġof",
        "ten"
      ],
      [
        "Ġ5",
        "4"
      ],
      [
        "Ġ17",
        "2"
      ],
      [
        "Ġ12",
        "6"
      ],
      [
        "Ġcon",
        "sc"
      ],
      [
        "Ġr",
        "usts"
      ],
      [
        "Ġ20",
        "1"
      ],
      [
        "Ġv",
        "acuum"
      ],
      [
        "Ġ23",
        "8"
      ],
      [
        "Ġpart",
        "ic"
      ],
      [
        "Ġro",
        "le"
      ],
      [
        "Ġlo",
        "ok"
      ],
      [
        "gra",
        "phy"
      ],
      [
        "Ġri",
        "ses"
      ],
      [
        "Ġac",
        "c"
      ],
      [
        "hoto",
        "graphy"
      ],
      [
        "Ġconsc",
        "ious"
      ],
      [
        "k",
        "s"
      ],
      [
        "Ġ",
        "Qu"
      ],
      [
        "Ġa",
        "rt"
      ],
      [
        "ĠY",
        "es"
      ],
      [
        "Ġs",
        "low"
      ],
      [
        "ĠI",
        "s"
      ],
      [
        "qu",
        "i"
      ],
      [
        "Ġ8",
        "2"
      ],
      [
        "Ġ10",
        "1"
      ],
      [
        "un",
        "n"
      ],
      [
        "Ġ17",
        "1"
      ],
      [
        "Ġh",
        "ere"
      ],
      [
        "Ġ19",
        "2"
      ],
      [
        "ation",
        "s"
      ],
      [
        "ason",
        "s"
      ],
      [
        "Ġro",
        "ll"
      ],
      [
        "Ġse",
        "asons"
      ],
      [
        "Ġfo",
        "x"
      ],
      [
        "ern",
        "et"
      ],
      [
        "Ġph",
        "ases"
      ],
      [
        "b",
        "j"
      ],
      [
        "b",
        "ow"
      ],
      [
        "e",
        "w"
      ],
      [
        "o",
        "ling"
      ],
      [
        "er",
        "mo"
      ],
      [
        "er",
        "cise"
      ],
      [
        "at",
        "es"
      ],
      [
        "ar",
        "y"
      ],
      [
        "Ġco",
        "oling"
      ],
      [
        "ec",
        "ts"
      ],
      [
        "Ġ6",
        "1"
      ],
      [
        "av",
        "es"
      ],
      [
        "Ġ7",
        "6"
      ],
      [
        "Ġth",
        "ermo"
      ],
      [
        "Ġ17",
        "6"
      ],
      [
        "Ġ17",
        "8"
      ],
      [
        "Ġde",
        "pe"
      ],
      [
        "Ġ18",
        "3"
      ],
      [
        "Ġr",
        "ate"
      ],
      [
        "Ġne",
        "ar"
      ],
      [
        "Ġ21",
        "5"
      ],
      [
        "Ġfloat",
        "s"
      ],
      [
        "Ġle",
        "ss"
      ],
      [
        "Ġtalk",
        "ing"
      ],
      [
        "is",
        "es"
      ],
      [
        "Ġrain",
        "bow"
      ],
      [
        "Ġra",
        "ises"
      ],
      [
        "Ġhear",
        "t"
      ],
      [
        "Ġslow",
        "s"
      ],
      [
        "bj",
        "ects"
      ],
      [
        "Ġthermo",
        "s"
      ],
      [
        "nt",
        "s"
      ],
      [
        "Ġ2",
        "9"
      ],
      [
        "Ġw",
        "here"
      ],
      [
        "nd",
        "er"
      ],
      [
        "Ġ4",
        "1"
      ],
      [
        "Ġ5",
        "2"
      ],
      [
        "Ġ5",
        "7"
      ],
      [
        "iv",
        "ity"
      ],
      [
        "Ġ8",
        "1"
      ],
      [
        "Ġ8",
        "7"
      ],
      [
        "Ġ16",
        "2"
      ],
      [
        "iz",
        "ed"
      ],
      [
        "est",
        "ion"
      ],
      [
        "Ġqu",
        "estion"
      ],
      [
        "Ġen",
        "er"
      ],
      [
        "..",
        "."
      ],
      [
        "Ġact",
        "ivity"
      ],
      [
        "ear",
        "s"
      ],
      [
        "Ġcomp",
        "ass"
      ],
      [
        "Ġnor",
        "th"
      ],
      [
        "Ġapp",
        "ears"
      ],
      [
        "Ġstrong",
        "ly"
      ],
      [
        "Ġt",
        "ides"
      ],
      [
        "Ġw",
        "ho"
      ],
      [
        "Ġp",
        "hotography"
      ],
      [
        "Ġsp",
        "ace"
      ],
      [
        "Ġ15",
        "8"
      ],
      [
        "Ġ11",
        "8"
      ],
      [
        "Ġ14",
        "4"
      ],
      [
        "Ġ20",
        "6"
      ],
      [
        "ink",
        "le"
      ],
      [
        "Ġgre",
        "ase"
      ],
      [
        "Ġarchi",
        "tecture"
      ],
      [
        "Ġpick",
        "ed"
      ],
      [
        "Ġremov",
        "es"
      ],
      [
        "Ġsk",
        "y"
      ],
      [
        "Ġtw",
        "inkle"
      ],
      [
        "l",
        "u"
      ],
      [
        "s",
        "hip"
      ],
      [
        "li",
        "ne"
      ],
      [
        "on",
        "e"
      ],
      [
        "Ġ2",
        "40"
      ],
      [
        "Ġ2",
        "50"
      ],
      [
        "Ġ6",
        "2"
      ],
      [
        "Ġ5",
        "3"
      ],
      [
        "Ġ9",
        "7"
      ],
      [
        "Ġ12",
        "1"
      ],
      [
        "Ġ18",
        "7"
      ],
      [
        "Ġ20",
        "2"
      ],
      [
        "Ġri",
        "ght"
      ],
      [
        "c",
        "al"
      ],
      [
        "nt",
        "ion"
      ],
      [
        "al",
        "ty"
      ],
      [
        "Ġt",
        "ra"
      ],
      [
        "Ġs",
        "alty"
      ],
      [
        "le",
        "vel"
      ],
      [
        "ĠP",
        "ick"
      ],
      [
        "Ġ5",
        "5"
      ],
      [
        "Ġli",
        "br"
      ],
      [
        "Ġon",
        "line"
      ],
      [
        "te",
        "ntion"
      ],
      [
        "ra",
        "matic"
      ],
      [
        "Ġ10",
        "6"
      ],
      [
        "Ġ11",
        "0"
      ],
      [
        "ĠS",
        "un"
      ],
      [
        "ĠG",
        "ame"
      ],
      [
        "ĠF",
        "rom"
      ],
      [
        "Ġ23",
        "0"
      ],
      [
        "Ġ22",
        "4"
      ],
      [
        "Ġconversation",
        "s"
      ],
      [
        "Ġat",
        "tention"
      ],
      [
        "mm",
        "ing"
      ],
      [
        "Ġuse",
        "ful"
      ],
      [
        "Ġprogra",
        "mming"
      ],
      [
        "Ġgarden",
        "ing"
      ],
      [
        "Ġlibr",
        "ary"
      ],
      [
        "l",
        "se"
      ],
      [
        "Ġ",
        "["
      ],
      [
        "Ġe",
        "lse"
      ],
      [
        "li",
        "ke"
      ],
      [
        "Ġ6",
        "9"
      ],
      [
        "Ġ7",
        "7"
      ],
      [
        "Ġ9",
        "6"
      ],
      [
        "Ġma",
        "y"
      ],
      [
        "Ġ10",
        "3"
      ],
      [
        "Ġ11",
        "7"
      ],
      [
        "Ġ14",
        "6"
      ],
      [
        "Ġ13",
        "8"
      ],
      [
        "Ġ12",
        "2"
      ],
      [
        "uc",
        "h"
      ],
      [
        "Ġ21",
        "8"
      ],
      [
        "Ġ23",
        "5"
      ],
      [
        "Ġcho",
        "ice"
      ],
      [
        "Ġpredic",
        "ting"
      ],
      [
        "ial",
        "ize"
      ],
      [
        "3",
        "20"
      ],
      [
        "Ġ",
        "using"
      ],
      [
        "Ġm",
        "uch"
      ],
      [
        "Ġw",
        "hen"
      ],
      [
        "Ġf",
        "ol"
      ],
      [
        "Ġ3",
        "5"
      ],
      [
        "Ġ5",
        "9"
      ],
      [
        "Ġ15",
        "7"
      ],
      [
        "Ġ10",
        "4"
      ],
      [
        "Ġ10",
        "5"
      ],
      [
        "un",
        "g"
      ],
      [
        "Ġ11",
        "3"
      ],
      [
        "Ġ13",
        "6"
      ],
      [
        "Ġ12",
        "8"
      ],
      [
        "Ġr",
        "u"
      ],
      [
        "oi",
        "d"
      ],
      [
        "las",
        "s"
      ],
      [
        "Ġnat",
        "ure"
      ],
      [
        "Ġfol",
        "low"
      ],
      [
        "o",
        "m"
      ],
      [
        "t",
        "a"
      ],
      [
        "x",
        "is"
      ],
      [
        "Ġ",
        ":"
      ],
      [
        "nt",
        "ime"
      ],
      [
        "Ġs",
        "ep"
      ],
      [
        "Ġc",
        "ount"
      ],
      [
        "Ġb",
        "ased"
      ],
      [
        "or",
        "d"
      ],
      [
        "ar",
        "ate"
      ],
      [
        "Ġ7",
        "00"
      ],
      [
        "Ġ9",
        "9"
      ],
      [
        "Ġ16",
        "00"
      ],
      [
        "Ġ18",
        "2"
      ],
      [
        "Ġ20",
        "9"
      ],
      [
        "Ġ21",
        "2"
      ],
      [
        "ĠH",
        "i"
      ],
      [
        "il",
        "t"
      ],
      [
        "Ġj",
        "o"
      ],
      [
        "Ġqu",
        "ick"
      ],
      [
        "vi",
        "ew"
      ],
      [
        "Ġru",
        "ntime"
      ],
      [
        "Ġsep",
        "arate"
      ],
      [
        "p",
        "ublic"
      ],
      [
        "Ġ",
        "}"
      ],
      [
        "si",
        "on"
      ],
      [
        "Ġc",
        "lass"
      ],
      [
        "Ġin",
        "s"
      ],
      [
        "Ġco",
        "mm"
      ],
      [
        "Ġ6",
        "5"
      ],
      [
        "Ġ8",
        "3"
      ],
      [
        "mp",
        "are"
      ],
      [
        "Ġ14",
        "1"
      ],
      [
        "Ġ13",
        "5"
      ],
      [
        "Ġ12",
        "7"
      ],
      [
        "Ġv",
        "oid"
      ],
      [
        "Ġ24",
        "2"
      ],
      [
        "Ġl",
        "ong"
      ],
      [
        "Ġfriend",
        "ship"
      ],
      [
        "ĠCo",
        "mpare"
      ],
      [
        "Ġneed",
        "s"
      ],
      [
        "and",
        "om"
      ],
      [
        "Ġgo",
        "ing"
      ],
      [
        "Ġover",
        "view"
      ],
      [
        "Ġener",
        "gy"
      ],
      [
        "c",
        "us"
      ],
      [
        "i",
        "ght"
      ],
      [
        "yst",
        "erious"
      ],
      [
        "Ġm",
        "ysterious"
      ],
      [
        "Ġp",
        "ass"
      ],
      [
        "Ġn",
        "ow"
      ],
      [
        "Ġ7",
        "3"
      ],
      [
        "Ġ8",
        "5"
      ],
      [
        "Ġ10",
        "7"
      ],
      [
        "Ġ11",
        "1"
      ],
      [
        "Ġ16",
        "5"
      ],
      [
        "Ġmodel",
        "s"
      ],
      [
        "Ġ23",
        "4"
      ],
      [
        "Ġ23",
        "6"
      ],
      [
        "Ġ22",
        "7"
      ],
      [
        "Ġreac",
        "tion"
      ],
      [
        "Ġver",
        "sion"
      ],
      [
        "P",
        "I"
      ],
      [
        "b",
        "on"
      ],
      [
        "e",
        "ast"
      ],
      [
        "o",
        "x"
      ],
      [
        "p",
        "ack"
      ],
      [
        "nt",
        "er"
      ],
      [
        "st",
        "ore"
      ],
      [
        "Ġe",
        "vent"
      ],
      [
        "li",
        "date"
      ],
      [
        "ĠA",
        "PI"
      ],
      [
        "Ġhelp",
        "s"
      ],
      [
        "Ġg",
        "ue"
      ],
      [
        "Ġin",
        "vent"
      ],
      [
        "Ġ2",
        "20"
      ],
      [
        "le",
        "ases"
      ],
      [
        "Ġw",
        "hi"
      ],
      [
        "Ġthe",
        "ir"
      ],
      [
        "Ġb",
        "read"
      ],
      [
        "Ġf",
        "act"
      ],
      [
        "Ġre",
        "store"
      ],
      [
        "Ġre",
        "leases"
      ],
      [
        "Ġco",
        "ins"
      ],
      [
        "Ġ4",
        "9"
      ],
      [
        "Ġy",
        "east"
      ],
      [
        "Ġme",
        "tal"
      ],
      [
        "Ġ15",
        "2"
      ],
      [
        "Ġ15",
        "00"
      ],
      [
        "Ġ10",
        "2"
      ],
      [
        "Ġ11",
        "4"
      ],
      [
        "Ġ14",
        "2"
      ],
      [
        "Ġdi",
        "ox"
      ],
      [
        "Ġ13",
        "7"
      ],
      [
        "Ġ12",
        "4"
      ],
      [
        "Ġcon",
        "so"
      ],
      [
        "Ġfor",
        "m"
      ],
      [
        "it",
        "s"
      ],
      [
        "Ġ20",
        "5"
      ],
      [
        "ng",
        "ine"
      ],
      [
        "Ġ21",
        "1"
      ],
      [
        "ol",
        "s"
      ],
      [
        "gn",
        "ed"
      ],
      [
        "Ġvi",
        "br"
      ],
      [
        "Ġcar",
        "bon"
      ],
      [
        "Ġmem",
        "ori"
      ],
      [
        "Ġox",
        "ides"
      ],
      [
        "Ġbro",
        "ken"
      ],
      [
        "Ġreac",
        "ts"
      ],
      [
        "Ġbecome",
        "s"
      ],
      [
        "Ġchang",
        "es"
      ],
      [
        "Ġpattern",
        "s"
      ],
      [
        "ĠHel",
        "lo"
      ],
      [
        "Ġal",
        "ong"
      ],
      [
        "Ġpartic",
        "les"
      ],
      [
        "Ġwho",
        "se"
      ],
      [
        "Ġtra",
        "pped"
      ],
      [
        "Ġjo",
        "ke"
      ],
      [
        "Ġlong",
        "er"
      ],
      [
        "Ġgue",
        "ssing"
      ],
      [
        "Ġwhi",
        "le"
      ],
      [
        "Ġdiox",
        "ide"
      ],
      [
        "Ġconso",
        "lidate"
      ],
      [
        "Ġvibr",
        "ations"
      ],
      [
        "Ġmemori",
        "es"
      ],
      [
        "!",
        "!"
      ],
      [
        "E",
        "ngine"
      ],
      [
        "F",
        "ield"
      ],
      [
        "S",
        "er"
      ],
      [
        "T",
        "ime"
      ],
      [
        "b",
        "s"
      ],
      [
        "b",
        "its"
      ],
      [
        "g",
        "le"
      ],
      [
        "k",
        "er"
      ],
      [
        "n",
        "se"
      ],
      [
        "p",
        "date"
      ],
      [
        "t",
        "ure"
      ],
      [
        "y",
        "er"
      ],
      [
        "Ġa",
        "li"
      ],
      [
        "Ġa",
        "xis"
      ],
      [
        "er",
        "ates"
      ],
      [
        "sta",
        "l"
      ],
      [
        "Ġi",
        "ce"
      ],
      [
        "al",
        "f"
      ],
      [
        "me",
        "t"
      ],
      [
        "Ġt",
        "ilt"
      ],
      [
        "at",
        "ed"
      ],
      [
        "Ġc",
        "ry"
      ],
      [
        "Ġp",
        "or"
      ],
      [
        "Ġb",
        "lo"
      ],
      [
        "Ġho",
        "r"
      ],
      [
        "Ġ3",
        "36"
      ],
      [
        "Ġy",
        "ear"
      ],
      [
        "ĠT",
        "ime"
      ],
      [
        "Ġli",
        "qui"
      ],
      [
        "Ġmo",
        "v"
      ],
      [
        "Ġor",
        "bits"
      ],
      [
        "Ġ17",
        "7"
      ],
      [
        "Ġan",
        "gle"
      ],
      [
        "Ġ13",
        "1"
      ],
      [
        "Ġ13",
        "00"
      ],
      [
        "Ġh",
        "alf"
      ],
      [
        "Ġde",
        "nse"
      ],
      [
        "del",
        "ta"
      ],
      [
        "Ġ20",
        "4"
      ],
      [
        "uc",
        "ture"
      ],
      [
        "Ġ19",
        "0"
      ],
      [
        "Ġ21",
        "0"
      ],
      [
        "Ġ21",
        "4"
      ],
      [
        "ĠU",
        "pdate"
      ],
      [
        "Ġsc",
        "atter"
      ],
      [
        "Ġsmall",
        "er"
      ],
      [
        "Ġsun",
        "lit"
      ],
      [
        "Ġstr",
        "ucture"
      ],
      [
        "Ġpredic",
        "tion"
      ],
      [
        "ĠUnity",
        "Engine"
      ],
      [
        "Ġexpan",
        "ds"
      ],
      [
        "Ġdepe",
        "nd"
      ],
      [
        "ialize",
        "Field"
      ],
      [
        "Ser",
        "ializeField"
      ],
      [
        "Ġali",
        "gn"
      ],
      [
        "Ġtilt",
        "ed"
      ],
      [
        "Ġcry",
        "stal"
      ],
      [
        "Ġpor",
        "tions"
      ],
      [
        "Ġliqui",
        "d"
      ],
      [
        "delta",
        "Time"
      ],
      [
        "O",
        "b"
      ],
      [
        "o",
        "phy"
      ],
      [
        "r",
        "act"
      ],
      [
        "v",
        "en"
      ],
      [
        "v",
        "ec"
      ],
      [
        "Ġa",
        "w"
      ],
      [
        "Ġa",
        "ir"
      ],
      [
        "er",
        "al"
      ],
      [
        "Ġe",
        "ar"
      ],
      [
        "li",
        "able"
      ],
      [
        "us",
        "cle"
      ],
      [
        "ul",
        "ation"
      ],
      [
        "ul",
        "ls"
      ],
      [
        "Ġex",
        "ercise"
      ],
      [
        "Ġhe",
        "at"
      ],
      [
        "Ġhe",
        "avy"
      ],
      [
        "Ġc",
        "ent"
      ],
      [
        "Ġm",
        "uscle"
      ],
      [
        "Ġo",
        "ld"
      ],
      [
        "Ġo",
        "bjects"
      ],
      [
        "Ġw",
        "ast"
      ],
      [
        "Ġp",
        "ulls"
      ],
      [
        "Ġf",
        "ield"
      ],
      [
        "or",
        "bs"
      ],
      [
        "Ġd",
        "ar"
      ],
      [
        "Ġre",
        "di"
      ],
      [
        "Ġco",
        "mb"
      ],
      [
        "Ġco",
        "ols"
      ],
      [
        "el",
        "erates"
      ],
      [
        "Ġ10",
        "9"
      ],
      [
        "Ġ11",
        "2"
      ],
      [
        "Ġ16",
        "7"
      ],
      [
        "Ġdi",
        "stance"
      ],
      [
        "Ġcon",
        "duction"
      ],
      [
        "Ġcon",
        "vec"
      ],
      [
        "ap",
        "or"
      ],
      [
        "lor",
        "ophy"
      ],
      [
        "Ġ19",
        "5"
      ],
      [
        "Ġ19",
        "8"
      ],
      [
        "Ġv",
        "apor"
      ],
      [
        "Ġcolor",
        "s"
      ],
      [
        "Ġ24",
        "4"
      ],
      [
        "Ġle",
        "aves"
      ],
      [
        "Ġgener",
        "al"
      ],
      [
        "Ġshort",
        "er"
      ],
      [
        "ect",
        "or"
      ],
      [
        "Ġcont",
        "ribu"
      ],
      [
        "Ġch",
        "lorophy"
      ],
      [
        "di",
        "ation"
      ],
      [
        "Ġreduc",
        "es"
      ],
      [
        "Ġtrans",
        "fer"
      ],
      [
        "Ġref",
        "ract"
      ],
      [
        "Ġneed",
        "le"
      ],
      [
        "Ġmi",
        "ght"
      ],
      [
        "Ġbo",
        "th"
      ],
      [
        "Ġact",
        "ive"
      ],
      [
        "Ġreco",
        "very"
      ],
      [
        "Ġremov",
        "e"
      ],
      [
        "Ġra",
        "diation"
      ],
      [
        "Ġexpan",
        "ded"
      ],
      [
        "Ġreflect",
        "ing"
      ],
      [
        "Ġmagnet",
        "ic"
      ],
      [
        "Ġmagnet",
        "ized"
      ],
      [
        "Ġabs",
        "orbs"
      ],
      [
        "Ġdeli",
        "ver"
      ],
      [
        "Ġacc",
        "elerates"
      ],
      [
        "ĠGame",
        "Ob"
      ],
      [
        "Ġins",
        "ulation"
      ],
      [
        "cus",
        "ed"
      ],
      [
        "Ġevent",
        "ually"
      ],
      [
        "Ġblo",
        "od"
      ],
      [
        "Ġalign",
        "s"
      ],
      [
        "Ġear",
        "ly"
      ],
      [
        "Ġcent",
        "er"
      ],
      [
        "Ġmuscle",
        "s"
      ],
      [
        "Ġwast",
        "e"
      ],
      [
        "Ġdar",
        "ker"
      ],
      [
        "Ġcomb",
        "ine"
      ],
      [
        "Ġconvec",
        "tion"
      ],
      [
        "Ġcontribu",
        "tion"
      ],
      [
        "Ġchlorophy",
        "ll"
      ],
      [
        "ĠGameOb",
        "ject"
      ],
      [
        "4",
        "5"
      ],
      [
        "E",
        "G"
      ],
      [
        "H",
        "U"
      ],
      [
        "V",
        "ector"
      ],
      [
        "a",
        "ri"
      ],
      [
        "f",
        "o"
      ],
      [
        "l",
        "ved"
      ],
      [
        "m",
        "on"
      ],
      [
        "m",
        "it"
      ],
      [
        "n",
        "ap"
      ],
      [
        "r",
        "th"
      ],
      [
        "s",
        "ho"
      ],
      [
        "s",
        "so"
      ],
      [
        "t",
        "ach"
      ],
      [
        "t",
        "hen"
      ],
      [
        "nt",
        "ity"
      ],
      [
        "st",
        "ribu"
      ],
      [
        "ĠC",
        "HU"
      ],
      [
        "Ġs",
        "nap"
      ],
      [
        "Ġc",
        "ell"
      ],
      [
        "Ġc",
        "ause"
      ],
      [
        "Ġg",
        "eo"
      ],
      [
        "Ġg",
        "row"
      ],
      [
        "Ġ2",
        "00"
      ],
      [
        "ac",
        "ke"
      ],
      [
        "Ġb",
        "ack"
      ],
      [
        "Ġmo",
        "ving"
      ],
      [
        "Ġ9",
        "3"
      ],
      [
        "ĠM",
        "EG"
      ],
      [
        "Ġam",
        "ount"
      ],
      [
        "Ġ16",
        "6"
      ],
      [
        "Ġ16",
        "9"
      ],
      [
        "Ġ14",
        "3"
      ],
      [
        "Ġdi",
        "re"
      ],
      [
        "Ġdi",
        "sso"
      ],
      [
        "Ġ13",
        "2"
      ],
      [
        "ng",
        "then"
      ],
      [
        "Ġ19",
        "7"
      ],
      [
        "Ġla",
        "yer"
      ],
      [
        "Ġmin",
        "eral"
      ],
      [
        "Ġsho",
        "rth"
      ],
      [
        "Ġle",
        "ngthen"
      ],
      [
        "Ġat",
        "mo"
      ],
      [
        "Ġat",
        "tach"
      ],
      [
        "log",
        "ical"
      ],
      [
        "Ġide",
        "ntity"
      ],
      [
        "Ġstar",
        "s"
      ],
      [
        "Ġpla",
        "nts"
      ],
      [
        "Ġlo",
        "st"
      ],
      [
        "Ġj",
        "acke"
      ],
      [
        "Ġrep",
        "ly"
      ],
      [
        "sp",
        "here"
      ],
      [
        "Ġweather",
        "ing"
      ],
      [
        "Ġchang",
        "ing"
      ],
      [
        "Ġunre",
        "liable"
      ],
      [
        "Ġu",
        "nder"
      ],
      [
        "Ġhor",
        "mon"
      ],
      [
        "Ġaw",
        "ay"
      ],
      [
        "Ġredi",
        "stribu"
      ],
      [
        "fo",
        "cused"
      ],
      [
        "sho",
        "ts"
      ],
      [
        "ĠCHU",
        "D"
      ],
      [
        "Ġsnap",
        "shots"
      ],
      [
        "Ġcell",
        "s"
      ],
      [
        "Ġgeo",
        "logical"
      ],
      [
        "Ġgrow",
        "th"
      ],
      [
        "ĠMEG",
        "A"
      ],
      [
        "Ġamount",
        "s"
      ],
      [
        "Ġdisso",
        "lved"
      ],
      [
        "Ġlayer",
        "s"
      ],
      [
        "Ġmineral",
        "s"
      ],
      [
        "Ġshorth",
        "and"
      ],
      [
        "Ġatmo",
        "sphere"
      ],
      [
        "Ġjacke",
        "t"
      ],
      [
        "Ġhormon",
        "es"
      ],
      [
        "Ġredistribu",
        "te"
      ],
      [
        "a",
        "mple"
      ],
      [
        "d",
        "ing"
      ],
      [
        "i",
        "nt"
      ],
      [
        "y",
        "cle"
      ],
      [
        "re",
        "nd"
      ],
      [
        "sta",
        "nd"
      ],
      [
        "em",
        "ber"
      ],
      [
        "Ġt",
        "ung"
      ],
      [
        "Ġt",
        "rend"
      ],
      [
        "Ġex",
        "ample"
      ],
      [
        "Ġg",
        "et"
      ],
      [
        "Ġm",
        "ath"
      ],
      [
        "Ġm",
        "ug"
      ],
      [
        "le",
        "ase"
      ],
      [
        "Ġb",
        "ic"
      ],
      [
        "Ġsp",
        "ec"
      ],
      [
        "ĠP",
        "lease"
      ],
      [
        "Ġ15",
        "6"
      ],
      [
        "Ġ14",
        "5"
      ],
      [
        "Ġ17",
        "5"
      ],
      [
        "Ġ13",
        "9"
      ],
      [
        "Ġ12",
        "3"
      ],
      [
        "Ġ24",
        "6"
      ],
      [
        "Ġ24",
        "7"
      ],
      [
        "Ġcont",
        "roll"
      ],
      [
        "Ġlo",
        "l"
      ],
      [
        "Ġsou",
        "nds"
      ],
      [
        "Ġdro",
        "pped"
      ],
      [
        "Ġph",
        "r"
      ],
      [
        "Ġback",
        "pack"
      ],
      [
        "Ġunder",
        "stand"
      ],
      [
        "Ġbic",
        "ycle"
      ],
      [
        "Ġspec",
        "ific"
      ],
      [
        "Ġcontroll",
        "er"
      ],
      [
        "4",
        "9"
      ],
      [
        "T",
        "r"
      ],
      [
        "b",
        "e"
      ],
      [
        "l",
        "ate"
      ],
      [
        "l",
        "ang"
      ],
      [
        "er",
        "t"
      ],
      [
        "Ġex",
        "plain"
      ],
      [
        "Ġhe",
        "alth"
      ],
      [
        "Ġf",
        "r"
      ],
      [
        "Ġ15",
        "9"
      ],
      [
        "Ġ19",
        "6"
      ],
      [
        "ans",
        "late"
      ],
      [
        "Ġas",
        "k"
      ],
      [
        "Ġprofile",
        "s"
      ],
      [
        "Ġnat",
        "ur"
      ],
      [
        "Ġover",
        "all"
      ],
      [
        "Ġrecogn",
        "ize"
      ],
      [
        "Ġmov",
        "es"
      ],
      [
        "Ġold",
        "er"
      ],
      [
        "Tr",
        "anslate"
      ],
      [
        "Z",
        "o"
      ],
      [
        "a",
        "ds"
      ],
      [
        "a",
        "sic"
      ],
      [
        "g",
        "in"
      ],
      [
        "h",
        "ould"
      ],
      [
        "Ċ",
        "Ċ"
      ],
      [
        "Ġe",
        "nter"
      ],
      [
        "ĠC",
        "an"
      ],
      [
        "Ġt",
        "in"
      ],
      [
        "Ġs",
        "lang"
      ],
      [
        "Ġb",
        "asic"
      ],
      [
        "Ġre",
        "ads"
      ],
      [
        "Ġ11",
        "9"
      ],
      [
        "ĠS",
        "ystem"
      ],
      [
        "Ġan",
        "other"
      ],
      [
        "Ġ12",
        "9"
      ],
      [
        "Ġde",
        "si"
      ],
      [
        "Ġ20",
        "3"
      ],
      [
        "ur",
        "d"
      ],
      [
        "Ġ24",
        "1"
      ],
      [
        "Ġhist",
        "ori"
      ],
      [
        "Ġhu",
        "ge"
      ],
      [
        "ay",
        "a"
      ],
      [
        "ile",
        "y"
      ],
      [
        "Ġabs",
        "urd"
      ],
      [
        "ord",
        "an"
      ],
      [
        "Ġphr",
        "ase"
      ],
      [
        "Zo",
        "e"
      ],
      [
        "Ġtin",
        "y"
      ],
      [
        "Ġhistori",
        "cal"
      ],
      [
        "M",
        "o"
      ],
      [
        "c",
        "lu"
      ],
      [
        "l",
        "ated"
      ],
      [
        "Ġ",
        "unc"
      ],
      [
        "er",
        "ence"
      ],
      [
        "em",
        "ember"
      ],
      [
        "Ġt",
        "one"
      ],
      [
        "Ġto",
        "ld"
      ],
      [
        "Ġ9",
        "5"
      ],
      [
        "Ġ11",
        "5"
      ],
      [
        "Ġ17",
        "3"
      ],
      [
        "Ġde",
        "f"
      ],
      [
        "ai",
        "nty"
      ],
      [
        "Ġfor",
        "ward"
      ],
      [
        "Ġ18",
        "1"
      ],
      [
        "Ġ18",
        "5"
      ],
      [
        "Ġ18",
        "9"
      ],
      [
        "Ġv",
        "ari"
      ],
      [
        "ĠFor",
        "ward"
      ],
      [
        "Ġl",
        "ar"
      ],
      [
        "Ġad",
        "mit"
      ],
      [
        "for",
        "ward"
      ],
      [
        "ĠR",
        "emember"
      ],
      [
        "Ġref",
        "erence"
      ],
      [
        "Ġunre",
        "lated"
      ],
      [
        "unn",
        "y"
      ],
      [
        "Ġcomm",
        "un"
      ],
      [
        "ert",
        "ainty"
      ],
      [
        "Ġdesi",
        "gned"
      ],
      [
        "Mo",
        "ver"
      ],
      [
        "Ġunc",
        "ertainty"
      ],
      [
        "ĠForward",
        "Mover"
      ],
      [
        "8",
        "5"
      ],
      [
        "p",
        "ret"
      ],
      [
        "nt",
        "ernet"
      ],
      [
        "er",
        "pret"
      ],
      [
        "Ġt",
        "ell"
      ],
      [
        "Ġs",
        "hould"
      ],
      [
        "ĠI",
        "nternet"
      ],
      [
        "Ġo",
        "ri"
      ],
      [
        "Ġint",
        "erpret"
      ],
      [
        "te",
        "bo"
      ],
      [
        "Ġ15",
        "5"
      ],
      [
        "Ġth",
        "ough"
      ],
      [
        "Ġ16",
        "3"
      ],
      [
        "Ġ16",
        "4"
      ],
      [
        "ĠS",
        "t"
      ],
      [
        "Ġdo",
        "ing"
      ],
      [
        "Ġ19",
        "4"
      ],
      [
        "Ġ21",
        "9"
      ],
      [
        "Ġ24",
        "9"
      ],
      [
        "Ġ22",
        "1"
      ],
      [
        "Ġ22",
        "2"
      ],
      [
        "ect",
        "ed"
      ],
      [
        "Ġdet",
        "ected"
      ],
      [
        "Ġvi",
        "be"
      ],
      [
        "inn",
        "er"
      ],
      [
        "Ġno",
        "tebo"
      ],
      [
        "Ġenter",
        "ed"
      ],
      [
        "Ġcommun",
        "ity"
      ],
      [
        "Ġori",
        "gin"
      ],
      [
        "Ġnotebo",
        "ok"
      ],
      [
        "m",
        "ag"
      ],
      [
        "o",
        "st"
      ],
      [
        "at",
        "a"
      ],
      [
        "Ġin",
        "clu"
      ],
      [
        "or",
        "a"
      ],
      [
        "Ġd",
        "ata"
      ],
      [
        "Ġ12",
        "5"
      ],
      [
        "Ġ22",
        "8"
      ],
      [
        "Ġ22",
        "9"
      ],
      [
        "ĠQu",
        "ick"
      ],
      [
        "1",
        "00"
      ],
      [
        "b",
        "ar"
      ],
      [
        "g",
        "ain"
      ],
      [
        "t",
        "ter"
      ],
      [
        "y",
        "bar"
      ],
      [
        "Ġa",
        "ft"
      ],
      [
        "Ġa",
        "gain"
      ],
      [
        "er",
        "a"
      ],
      [
        "Ġe",
        "ven"
      ],
      [
        "Ġc",
        "row"
      ],
      [
        "Ġo",
        "w"
      ],
      [
        "Ġo",
        "tter"
      ],
      [
        "Ġdo",
        "g"
      ],
      [
        "60",
        "8"
      ],
      [
        "Ġ19",
        "3"
      ],
      [
        "Ġ23",
        "1"
      ],
      [
        "Ġ22",
        "3"
      ],
      [
        "56",
        "8"
      ],
      [
        "42",
        "4"
      ],
      [
        "18",
        "4"
      ],
      [
        "od",
        "y"
      ],
      [
        "am",
        "era"
      ],
      [
        "Ġcap",
        "ybar"
      ],
      [
        "b",
        "ody"
      ],
      [
        "o",
        "p"
      ],
      [
        "y",
        "bo"
      ],
      [
        "Ġa",
        "ut"
      ],
      [
        "Ġc",
        "ould"
      ],
      [
        "ri",
        "ght"
      ],
      [
        "Ġre",
        "ad"
      ],
      [
        "Ġ3",
        "92"
      ],
      [
        "ro",
        "ss"
      ],
      [
        "Ġth",
        "ere"
      ],
      [
        "ĠS",
        "p"
      ],
      [
        "Ġwith",
        "out"
      ],
      [
        "Ġ21",
        "6"
      ],
      [
        "Ġ22",
        "6"
      ],
      [
        "ĠD",
        "ramatic"
      ],
      [
        "Ġac",
        "ross"
      ],
      [
        "Ġno",
        "body"
      ],
      [
        "ĠAn",
        "swer"
      ],
      [
        "Ġparameter",
        "s"
      ],
      [
        "ost",
        "er"
      ],
      [
        "ybo",
        "ard"
      ],
      [
        "1",
        "60"
      ],
      [
        "b",
        "or"
      ],
      [
        "c",
        "tion"
      ],
      [
        "Ġ",
        "log"
      ],
      [
        "si",
        "us"
      ],
      [
        "ĠC",
        "el"
      ],
      [
        "Ġt",
        "ur"
      ],
      [
        "lp",
        "h"
      ],
      [
        "on",
        "est"
      ],
      [
        "Ġc",
        "at"
      ],
      [
        "Ġc",
        "ity"
      ],
      [
        "ĠI",
        "mag"
      ],
      [
        "Ġo",
        "ct"
      ],
      [
        "ar",
        "bor"
      ],
      [
        "Ġ3",
        "82"
      ],
      [
        "ĠT",
        "raining"
      ],
      [
        "Ġ16",
        "1"
      ],
      [
        "Ġdo",
        "lph"
      ],
      [
        "Ġpu",
        "r"
      ],
      [
        "Ġbe",
        "g"
      ],
      [
        "Ġ23",
        "2"
      ],
      [
        "Ġ23",
        "9"
      ],
      [
        "ĠH",
        "arbor"
      ],
      [
        "Ġ22",
        "5"
      ],
      [
        "Ġad",
        "j"
      ],
      [
        "Ġtri",
        "es"
      ],
      [
        "Ġlo",
        "oking"
      ],
      [
        "ĠB",
        "e"
      ],
      [
        "Ġwor",
        "ks"
      ],
      [
        "ĠAn",
        "other"
      ],
      [
        "Ġnatur",
        "ally"
      ],
      [
        "Ġinclu",
        "ding"
      ],
      [
        "ĠCel",
        "sius"
      ],
      [
        "Ġtur",
        "t"
      ],
      [
        "ĠImag",
        "ine"
      ],
      [
        "Ġoct",
        "op"
      ],
      [
        "d",
        "ay"
      ],
      [
        "o",
        "od"
      ],
      [
        "ð",
        "Ł"
      ],
      [
        "Ġ",
        "ðŁ"
      ],
      [
        "Ĵ",
        "Ģ"
      ],
      [
        "Ġ2",
        "52"
      ],
      [
        "Ġ3",
        "70"
      ],
      [
        "Ġ4",
        "80"
      ],
      [
        "Ġ20",
        "8"
      ],
      [
        "Ġ19",
        "9"
      ],
      [
        "Ġst",
        "ory"
      ],
      [
        "Ġ23",
        "3"
      ],
      [
        "Ġ24",
        "5"
      ],
      [
        "54",
        "4"
      ],
      [
        "Ġwe",
        "ight"
      ],
      [
        "Ġ28",
        "7"
      ],
      [
        "fer",
        "ence"
      ],
      [
        "ĠðŁ",
        "ĴĢ"
      ],
      [
        "Ġweight",
        "s"
      ],
      [
        "1",
        "80"
      ],
      [
        "ĠI",
        "t"
      ],
      [
        "Ġ2",
        "94"
      ],
      [
        "Ġ3",
        "12"
      ],
      [
        "ĠP",
        "la"
      ],
      [
        "Ġ15",
        "4"
      ],
      [
        "Ġcon",
        "f"
      ],
      [
        "Ġle",
        "vel"
      ],
      [
        "98",
        "4"
      ],
      [
        "ss",
        "ure"
      ],
      [
        "Ġreply",
        "ing"
      ],
      [
        "Ġbeg",
        "inner"
      ],
      [
        "g",
        "re"
      ],
      [
        "ĠA",
        "ll"
      ],
      [
        "Ġ2",
        "80"
      ],
      [
        "Ġ2",
        "71"
      ],
      [
        "Ġ3",
        "00"
      ],
      [
        "ĠS",
        "erious"
      ],
      [
        "ĠG",
        "arden"
      ],
      [
        "ant",
        "ern"
      ],
      [
        "ĠL",
        "antern"
      ],
      [
        "Ġdire",
        "ct"
      ],
      [
        "Ġconf",
        "ide"
      ],
      [
        "a",
        "h"
      ],
      [
        "w",
        "or"
      ],
      [
        "Ġ",
        "Zoe"
      ],
      [
        "ĠA",
        "very"
      ],
      [
        "Ġ2",
        "90"
      ],
      [
        "Ġ2",
        "54"
      ],
      [
        "ac",
        "ts"
      ],
      [
        "qu",
        "est"
      ],
      [
        "Ġf",
        "acts"
      ],
      [
        "Ġre",
        "quest"
      ],
      [
        "ber",
        "ate"
      ],
      [
        "Ġ3",
        "50"
      ],
      [
        "Ġ3",
        "76"
      ],
      [
        "ĠM",
        "aya"
      ],
      [
        "Ġ13",
        "3"
      ],
      [
        "Ġh",
        "onest"
      ],
      [
        "40",
        "8"
      ],
      [
        "Ġ20",
        "7"
      ],
      [
        "ĠJ",
        "ordan"
      ],
      [
        "32",
        "6"
      ],
      [
        "are",
        "d"
      ],
      [
        "90",
        "8"
      ],
      [
        "58",
        "4"
      ],
      [
        "38",
        "6"
      ],
      [
        "44",
        "8"
      ],
      [
        "Ġ26",
        "7"
      ],
      [
        "ĠL",
        "eo"
      ],
      [
        "ĠR",
        "iley"
      ],
      [
        "Ġdeli",
        "berate"
      ],
      [
        "ĠQu",
        "inn"
      ],
      [
        "Ġfox",
        "s"
      ],
      [
        "Ġcrow",
        "s"
      ],
      [
        "Ġow",
        "ls"
      ],
      [
        "Ġotter",
        "s"
      ],
      [
        "Ġdog",
        "s"
      ],
      [
        "Ġcapybar",
        "as"
      ],
      [
        "wor",
        "k"
      ],
      [
        "4",
        "00"
      ],
      [
        "C",
        "on"
      ],
      [
        "L",
        "ine"
      ],
      [
        "N",
        "ext"
      ],
      [
        "S",
        "h"
      ],
      [
        "W",
        "rite"
      ],
      [
        "b",
        "i"
      ],
      [
        "b",
        "l"
      ],
      [
        "f",
        "ore"
      ],
      [
        "si",
        "ded"
      ],
      [
        "ou",
        "nd"
      ],
      [
        "an",
        "ce"
      ],
      [
        "Ġ2",
        "72"
      ],
      [
        "Ġint",
        "ernet"
      ],
      [
        "ar",
        "s"
      ],
      [
        "Ġ3",
        "56"
      ],
      [
        "Ġ3",
        "26"
      ],
      [
        "Ġ3",
        "11"
      ],
      [
        "Ġ3",
        "55"
      ],
      [
        "Ġ3",
        "47"
      ],
      [
        "Ġdi",
        "e"
      ],
      [
        "Ġr",
        "andom"
      ],
      [
        "Ġpro",
        "bl"
      ],
      [
        "ĠCal",
        "m"
      ],
      [
        "30",
        "4"
      ],
      [
        "Ġus",
        "ed"
      ],
      [
        "36",
        "8"
      ],
      [
        "92",
        "8"
      ],
      [
        "Ġ28",
        "3"
      ],
      [
        "ĠR",
        "andom"
      ],
      [
        "Ġdeliberate",
        "ly"
      ],
      [
        "Con",
        "sole"
      ],
      [
        "Sh",
        "ared"
      ],
      [
        "Write",
        "Line"
      ],
      [
        "3",
        "00"
      ],
      [
        "8",
        "9"
      ],
      [
        "k",
        "ay"
      ],
      [
        "p",
        "en"
      ],
      [
        "t",
        "ok"
      ],
      [
        "Ġa",
        "u"
      ],
      [
        "Ġt",
        "rain"
      ],
      [
        "ĠA",
        "rt"
      ],
      [
        "at",
        "ing"
      ],
      [
        "Ġ2",
        "76"
      ],
      [
        "Ġ2",
        "51"
      ],
      [
        "Ġ2",
        "97"
      ],
      [
        "Ġre",
        "ce"
      ],
      [
        "Ġ3",
        "74"
      ],
      [
        "Ġ3",
        "31"
      ],
      [
        "Ġ4",
        "46"
      ],
      [
        "Ġ4",
        "17"
      ],
      [
        "Ġ6",
        "38"
      ],
      [
        "Ġ5",
        "26"
      ],
      [
        "00",
        "8"
      ],
      [
        "Ġ9",
        "34"
      ],
      [
        "te",
        "ly"
      ],
      [
        "40",
        "5"
      ],
      [
        "Ġr",
        "unn"
      ],
      [
        "90",
        "4"
      ],
      [
        "18",
        "8"
      ],
      [
        "ĠK",
        "ai"
      ],
      [
        "46",
        "8"
      ],
      [
        "ĠN",
        "ora"
      ],
      [
        "Ġhu",
        "m"
      ],
      [
        "Ġ36",
        "2"
      ],
      [
        "ĠR",
        "o"
      ],
      [
        "Ġ46",
        "2"
      ],
      [
        "Ġj",
        "ust"
      ],
      [
        "Ġwor",
        "k"
      ],
      [
        "Ġprogra",
        "m"
      ],
      [
        "Ġaft",
        "er"
      ],
      [
        "Ġcat",
        "s"
      ],
      [
        "Ġdolph",
        "ins"
      ],
      [
        "Ġturt",
        "les"
      ],
      [
        "Ġoctop",
        "uss"
      ],
      [
        "tok",
        "en"
      ],
      [
        "1",
        "70"
      ],
      [
        "4",
        "80"
      ],
      [
        "6",
        "1"
      ],
      [
        "o",
        "matic"
      ],
      [
        "z",
        "y"
      ],
      [
        "ĠC",
        "h"
      ],
      [
        "ĠC",
        "amera"
      ],
      [
        "Ġo",
        "ther"
      ],
      [
        "Ġ2",
        "75"
      ],
      [
        "Ġd",
        "ramatic"
      ],
      [
        "Ġ3",
        "32"
      ],
      [
        "Ġ3",
        "52"
      ],
      [
        "Ġ3",
        "15"
      ],
      [
        "Ġ4",
        "32"
      ],
      [
        "Ġ4",
        "30"
      ],
      [
        "Ġ17",
        "9"
      ],
      [
        "Ġ13",
        "4"
      ],
      [
        "ai",
        "r"
      ],
      [
        "Ġcon",
        "cise"
      ],
      [
        "Ġne",
        "xt"
      ],
      [
        "ĠF",
        "air"
      ],
      [
        "Ġ19",
        "1"
      ],
      [
        "72",
        "5"
      ],
      [
        "18",
        "6"
      ],
      [
        "Ġ30",
        "9"
      ],
      [
        "Ġ40",
        "2"
      ],
      [
        "ĠN",
        "ice"
      ],
      [
        "39",
        "1"
      ],
      [
        "Ġmean",
        "ing"
      ],
      [
        "Ġplan",
        "et"
      ],
      [
        "Ġdef",
        "ine"
      ],
      [
        "Ġvari",
        "ant"
      ],
      [
        "Ġaut",
        "omatic"
      ],
      [
        "ĠRo",
        "bot"
      ],
      [
        "Ġautomatic",
        "ally"
      ],
      [
        "1",
        "20"
      ],
      [
        "4",
        "20"
      ],
      [
        "a",
        "k"
      ],
      [
        "p",
        "ar"
      ],
      [
        "p",
        "ut"
      ],
      [
        "r",
        "ange"
      ],
      [
        "Ġs",
        "ay"
      ],
      [
        "ĠI",
        "ts"
      ],
      [
        "Ġin",
        "st"
      ],
      [
        "Ġ2",
        "56"
      ],
      [
        "Ġ2",
        "95"
      ],
      [
        "nd",
        "ard"
      ],
      [
        "Ġf",
        "e"
      ],
      [
        "Ġ3",
        "78"
      ],
      [
        "Ġ3",
        "97"
      ],
      [
        "Ġ3",
        "37"
      ],
      [
        "Ġ3",
        "23"
      ],
      [
        "Ġ4",
        "50"
      ],
      [
        "Ġ4",
        "22"
      ],
      [
        "Ġ6",
        "42"
      ],
      [
        "ĠP",
        "oster"
      ],
      [
        "Ġ8",
        "54"
      ],
      [
        "ĠS",
        "am"
      ],
      [
        "Ġpu",
        "re"
      ],
      [
        "Ġbe",
        "havi"
      ],
      [
        "ĠF",
        "unny"
      ],
      [
        "32",
        "8"
      ],
      [
        "18",
        "2"
      ],
      [
        "12",
        "4"
      ],
      [
        "Ġ30",
        "2"
      ],
      [
        "96",
        "8"
      ],
      [
        "Ġsta",
        "ndard"
      ],
      [
        "ĠKe",
        "yboard"
      ],
      [
        "Ġ25",
        "7"
      ],
      [
        "ĠB",
        "right"
      ],
      [
        "Ġpre",
        "ssure"
      ],
      [
        "Ġpredic",
        "ts"
      ],
      [
        "Ġgo",
        "od"
      ],
      [
        "Ġwor",
        "se"
      ],
      [
        "Ġlar",
        "g"
      ],
      [
        "ĠSt",
        "range"
      ],
      [
        "Ġtrain",
        "ed"
      ],
      [
        "Ġhum",
        "an"
      ],
      [
        "ĠCh",
        "aotic"
      ],
      [
        "Ġvariant",
        "s"
      ],
      [
        "par",
        "ameter"
      ],
      [
        "Ġbehavi",
        "or"
      ],
      [
        "1",
        "44"
      ],
      [
        "6",
        "5"
      ],
      [
        "9",
        "20"
      ],
      [
        "L",
        "M"
      ],
      [
        "g",
        "ence"
      ],
      [
        "n",
        "ing"
      ],
      [
        "p",
        "ose"
      ],
      [
        "r",
        "or"
      ],
      [
        "t",
        "le"
      ],
      [
        "li",
        "st"
      ],
      [
        "li",
        "gence"
      ],
      [
        "ho",
        "rt"
      ],
      [
        "Ġint",
        "el"
      ],
      [
        "es",
        "s"
      ],
      [
        "Ġ3",
        "60"
      ],
      [
        "Ġ3",
        "54"
      ],
      [
        "Ġ3",
        "16"
      ],
      [
        "Ġco",
        "ver"
      ],
      [
        "Ġ4",
        "40"
      ],
      [
        "Ġ4",
        "26"
      ],
      [
        "Ġmo",
        "ment"
      ],
      [
        "ĠS",
        "hort"
      ],
      [
        "Ġcon",
        "sole"
      ],
      [
        "et",
        "urn"
      ],
      [
        "52",
        "8"
      ],
      [
        "Ġ30",
        "6"
      ],
      [
        "16",
        "5"
      ],
      [
        "38",
        "5"
      ],
      [
        "Ġcont",
        "in"
      ],
      [
        "75",
        "5"
      ],
      [
        "ĠL",
        "e"
      ],
      [
        "ĠL",
        "LM"
      ],
      [
        "Ġlo",
        "c"
      ],
      [
        "Ġ36",
        "1"
      ],
      [
        "ĠR",
        "eturn"
      ],
      [
        "Ġexp",
        "lan"
      ],
      [
        "Ġver",
        "if"
      ],
      [
        "Ġroll",
        "s"
      ],
      [
        "Ġpur",
        "pose"
      ],
      [
        "Ġintel",
        "ligence"
      ],
      [
        "Ġcover",
        "age"
      ],
      [
        "0",
        "24"
      ],
      [
        "i",
        "xed"
      ],
      [
        "i",
        "bi"
      ],
      [
        "m",
        "ical"
      ],
      [
        "y",
        "mb"
      ],
      [
        "Ġa",
        "ri"
      ],
      [
        "Ġt",
        "as"
      ],
      [
        "Ġs",
        "ymb"
      ],
      [
        "Ġ2",
        "96"
      ],
      [
        "Ġ2",
        "88"
      ],
      [
        "th",
        "met"
      ],
      [
        "Ġf",
        "in"
      ],
      [
        "Ġ3",
        "80"
      ],
      [
        "Ġ3",
        "40"
      ],
      [
        "Ġ3",
        "51"
      ],
      [
        "Ġ3",
        "35"
      ],
      [
        "Ġ4",
        "56"
      ],
      [
        "Ġ4",
        "70"
      ],
      [
        "Ġ4",
        "15"
      ],
      [
        "ro",
        "t"
      ],
      [
        "Ġ5",
        "00"
      ],
      [
        "Ġ5",
        "46"
      ],
      [
        "10",
        "8"
      ],
      [
        "30",
        "6"
      ],
      [
        "30",
        "8"
      ],
      [
        "Ġus",
        "ually"
      ],
      [
        "76",
        "8"
      ],
      [
        "70",
        "2"
      ],
      [
        "16",
        "8"
      ],
      [
        "22",
        "8"
      ],
      [
        "Ġ36",
        "3"
      ],
      [
        "Ġche",
        "mical"
      ],
      [
        "99",
        "9"
      ],
      [
        "Ġ38",
        "9"
      ],
      [
        "Ġnor",
        "m"
      ],
      [
        "Ġsk",
        "ibi"
      ],
      [
        "ĠHel",
        "met"
      ],
      [
        "ific",
        "ial"
      ],
      [
        "Ġlog",
        "o"
      ],
      [
        "Ġrunn",
        "able"
      ],
      [
        "Ġlarg",
        "est"
      ],
      [
        "Ġloc",
        "ally"
      ],
      [
        "Ġari",
        "thmet"
      ],
      [
        "Ġsymb",
        "ol"
      ],
      [
        "Ġskibi",
        "di"
      ],
      [
        "Ġarithmet",
        "ic"
      ],
      [
        "1",
        "54"
      ],
      [
        "1",
        "95"
      ],
      [
        "2",
        "40"
      ],
      [
        "3",
        "36"
      ],
      [
        "g",
        "o"
      ],
      [
        "i",
        "tion"
      ],
      [
        "r",
        "uc"
      ],
      [
        "u",
        "zzle"
      ],
      [
        "Ġ",
        "er"
      ],
      [
        "er",
        "ical"
      ],
      [
        "al",
        "ity"
      ],
      [
        "he",
        "ther"
      ],
      [
        "Ġ2",
        "60"
      ],
      [
        "Ġ2",
        "58"
      ],
      [
        "Ġ2",
        "74"
      ],
      [
        "Ġ2",
        "77"
      ],
      [
        "Ġp",
        "ath"
      ],
      [
        "Ġn",
        "um"
      ],
      [
        "Ġf",
        "unny"
      ],
      [
        "Ġ3",
        "58"
      ],
      [
        "Ġco",
        "ok"
      ],
      [
        "Ġ4",
        "20"
      ],
      [
        "Ġ4",
        "11"
      ],
      [
        "Ġ4",
        "82"
      ],
      [
        "Ġ4",
        "27"
      ],
      [
        "Ġ6",
        "32"
      ],
      [
        "Ġ6",
        "22"
      ],
      [
        "ĠP",
        "uzzle"
      ],
      [
        "Ġli",
        "ve"
      ],
      [
        "Ġ9",
        "39"
      ],
      [
        "ĠS",
        "o"
      ],
      [
        "40",
        "6"
      ],
      [
        "Ġbe",
        "fore"
      ],
      [
        "60",
        "4"
      ],
      [
        "ur",
        "al"
      ],
      [
        "Ġne",
        "ural"
      ],
      [
        "Ġevery",
        "day"
      ],
      [
        "Ġcla",
        "im"
      ],
      [
        "10",
        "4"
      ],
      [
        "10",
        "6"
      ],
      [
        "42",
        "8"
      ],
      [
        "Ġper",
        "form"
      ],
      [
        "Ġ30",
        "7"
      ],
      [
        "ust",
        "r"
      ],
      [
        "Ġ26",
        "6"
      ],
      [
        "Ġ36",
        "7"
      ],
      [
        "ĠCo",
        "nt"
      ],
      [
        "71",
        "4"
      ],
      [
        "Ġ34",
        "5"
      ],
      [
        "Ġwor",
        "d"
      ],
      [
        "Ġrecogn",
        "ition"
      ],
      [
        "Ġlar",
        "ge"
      ],
      [
        "Ġread",
        "y"
      ],
      [
        "ĠArt",
        "ificial"
      ],
      [
        "Ġinst",
        "ruc"
      ],
      [
        "Ġverif",
        "y"
      ],
      [
        "Ġtas",
        "ks"
      ],
      [
        "Ġnorm",
        "ally"
      ],
      [
        "Ġer",
        "ror"
      ],
      [
        "Ġnum",
        "erical"
      ],
      [
        "Ġinstruc",
        "tions"
      ],
      [
        "(",
        "\""
      ],
      [
        "3",
        "76"
      ],
      [
        "5",
        "20"
      ],
      [
        "5",
        "60"
      ],
      [
        "7",
        "50"
      ],
      [
        "?",
        "?"
      ],
      [
        "d",
        "er"
      ],
      [
        "f",
        "y"
      ],
      [
        "g",
        "et"
      ],
      [
        "i",
        "es"
      ],
      [
        "i",
        "tely"
      ],
      [
        "l",
        "ve"
      ],
      [
        "t",
        "he"
      ],
      [
        "t",
        "work"
      ],
      [
        "Ġ",
        "rough"
      ],
      [
        "si",
        "de"
      ],
      [
        "si",
        "der"
      ],
      [
        "Ġe",
        "arth"
      ],
      [
        "hu",
        "r"
      ],
      [
        "ul",
        "ar"
      ],
      [
        "ĠA",
        "re"
      ],
      [
        "Ġs",
        "av"
      ],
      [
        "Ġs",
        "ure"
      ],
      [
        "Ġin",
        "put"
      ],
      [
        "Ġin",
        "side"
      ],
      [
        "in",
        "itely"
      ],
      [
        "Ġ2",
        "93"
      ],
      [
        "le",
        "ss"
      ],
      [
        "ri",
        "ved"
      ],
      [
        "Ġf",
        "ive"
      ],
      [
        "Ġf",
        "ixed"
      ],
      [
        "Ġd",
        "ur"
      ],
      [
        "Ġre",
        "qui"
      ],
      [
        "Ġ3",
        "20"
      ],
      [
        "Ġ3",
        "90"
      ],
      [
        "Ġ3",
        "88"
      ],
      [
        "Ġ3",
        "95"
      ],
      [
        "Ġ3",
        "99"
      ],
      [
        "Ġ3",
        "13"
      ],
      [
        "Ġ3",
        "79"
      ],
      [
        "Ġ4",
        "10"
      ],
      [
        "Ġ4",
        "72"
      ],
      [
        "Ġ4",
        "92"
      ],
      [
        "Ġ4",
        "51"
      ],
      [
        "ce",
        "an"
      ],
      [
        "ce",
        "ssing"
      ],
      [
        "Ġ6",
        "58"
      ],
      [
        "Ġ6",
        "78"
      ],
      [
        "Ġ6",
        "27"
      ],
      [
        "Ġ7",
        "99"
      ],
      [
        "Ġmo",
        "on"
      ],
      [
        "Ġ8",
        "40"
      ],
      [
        "Ġ8",
        "60"
      ],
      [
        "Ġ8",
        "48"
      ],
      [
        "Ġon",
        "ce"
      ],
      [
        "Ġ9",
        "17"
      ],
      [
        "ĠM",
        "et"
      ],
      [
        "Ġ10",
        "22"
      ],
      [
        "Ġ11",
        "39"
      ],
      [
        "ĠS",
        "leep"
      ],
      [
        "ĠS",
        "ound"
      ],
      [
        "80",
        "8"
      ],
      [
        "Ġcon",
        "sider"
      ],
      [
        "Ġne",
        "twork"
      ],
      [
        "ĠJ",
        "u"
      ],
      [
        "duc",
        "es"
      ],
      [
        "50",
        "4"
      ],
      [
        "Ġpro",
        "gre"
      ],
      [
        "Ġpro",
        "cessing"
      ],
      [
        "Ġpro",
        "duces"
      ],
      [
        "Ġso",
        "lve"
      ],
      [
        "ĠH",
        "ere"
      ],
      [
        "ĠU",
        "nder"
      ],
      [
        "42",
        "5"
      ],
      [
        "Ġar",
        "rived"
      ],
      [
        "18",
        "5"
      ],
      [
        "92",
        "4"
      ],
      [
        "Ġtr",
        "y"
      ],
      [
        "Ġsta",
        "te"
      ],
      [
        "Ġreason",
        "ing"
      ],
      [
        "51",
        "4"
      ],
      [
        "Ġ40",
        "7"
      ],
      [
        "98",
        "00"
      ],
      [
        "ĠEx",
        "ercise"
      ],
      [
        "15",
        "9"
      ],
      [
        "Ġcho",
        "ose"
      ],
      [
        "im",
        "um"
      ],
      [
        "Ġmax",
        "imum"
      ],
      [
        "Ġ50",
        "8"
      ],
      [
        "Ġ26",
        "3"
      ],
      [
        "ĠB",
        "read"
      ],
      [
        "ĠR",
        "ome"
      ],
      [
        "Ġstr",
        "ange"
      ],
      [
        "Ġact",
        "ually"
      ],
      [
        "Ġred",
        "uce"
      ],
      [
        "Ġplan",
        "ning"
      ],
      [
        "ĠO",
        "bjects"
      ],
      [
        "ĠO",
        "cean"
      ],
      [
        "Ġmatter",
        "s"
      ],
      [
        "Ġbrain",
        "rot"
      ],
      [
        "Ġpartic",
        "ular"
      ],
      [
        "Ġacc",
        "ess"
      ],
      [
        "Ġdire",
        "ction"
      ],
      [
        "Ġexample",
        "s"
      ],
      [
        "Ġdef",
        "initely"
      ],
      [
        "Ġvari",
        "able"
      ],
      [
        "Ġadj",
        "ust"
      ],
      [
        "Ġadj",
        "usts"
      ],
      [
        "ĠPla",
        "nts"
      ],
      [
        "Ġconfide",
        "nce"
      ],
      [
        "Ġprobl",
        "ems"
      ],
      [
        "Ġau",
        "ra"
      ],
      [
        "ĠLe",
        "aves"
      ],
      [
        "ĠCont",
        "ext"
      ],
      [
        "Ġsav",
        "ed"
      ],
      [
        "Ġdur",
        "ing"
      ],
      [
        "Ġrequi",
        "re"
      ],
      [
        "ĠMet",
        "al"
      ],
      [
        "Ġprogre",
        "ss"
      ],
      [
        "1",
        "12"
      ],
      [
        "3",
        "30"
      ],
      [
        "4",
        "16"
      ],
      [
        "6",
        "20"
      ],
      [
        "d",
        "ating"
      ],
      [
        "i",
        "th"
      ],
      [
        "l",
        "f"
      ],
      [
        "l",
        "n"
      ],
      [
        "l",
        "le"
      ],
      [
        "m",
        "for"
      ],
      [
        "p",
        "dating"
      ],
      [
        "Ġ",
        "<"
      ],
      [
        "Ġ",
        "rou"
      ],
      [
        "Ġ",
        "lit"
      ],
      [
        "Ġ",
        "hy"
      ],
      [
        "Ġa",
        "ff"
      ],
      [
        "st",
        "ood"
      ],
      [
        "al",
        "ance"
      ],
      [
        "li",
        "ar"
      ],
      [
        "he",
        "d"
      ],
      [
        "ĠI",
        "ce"
      ],
      [
        "Ġin",
        "ference"
      ],
      [
        "Ġ2",
        "98"
      ],
      [
        "Ġ2",
        "78"
      ],
      [
        "Ġ2",
        "91"
      ],
      [
        "Ġ2",
        "73"
      ],
      [
        "Ġw",
        "hich"
      ],
      [
        "ĠW",
        "ith"
      ],
      [
        "ac",
        "es"
      ],
      [
        "Ġb",
        "alance"
      ],
      [
        "Ġn",
        "ah"
      ],
      [
        "Ġ3",
        "10"
      ],
      [
        "Ġ3",
        "42"
      ],
      [
        "Ġ3",
        "18"
      ],
      [
        "Ġ3",
        "96"
      ],
      [
        "Ġ3",
        "46"
      ],
      [
        "Ġ3",
        "94"
      ],
      [
        "Ġ3",
        "17"
      ],
      [
        "Ġco",
        "lle"
      ],
      [
        "Ġco",
        "mfor"
      ],
      [
        "Ġ4",
        "36"
      ],
      [
        "Ġ4",
        "35"
      ],
      [
        "Ġ4",
        "74"
      ],
      [
        "Ġ4",
        "66"
      ],
      [
        "ce",
        "pt"
      ],
      [
        "Ġ6",
        "51"
      ],
      [
        "Ġ5",
        "40"
      ],
      [
        "Ġ5",
        "42"
      ],
      [
        "Ġ5",
        "97"
      ],
      [
        "Ġ5",
        "47"
      ],
      [
        "Ġ5",
        "79"
      ],
      [
        "Ġ7",
[...]
